[{"catName": "Amalka", "catImageNumber": 1, "nightVision": false, "outputTensor": "k/YHwNsct79AGwg+eFuyPow7Er945SPA3ne/vwACR70l8GRApDXVPdUEsz6v2XXAfWukv7aapT/C1j8/SChBPsg1xb4AjGo+zPMJwPxaKsBVaiS/4YODQKI9n7+gf+a/0oTXv8ztmD74zlNARRoGPy41jb+l14I/CbtvPjlhWcD1nrQ/nUeDP0YX475AJJq/Tvv5v2cUcL9lLUA+gqxyPXUbZMBALds8fEwsP3l90r9C3OA/PmRaPk3QEsALjQS/WsS4P+3Qsr7R8A6/+KkOQGYfqj+5nge//M2MQDotEr/Mmco/NBMNwBA5Ib7b99m+/zoGP4SmiT7mYEO+3k3jv+XuN72tV7o/FtLav/J6C76GYze+wqAzP4rBZr+w14u8WqodwI76XL8/nSS/mu1kvrA+Cb1kXJW91FgvQMVYgsDZFMk/L2w6wJf7xj9JkOg/iM4FwICKPT9Jv2DAsxfAv3qD9D7Gn8g/JqjwPRZpDcBOsm8/+HiePUQUmb+unbK/gI1dQPywCkDw2S2+Xsa3PzpNhr9spz++L8DLv+p/C0AC/a2/50zSv/Bjszw5iiy/6VM/wGj7yD8k2jdAwLJCv8bS078+W24/SLGzPypqjD8AGgU9EGb8PnKDor/wuh0+KHjFvzpkLj+eEhu/birjv6kCy78cOS3AVIwKvWlWiMCF0sC/MHoHP5/OIz6SGAc/HK3lPzCEKb+mVTA/k03KvgCFHEChq2m9BoYCwAv/HkBqDP++nCstQDpk/r/dPbk/Wzf6v59vGj/oxgXAIPVtv4YNDkBkEG2/nbGEPjzmiD9m6P+/9Uyov0Z80b7G+iy/IpcswEWXvj9KZ+S/H6Suv9wOxz7oNpk/85vEvw53B78qP46/kggBv/bvJL83dE8//IAGQAsXQz8M12g/pouUvxldIcDnIY8/zeBNv/dJmz5oFcC9ioymv9y9jr8f/r2+I1WZP14Knz+Os8O//crqP7GogT+1ElPAwCcov1wcFkDqgmw/4sfov/y+hb78Dqk+gPn1vIkIrr/OlhPAkiKXP41bgL8vIus/QAVXPwxb87+Y7Fa/krJqvqJSIUAneYq/WxQ1Pxpblz+sAWm/Lr4JwNoRAz6+VgpA5NrNP+kJNUDg7GY/nFqlv9Utgj/B3hHAqD02P0QDaj93cmlAxvp3vhjI0j4EAC8/Wo/jP1BOAL6wtMe/NHSDvrCBsD/5u8Q/VNi+P4ysqz7OuQzAt384vnqlvL0MR6Q+20wPv4CUs7tAEtk/gsn5vt1uPz9Y5xfA0GwqPtzHWT9GPOS/CKqwPqvldT8SFtG9sdRZP3CwCkDX+hDAvZs0v/61Er80DIU/0UHIvyx+qcD5zLi/4WTJP4HYYr+CmWpAtTQWP5cg9T/QcPG8OR8TPuC4VcD+TGXAbIuNPw58Jr9cIwy/uw3lP2fI1b/8xqC/efq3P7lBhb9QQcu9GBYMvqZiA79bk3S+aODBvol8zD+bawbA8LlMv6L7s7+cUX3AhCotQOQzwz/8wZS/LMG6P8S9Fr/k/x7AkvcxQJDUa8Aqj8c/5x3GPz9sbr+pvY69wS0uwETyQL/eYS+/mXPwPpky8L8zn3ZA0AbpvwFjLj+UK92/Z343P92Ph78ZqFPA4mDfvlSyRT4p2PO/JTEowPxNHkAA5Y271EHWPxCPlcDf1TK/Voi+vyl8Fz+K+qW/LpOJP8NOkL+CzAi/XIFtP44+p75k9Jo9mlIMv89Ppj6AIck/iQ/iPwYXtb4sN8O/pGxlPuwlhT4nQYI/0V3Yv4gbsUDOIeM9MFPNv619ib4i00i+6KYNv3wFP0ByHZfAkBigvRoaXcBzuQdAZslGwIYBDMAaNh8/6vb/PTR1dL1mkwW/q2eJv3xeBT/9FCbAllzFPyfR4j/xkp8/9vpbP+Zovr9fJ5q+2BF6v3TTqT4BVSJA1+8ywC8LFb9/QHg/XiPRP3gOFT8uv5o+Jic0v9DIZL9kk9i+EEc1QHzekT6Sop1AHGw6P7iVgsABET+/2sObPziJhD3dwxPA2u39v4KMLkADflbALD6dv+3sR0BgUEK+QJOgP0B5FL/oqEC/vlVyv+JIBj+h3TY+TaKKviaBQj/46nQ/wXySv7eoEkChpr0/3hlWPnAHBMA/AhTAlltYPzz3hr/0V50/fE/SveiiXr82vMU/H6kGv7ouGMCE39o+2PxGQIfnM0Bg8GHAuBJsPrsN67+kiPW/KWAZwExfBEBGE/Q+CX8RP3GpJb/p2/8/qPpnvGeFgD8Amh89Z3s5v25/fb560SFA452mv/xW4r9H5tS/pkM7v2v9WL90LhvAlzjiPlUngT/OaZK/3uwIvnX9RkDlfKO/6Bxyv6t2QsDasALAiNStv7l8qr7/VsK+lq5FPiy8JECCw2RAMh3QvvOMfUBgr0g82N4PQHQz477ffM4/IP4EvTm74j9IObC+EJ0cQJw5L742sqk/FW2cP/FxDMA/Uum/cC9eQE6HIEDXBZbA0LwPQPYphj9WoM6+kBoWwCFE4L9hywZAc6dwP+vbLz9k+kLAmoYaQNrCVkAMc80/AL9WP0z32r8BCiNAdTLxv1ByjkAI3fQ/INclvOsyMcAeFJm+dy11v2UA8b/MT9k/JIT5PUey6b9HBD3AOc61vlxkAEBZKeK/VjtXvxplKz8REAK+7NsGwJCAIUAsvRM+W0lcQIM2Fz/k/uA+SE7PP4wJmL/irjC/5H/ZvrC8ML8Gnf8+nlvnvnh3d8AG1pO/ZggUwN6OdD+yS5i+bABjvoGmCcBvPak+4A4oPok3+r4MwQ7AwvLLvsIGNECIYwTA+uUOP64Afj/olk89CADJPyXgSsDLgoA+nxwPwMezmz9rKDe/nuIjQADyCj5tPbQ/dHDCvy4QSUCSb8s9MdWJvyfBIz9AHxZARYcHvvLS+D9zhx9ABpjTv/XSKT+GFlzATV4PwKL5VUAGhkg/wJftPtcBiD/217G/6oaNQLAVM7+GWga/FGYjv6yxdUAFTmZAdjQvQMBDHb6UJzO+XHCFQFB1DUCGty4/hB4RwNvFf8CQPsO/S4FTQKVCBcB0VzFAzNn/vzZzLcDl6R6/bxtKv19dNECz59A/Vlh6PxhRcr+Zbdg/6jmFvnAMekCrJge/sUTvv9fsvT5zf4I/BO++PrNKlT8w7EbA0+aKPzXmgb9lG+E/FKpfPeZYLb+oeTk/3iIvQL+NDcA2Mgg/hHyawHThFb/uN6k/HEfCv+OieD54ECi/0L5Ov0pVCsAF80TA/Bwovh5pr75iF5U/84QNwLmYrj8acqK+X0nNvhnUN0AB1Xu/el27PxRmkT9nnDg/ZmbvPyaCGr/u/wpABhnNvfWIBb+Z/vm/OhfXPkiXZL6fxNm/Q4bzP4CnPTuErd+/VuGev38SDkCMFilA8HX8vsrQJb94sQe/kl7tP8jExj8EJTxAUSM5Pyf/dz5xr6S/S1igP0gmSsDiWlE9u7DRv57Ihj/ae6U/5JElwEV2IEBEDsk/eLofPwz8/T9w/y++d7uMv4hdwL/lgqA/VC3TPoG75z/SFjpAA+xWQFkS1b+3hShAApepvoQy+j4l1CHAKFAiQB4Hoj+wT84+hTKTvZqOTD9kIUK+qTaZPhiolr86ZKq9qPDXP293hD6beRG/o6oEQCUIib5CK/s/Rh9BP+g7Hr3KKdY/sLz2PcmUL0DM0jLAqQLYP8DCE8Df3C+/PzobQKgASEBoaI68xEEJPpB55DyR0LG+cPfMP5UtHsDqhP6/Um+CP9n0lL8kKSE/nO9kPbSjhz+0Tlc+QMkov5QHnT5Cl+C+0TQ0wG90QsDVCAHA5ZqfPfjaLD9NRU9AcCl9vZkMnb58CkfAdfatP56wGsDcl1w+SCUEv5ZUWT6sLNY+ZhFkQGZEGj/uMVRA1ZycP7a9OsDLOZg/8mBHwKNiuj9AcTG9OMy6PwV4/z00Ykk/1pSvvzUgqL0cWss/9rQSP1MZNb+WxDc/Kn6Mvi5MED5ihUdAm8vGP45dy743HNq+e8TRP7DulT++Cd6+GDQ4QALwez+0gCo/MoZmPo5MNT8lj+W+EtG+v17Csr8TZDc/3GUSv29R6D9gVoC/"},{"catName": "Amalka", "catImageNumber": 2, "nightVision": false, "outputTensor": "4Pbbv9Yzur9ZdTY+IVMQP1pGnb+Asi7A8ykBwKk6KT+fIipAyhPZvjUCKkBTmFrAgJ9GPELbM0AOvI2+yq9xv/yucD6+BD4/20V6PyJG3b9BQtQ+b0FNQDMRGMCen9C/MP2jv+aF8j5AAzdA8dMIP4Jqw7/Rbn2+oD6SPr/tQ8B0U4Q/FzYIQHmErb9u/7u/ao7Jv4gMnT5G0Ao+iXaOP1HHFcBfIQVAxgT7PxL8gr8TDOs/NpawPzaaDsCyuHa/LBaEP0isHj+ysRs/5OadP1CppT8Lkks/iS4gQPTAlz+RBEFA5A1hvQQiuz9E3vi9ClpQP1hQCr8aGxLAQq4xwE5y6D928rM/PuknvyEfXb/OV0e/vD6NvoWQXb6IrXO/FgQQwKjIhb+7N7i/JLocPzimJ755NmO/z9VWQIzMWsCsrjU/MFVjv/zsuD/MrP8/VwhIwEU6Pb4RRU3AFpqKvhbfxz9vuvA/zhdCPhwJVcBg9Jo84v2JPzQZ0r88w2jAKIN2QB9p5T/0RAW/h67aP8nYUD9wEbk9BT8GwBCnK0A2NKS/MNVzwBT/xr/k5ifAlk1rwD6qwD4IWAxA9auvv5jE2r1NbWK/+zMhv7ElOj5wZVk+30bxPzGT1L/wHdQ8dFQOwEf35L4Gk5W/1elFwJ39yb9yZhHA+3KtvyoDXMDLppo+MKgePYKGHEAgJyw/BEPfP/pmNsBHfGo/9X3Pvja+NEDECzY/BBwbwLyrDEDntBo+9MKrP8JoEMDmIns/0/A1vzKN1T5rFg3A6Vq+vy4S1z8RvUw/2A9gvnogsT5mXje++N3yv1BAP7/mA0I/choIwF4y6T8gCiPAPi45wDBLGD+HoOk+KPYMv7icqL/u5gq+2KISwLQG5r9WIaw/B7qtvmqZwT+wnei+yKMCwPa1JMCzG7E/gzsEwIASNr76OL2+qHqEv1q/Hb/ElQa+GvYCQEVDpj9yYArAspkGQE0KCkBEBC3AWkdgv7TsIEC3jDc/npIYwAQ4wb7Wyp2+9v8JwHwkGL+kAdu+dJzqP3CSjL8cawFAMhOKPlqHI7+kUqw/AobivmUMuz91Op+/BNDPPhaK/z/a3gA/0y3Fv3CU3jxr/zNArX4WQA0+7D/mgmg/nhp2v4myKT+UcJm/M/3jPzLbyT/NdHpAl2ShP6iwk7yEiqK/UZ8dQOxj1T++x7S/dqcIv5AFWb+r3Rc/Yoa9P2HLj74KrRrA65o3v4qGQb8B+hG/L6bvv33g7b4KE9I9w0wxvodmlT/rvYy/JwANP5Im8T4ctfC/UiyTvifWTT/W1J69AakbP05tkz8YGivA/Hdiv1XYpb/O7zw/HioLwHeplcDScoi/eaLDP6rODj4wCZY/kaY+v8b65T9VV4o/SJm5PibM/L9Okn2/9U08QGEURr/IqrC/AF+xP3HktL8cBuC/1hxgPwtm9b9UBgS/OLT+PvpMtz88ZD6/wjsQQH7neT4TlgnA6ae7v2YZ8L/Rocq/QvauP4hfAD7/ZZ2/93zIP/oiKj8viBnAsGP4PzbHH8CnMIQ/QuJQPyCJoz1SE/Q9FWSMv6YpFT9g1XS9KOdrP2QbJ78A4O8/ROf1v1dJwr++RFLAgLNbPmEYVsDIAve/DbTiPwr8kb5WIQvA+qSSv3vGqj9zWlK/lUUwP5f9OcBUDx2+Bk/rv3eGKT8LEII/1Ep9PwDWGr6HmNW/TBX0P1/cNL+Tppc/7CuHPUJvjz+J8xpA7k5kQM2Ror94tOe/QNJPO50sEj/NKAI/WFcHwD8CaUAJfCs/MoznvoMmrz+tyk+/JX6/v308zj+VAYzAxt3WPg7ROsDO7pq+mVQ/wKb+fL4byzc/oNtXPr7eZD4fc6+/RntAP7s61b/V7ri/mD+6P7g9MkBC7SE/fzPGPgirNL+fS2y9mWWIPtAx8D+WH/4/tIAswMwfFr9I8D6/faWGQOlCK0CZ6uo/HxWYP1x46z1eUu+/zya/PxDDKT9t7bZAeL0zPh9MMMBmbAfAHFukP5BImb+80vS/q7MXv/imIUCTvOO/fhWMv/Twcj/ENw+/0eRMPwJDJ78kOR7AikbFv9Tp/L5PMK8+FBN/PjgZND/quyNAcJqWvwUPQEDos1Y/48n+PejXvr/uZ7q+D+NvPwVW5b46tXQ/xWgIP6P/wb+uUghAANSlvNr6XL5b1CM+DgQYQAb5TkBNLVDAWiAXP3/nGMB8N2s+j18xwNK6BECy8wFAlBQMQJYDgb+/LwlAcjG4P6SSHEAi2MK/+C4qPUD0iztVys8/jIFtvzw0wL8aSpC+bnFnv9p7ob/QdQHA9uAkvqocFkAezTPA3wVgv/66yz8iqz+/GokSwEuIAcAEMby+kEvYv9zEKL8+Rnq/yf8lvz4mLkAL+jhAoQGUP+zwKUBiFdW+puUFQIvOmD/T7XA/PZFEPwFS5z/Fyc6/4leoP4xTZ74g/7o8Hkx+P9q5xL7et8S/a1UPQErT6D+b8UDAkYQxQAaF4zwXk0G/amNJwPxLfcCADrw/4gTtP2nJML8YiQTANLWhQPjfLECcaCBAngjkP/Znd79z9lpAPEVQv/W/b0Dqp+M/rJmPvuzURMAANSW8vDJHPhcwh70XSHk/6H8tvXzIr792/dK/IAzIPrhlUj/M1Pu+c+BTP/sn+T50/iw+9gAKwACh6D+tfck/pJEXQC89uT5PKk8/Y9vTP227tb84hqw+EL1wPJMagz8pVf4/Ap8YwL5TYcA41xPAnPhIwBZAJj+zs4I/sjmov5U8pL8Qx7y8Nt5Wv5OFw77Mqlm/I/2Gvzoc+z+UsOe+gwG1PzaYfr84nGK9V7uIP13zOMDg0B9AHbP9v97vOEDYvMK/vul2P69zsj7Jnh1AfzwNwPYHCUAN6sg/sEb8voM5+b4M6PM+5oMIv7Dzmj823AJAZ80nv6jA8L1Olz3AsAUvvhFUF0AXe4M/IoAqP6liDkBCWf6+9pWCQNc3ob70eu0/KBOdPigxSkAsxzpAzXUiQKEd0b+pb1W/2EwFQN4xIEA0kcc/U+EOwIJx1r84wpS+6+VSQCLoi7+0+A5AhJSnv1p3/r7DNXe//GEdwKegVUBkyRxAf3rjP0zuob7UyBpAyYgXvwjcpkDxzha/zTXLv0rkNL+qV9m+6VwAv4GevD8bijfAfBeXvk7B5r9nxglARHYVQFVJ178vcIQ/tUeVPyABKsCBFytAdA4kwOx7pr/SVn+/4rMRv3QYZL6W7wm/OGacvj2rOMD3bPi/fu24v3bEbT+fDJI/665EwI+moL+uBoM+WMz1vpB/bEBH9Nm+9FpOPwv21D8mP60/gAKZvAd5kb9zcbQ/ZapGwFLZjb9kkti/LjW7P0GrIL8JGr+/47XzPzx6UL9YiNe9FQpZvzTJ7j+akhNA4nxhv9oyhr+yskI/bAHsP5Xo+j+i06M/KLdBvqBxajzUGr6/nkiLPuQONMCrAH6/3NZhv85V8z9Wcj4/GjgAwJaADEAFWUdAgnDyvtgMPD00pmi/YtAiv2ujdL8iSbE+mtekvyw39Lxhk/Q/l49kQHVg6r9SyPk/HYMewNiwXj+u+Ny+vftxQNd7k79znLk/mZRevs4DiT6INHW/cBeKvmTwnr89XEK/e6rqP73qdb97VY6/6NgVQFRY9L2wx2g/GBnZvcBFEz6UL4w+QOm0vPg+FkCKkALASDIEQEUREsC9FLO/2Ra0P+JvB0BNDwtAgBLAvrwoob+IrEC+dEgIQHkwA8AB/wnAgI/KPMTYLr+YMg+9iPLfv2Zsqj/ATO49jpFYP3gaOj9MLoe/CzZgwJTQTMD2A+2/TUq7v9RnZj8FowtAVtiLv3vIjL9EplHAbKTcvjhZkL9ChJg+b9KVvZW/xb38FilADdLxPx7ZWj5JW6k/mdmqP5Zzib+k8vs/LE2FwOCpP0CyB7q/lw46v5z4Qr1cJri/jjcIvyHE5j9NOgdAYS5SPxuRBMBx2ow/3sQjv8wBZj+6ZvY/RCIJP3JKEj8Nrey/UL93vT0Y2D9QAiM9KiLkP5DeVL4ZZQhAw6Rwv240mj6y/KU+s863vkPXwD4KCJI/DCOZvw4TZD/HuRzA"},{"catName": "Amalka", "catImageNumber": 3, "nightVision": false, "outputTensor": "uRQnwH2CbsDZAY+/AH4PPVGZsj84gtC/RSgwwAsPpz+PCLM/8UfWv+5nFz8uhNK/Q/cbP+Bblz+Injy/AIRUPno4hj/+BGA/c21OPiiZiL8IN8w9RFrxP7pvSj9kDTK/8FDHv00Bwb9CXhBAj10mPy67SL+NIjRALTA6QO0XQMDCwCc/Ohc3P+DAij20PQDAWnkmQLD+ML9PbDA++iWCv/XMGsAs+B6/gj2LP5RfEj61uDU/7BYxQGemAcBDn8y/IEOzP74zsD8804u+xg6Yv2rF2z8UdRvAV4ebQGG4yT/Cm+c/ULZJPyLlZj/CKsS/U0Dpvn0hX7/RjPy/o5oswHbeyr+06ZS935ehvxTPib4CTx+/bCtiv8Rpnj+f0vG/fX87vw99KcClRmm/14idP/3pGr/oQKy/iKkpQM59IcDXmtq+Zhg2wELFGEALiwS/znsuwHi4L0BJRynApLEWQO1Lhb/7LxlAxsS2PhiuI8Ck5S5Abv7KvxgvnT/SerO/1wgLP60P/z/o7pa/NlhUv9Gnar8gKGE98qd5wP+txr+uGPq/aXpDwP0fAT9ZGzjAshrQv783TD9vUWdAiGIev0waor3RHijAYnc1PwPzTUAIoci9UMVSPwDpXD/+RBC/VCVfwDzvwD5Aw6K/O5hZwLF5m7/n4ZO/4KFWv6HvMcAEmGS/y1JNP5zK5L7UrYc+T2cAQPLAO78u2yA/kGvEv2QtK0DS0bS/KWmGvkXJvj7bCx8+LmUMQIT35L9+tOw+qFHnv1EwAcCKcZe+amlDv8uzND9YSpe+bYgGvz/AKr+Y0fC+uPuvv/lSvL67nhq/xAwSwM1acb/y1oW/NtASwGC0KUAQRaU/q05Rvhzh3b7aELA/zGhmP6so3L5u+cs/SDfCPuiGCECGkRw/3SWTv5pA87//4Kg/bnXkv/yarj8+dOW+iPUWvhGrP8AKxsM/F2LzPm91cz9ROFC/V/YOP0AI6D2hQqPArXKUP+/tO0BA81A8QrBewJL2Sz9OVhk/TEGvv+RVcMBmVoDA9oLjP4CIA7/KCYI/9jEvP970BsCnUP6/LMcUwKTr0L6yBdu/cywpvliMp7xMiz2/D2RvwEFnuz9mPlpA2xQQQMWyiD+msus/WbMEwMaIYj/YfIS/Nv09P5TWlz/o3yNA14+jP+pYCj7dCOk+OpqJPx8Ojr/MlOG/9DXcPfqZ2L2B9TVAIkqUPoCErr42DkHAlcu1PyPbmT8Wsoi/lIrAv8Ke2L9a+h6/k1YoP3u3Kr9b/4O/QnkxPgdpWr5G74+/pNW6vwCEab1M9ko/BTxQPzCpY72wirC/jw84vw2ZBsDAh/U9oXtmwAWLMMC3SMk+VTzBP9rTxr/UKBU+94kovy9f3z6MUo6/YijmvuSERcD2re+/mszjPzBkSj0Afv2/6r6KQHpARsAy3CG/NldeQA3L9b48Vec/zg89QDB2Er1zqMu/YkbHP2Ou4r8Y6xPAfiM1PwME3T/1UPi/qAJhvqjf7j+4gio/KhvXP2Szob8Mda2/93mLQLymccA0xANAz4XwP0O9Lb/ACIq/fe8RwIWqQz/UaPC+xGpXv/jNaT3J5pFAOgRKv/7IN0DWvWk+ojK8P9ippL6gTbK/LP+Lv4EPkL8vdPe/6P4nwGqdYUBPGAPA8vylvsb8jMDZwEE/3/a8vX4ukD/5E8U/VX8aQELkgj9ZhMy/eVQ4P4CuFjwrFI6/nh0XPuEoNz4a4lY/tG+gP6qHm74atyS/YWlQP0L2PD8Zq9q/uBEIv4OkTUBvZbo//TJXQB/qvj+6vh3AhsAuwDDlvT9qdALAgTc2wPDghMAcgGq/sLMfwAk0Nz9VHl0/lvFWvzVsfT+KU64/fBGZvhfM+7+jUt2/jv7UP+oNDb8oze8/nabZP3992T5v0Ya/PjY/v6YWij7mG7k/L+9bv0Tm5z/48DjAN753P65WcD+OOLw/wx2jvzwB+7+UusO/RiGFP+ru9D5wGIFAaKL9v6qwLcA2pIE/GI/OP4N1Y8AEH5a/NC8IvpsnJEDk8ZO/H1kfwMJW6T6HX0M/nr7wPxmMU0D/2bS/O8YJv0SBpr9TMwM+Gkrgv5sJ/L/CGPA/9Uz/viOlJkD3FvM/n13CPxyJIb+Ftqq/nH88Pw1uEMC9j66+eiaUPoS4SL9IhS++FJ5qP1GNC7/OazO/ijQYQBLjCD9aU3bAoAXuvmmUyr+g1a89kYC9Prjwl70ubzpA3FhDwHA7h78mTiw/xoN1vgBQGDzcLAE/hI5HPoZm0T+CcQlAGKTiPoUMDsAEUi0//THuPtJPmD+MdDa/Fv7IvynRPr/2y4m/N073vhCFVkA2iwe/6M2sPjh0hcBBpULAAH29v3SzsD8iNza+E0wBv5MrUkC92ipAmG8rPniYCj+ARKM73oOiPwTNVr9//Ns/hgzUP7sqDz8/S6O/6NB6P+3Gxz/qz/4/gHPqPz9oeD8fQEM+vAcVQDjNCEAk5CPAIeTFP1wjob/U146/NVFHwPCsDUDi1QpADMJdQEXbRb+5Wy3A8LLJP/OYuz+MNhdAT7sgQGhPu75GH9o/OgCpvTnbGkBgGjxAjpyMPxTEd73APJC+fEd2Pi3rIb9UuTtArPtNv+CWsb7+glk/qAxWv6x0Lz6CkGQ+HJUSv4A4cj+cBKk9uqEfwGCTYz2mfiu/vk1bP37O/L8/+XW+NKRLP6NZEz82X36/WwXuP7p5Yz/WZWM/Ld+1vkZ54b/eyJw/LscXP2JfI0ChqDE/FVOIv2TG3L8Ik9o/sqsvP3BZCT1+//u+rl9Ev5ooEEC4WN6/ODoOQNv8CL/cE+g/Nl+8P1yYXr/05tU/TAEQwDhHAL/Xjeq+QL2bP0A5XT+yaUa/UDrwvySjs76eaQJAuRLcP1AVB8BA8t0+YjByP062yD5a8BFAybaSvy7Esr8ubVW/SKCLv9UKFD/2RXM/+97yP5+dij8k5/S/ttpQQGcq/b53Aq2+fcgIv8dP4D96Slo/9tK8PxbcUT9QG2M/O/Q2QAtYmj8MSP4/Ygugv0jTPsCJ/xPA89hdPyu/6b8GgRBASZPWvwHjxr+UdAvAdmy4P4ls9D88XSJABo6HP4rG1D8urOU/5elUvmX5cUBtGwRA9vhjvnApOEAWsAc/4FO6vg25D0DkceW/GbWpPztQTr9strs/DXEjP6ue+b/CPV0/Op+lP7y+o77vC5A/bDvXvxlWmr8W0oq/lkm5vvONgL9M1yq/L5Iov3egccCyRPq+aDQmQGzdoj/ndKm9bjntPj8GrT9Sn4O/LRNHv/Xml0D92gXAysUFQAqOHUDXVXy/jTKdvmuCGD8lg4s/1TubPSC0ScCfYLW/DAygP0hblT81yYg//rd1PtgtyL/QYQzAJPe0P8gJFUBsfxNAuFaMPzTJ77+QgaY/AdCtP6wGMUCx3yhA+iS7PxQe1T3C8Jy/HMuFP3LjP8CFy5G/AmdDwN6hpb/2sY4+H03uv4aWPj/okVC99MppPkA8lT/4jHHAYyMhwEGaIb9ECjy+d8h9vx6AnT65gCo/V787QCDAnL75MQRAwy0PwLg5Az+9pwHAql7+PzLsM0DQ+WS+sVhJP+N2eL8avYE/VHMevFqrZsA0Yhs+ioDeP4GjsD9xRLE+TXMPQJPwkD8mmbk+qLz5vlynmr7wXSFAmBzdPuqyjz5ipi3A+Hg8QGjESz9shxu/Um8NvtJgeECgOE0/Hkm8vyPzzz7ccxrA2EteQBwn+L7E++y/Tq69P7BL6r1fvcq/5I82wC6HoD99rUq/Vo9AvyOmAD99JRXAgY/Iv1Y7J8A38Us+/JjevpNhQ78mUA5AT/ARvixY5b3uLwTA2sixPwi9Db9UCM8/JgUgwOAntb0YgSTAZssjP/I04z8DcHlA6nF0verWtL8ioFFAWLxyv+qtwD7CAtE+tG/vv8d1yj4AeEW/vZIWvxVrwr/E29Q/ayInwCrvej8fTrg+v2vWPzUdK75ztKM/WDqtv8+zyD+6Gwc+6qM0PyS2WUDJJ3C/ncIMQKrvQr98wYY+mpEowNTyKEA+9gm/YBJYwOHXUMBt6R8+w68wwExuHr8rukG/"},{"catName": "Amalka", "catImageNumber": 4, "nightVision": false, "outputTensor": "fDDbv0zwp77yELy/HnKNvvHLuD9Wete+cOrBv0BRVT5+yMU/xKFovQ5YsT98JuO/OdKrv13pGkDT8oG/u8IkwL9xhr+oCK2/Dpbiv3nJCcCsZYK/sGIpQPFoir9UboA+rWIIwGDM47+iBxlAsQi6v99IMUDDGEC/1ONyP8Zgb8BwPXQ9Ep0WQARfiD+i8Cy/kqoKwOl+Y7+X4JI+es6LP8hKbcBxWETAohKcP8KOhT8HW2dA7BW7PvPNLcDw0ADAK06mv3Sum70Ape+92kcpQNa8BcAu4fK+kRILP2JKar8jgwJAvPwtQHyfxj6M46s/Gl+rPlDtnL2r9aC+gI3bPm1z177Mhk2/Ohw8vp7rxj8kk6e/f16SPkXDh7+rB5u+IUznPWuCjT+drek/UCLwPvwZsD4avoQ+zLfZP/gsgT+oORW/jaP8vixGC8DvXDbAKMqIwLC9Sj1neZK+R1C6Plk9F8BiyQS/VUTVv26FeMDNCQ3AmKjzPSO5Jb9y8QO/xjtEv37ruj52c7m/WfAeQNBOCMBmsBg/6jxIwGGUhD+EJNM/PgMjwCUTCMAk54E/ZWzvP0wSzz+MEhnA0p0bv4izZ0DcN2TAJ9k9P4xaNz9e16Q/xC9eP1RLSL5Mn/c/G3QOPzD8P77pAaLAQE7svwJS+T5ZnA++D4mjP4UUeMCyXT/ATKxFP0JeDr6wKQFApubpvpKjdsA/7as/rIVHP6Bczb1EtJY+NWYcvxL+vr9yzxu/si5evx4TjL+owNY/OhOjv9rLDr9LKLm/zBUmP9TSNEDKAQ/A+AR+P9LLP8Ak1Jq/YiyeP241Tb8Y51Q/HmDVv8ZoG0DQGRg/x6xBv/eSPz+aUaK/Y3hAwNJWZj5Cw9Q+lMgXv049TL82HFpAAjRQQDJy4z7C9lQ+nXcWQOBHNL4fFaS/Hs0ZwO9iJEBtuS3A+m8XwBqj/r6EMnNA8tJCv2mJGL8CTPG/LZv3P8xQJr9Fc7S/CgY9P8gkY8Bb1Ga+SCK8vsNlsr90hyG/toIxwKyggr+7wao+QqbPPzCFBL1SljQ+JqSqP+IS2T/WEJJAAx3ov62HCj/0QyK+nCfnvyy5Fj5+5V2/Ff48wPDfPb25h5w+aC1JPWksLT9Ionu/G/SZv8zOsj7qy3m//pAcwNgNPMAJtyI9bSN6Py8lNj8gmjg/ukLJP84sej/6TnfAW3+Uv+ZysD0Ns36/XiPSvq4Xkz9FuUXAzRUkwKxcJD/l8K6/unPuvptw2b72GiI+/Muav9OaQ784oq2+6QTvvwh7ub/pBDLANXNbP7RdXr/bLBPAIKuFPAuF/L8U2gO+sQ7YvqurG0A7ZH8+c70YwHiSzT+g0zU9Sa8XPyn+rz+/gPO/hZA4vxa8JcAuuxk+ZgYvQOIj274B1p2/sreovVa7qj9YzFy//DviPRw4Sb+TQq2/5Z+HPsLKTj7arPQ/8nNHQJQQDD9/UgXA0ASfvV2uiT8UQdS+hoDovwFDFkCGpDQ/FawMP41BNkAYo8s+1kCQP+Q7qj94Fvc+vOwCwETgHMBMcfW/QK31P1b4IT77wYi/Qkdqv+NkMEDIt1U/2LUPwGzjU8BAgsC/k31uwALjhb437QXACo05QPdA2782R72/+eICv+Widz+Pg46/JLeKP3Y7rr/FswnAcgnmvvcqqb8bePs+qbnyPvhlLL4APIhApAgOviDUkr7eXxU/XuWePsAZSbztQom+yj+nvldUe7/eC7S+QAFxvlM/hUDP41u/Gre5vrRHsj8wPeE9hL1mwA/DOUD/1fW+zFRCP371cb8dVn8/b7ffPoMk3T819SPAWe9CvzAEZr1zT4A9AHSSukWIG8AQ7S8+WaApQBfoyb/6QeA/pDeTv5yxbL+hVOK/+h0ovzucGL5ADSQ+avSjPxrOfD9HWlk/Kd3svyO3dz+7kta/N2IpwCTwfj1ofXq/CC7wP6W7mD/YNoc9eSPrvgt1esAv6Vy/dSHFPgHzJj/Pm7Q/xrPavqEK7r/M0PE+2aREv05RNcDMA7E/KJacv1z9ND9HGt+/P/hEwGoXAj/ghkI/8N25v5S4zj/gOlK9pwUQwIg5275JBVdAcK+AP1OvJMCSbYY/x1lQwEyLEz++oO++tHzJP7JVsz/vbgm/3wcpQABWPsC6wANAkIYiwEfW/T/n/p4/uCABPmDaO793AE8/bu6qvseUjj4ABWI8dYfpP0gESj/4zvm/TfiFPiB+uD8TJ2NApUaDvyzJi78yrHC/ZhKPPn7pjL9ZFyvA/FT0vqhrej9KxS+/qnsqwKHHkj/5ryNAZjX4v1TvB8Dv1ZS/hhdLPymnMD+f4H2/gQvJP9i2Kb5882dAi/nxv7/3Ub+ZL6M//qTAv9iTTkCYURbAkcJHQGviFj/mTui+Wa4HwI8PtT9MCgM/dqViPpysir+FJvI+4jqBP1rG9j1Cmdc/l84EwPL/tD/XO2k/U2DcvzYkDj+iTKU/zCo6wF3TQ0BnyN6/w8+NP6tT1r6r/2e/LN0bvnK7yD9XnxO/UdJyP4imQcCukfg/LKbVvvjoSMDwFbm8OnzoP2Q6sT5OhZi/BUyKPxcS5L/VlqQ/QTM5P1Loy787WIG/LpKzPwQnmz5qBeY/bMMRPmo21b++65c/iLOxv4njFr+lEuY/psHuP5V6gj+t8qe/bPvBv3wvtb97Lg1A5jv6vpkrOUDpeL8/1hcMvwMGDr+7MFNAMeeQvlIHWb/uS0BAW86jP2wBiz+UtKs/UHqXv3eJGMBpAbs/8YxkPoxwvT42hnk/YcaRv5optD/OgjlAAwmNwDYKzj5RZ3m/Jbi6PxCbIsDY03w/r5Miv7DVPkB+rvY/8ddLwBM1I0B8lZy/AqiLPw6Sdr9hsME/LPakv/F3sD88gPG/BXojP83huz9NC66+DOuHP0T1tL8I9jBAooIVv8bnq75Rbkg/auSTPszzu79stE8/+E8tPgWN379BbHo/mZDzP+rUXr6qOdU/Pi13vzfFiL9wUq4++fGjv/nhI0AuaPm+rR4PQKj6N0DN10hAW9jhP6NsjL6WEh1A2GwKP6X6ob+e+tQ/SJfmv/ASjj7k+BfAAncqvyxKZkCgvGu9RSqlv8jdhj0cwVY/enz5v+M0aD5dEli/gN6DPojjzT/zP+I/ta3KP9kohEClqSk/Pj5rPha9f79TPhdAI0evP7r4mD/8Ado/PiA/QGPMur9jAI6/xdiWP7KeNr/XLyW/khhMvxUr7j70XjA+v6KpPmPeZb8T3ew/RfiHPnS0tL+k4hC++SWFQD/poz9uY9a+uB54PiDdQz5vxvm/ym+yPxFEeT8WY/S+no6zP+qYgb/A3UM9Q9SzP4EnEsBUp2tAbvmvPyiK8D8IUFM9CyG1P7vOYT+9AI3AujXrPrq2qj9Xto4/XK7dP8iddz6qYgNA95GZvxsK7D+9bqA+EYNiQDtI+r6gKSa9E2m9Pxxk8r8nbcK/DlyQP3Ih6j9X9xHAeot/v6Mms786uE4/48KNvyhWSz8qmJI/zUB9P7keKsAnIvS/4HQbwL3fjT/M7Io9SLQVQC6KBr8iAQs+vZHMP+L5tj/EXiXAGMqfPX+fA7+29a0/BqxRv7k6vD8cxlvAoCG+v1FU2z4yhde+tikyQH5GE8Ac+VC/mYPzP8jMV7/WVum+AvFTwIR7p0CVBaG/lHlSPzKcAcCsBSM/WpU/v2W3FD9agwXAzOykv5uDFEDtIOG/fzrcP9Yb579hD1vAuxjYPgUPxT7BmaQ/NDxCvmyApT4uc58/8AfQwGU1Jz/xuYTADP0DP/7HEMD2VuC/EL94vH0WH79YStK/L/ajPrAZ/T1zEIs+2BkDwJ50M0CosuE/svUNPxA+CD38Y54/Hfbqv0yq/D2+0Ma+TXydvyUz7j5+Mz2/BrwwP3Erej8Tx/M/Cp5/PzD7FD4IqNI/irfxP46PQb7C3k5AnTmrvtsNYUBKr5k/ZKwJQPZ4r7/3GLY/nCsgPvC0Gbzv8bc+QU4SP/yqfj9OTfI/dOxtPQW7pL+Y58m/kAKOPzPY6b+/yR5A3aTCP2mSV79tsDs/Omb6P50qKkDz2c4/UHNfP1fCB0DsTnQ+"},{"catName": "Gita", "catImageNumber": 1, "nightVision": false, "outputTensor": "ONjrv/p+IT520KK+aKKgPQqixz4ia9i/Uo2ivw82GT/BJZY/mV0XQBxpCMBeOPo/dAhjvmX4G8B8tdQ/IJHjPPIeGcBE6J++GpVpvp7Ajr8EkkW+Wjc/PpzMDr+IGNG/pH7iv2KunL83kIQ/3JmtP0lnAUBU67U9TVuav5Y7gcBHZKa+2EEYPd+OMkCY6Q4/1h2svk+MeL+U4bk+G3sfQG6Blz+Skxu/fSfJvwxKB0Daz76+6ADHve+7hb+lqoG/F7CHQEZYsr+7hoO+ObuYv4JvvD9wuge+lOwaQCZwXj5PlIRA0FexvpCow72/8IE/QOODvHQyJ79Fli9AELM8vqfaGUA6ak2/7udMP+Lz/L6gClFAtMkOv2//IEDqihO+b0LVvx9ZBL/BtcW/3ROzv7Dgub7azeA/FTGzPxDUWL56Pr0+3y94v3ZDHD9Iple/QJmAv4uj8r/AqM2/ok03v+4oyL9YXQk/QxcUP8G9iMBQ6nBATd8wQODuTD6rVLW/vC8rQEZ/wD+kBSc/KhgbQAAjrb8YqBI/AIUGwOK2eb9oCSc+wC8VQNYlxj/+1lbAy6jivwOGkMAupGPA1m8zwCiCI7/KFee/9J2GPpn5YUAqSVw/q/ndv3JzVr/1JYo/AJELvDaBjj72wDO/8JXePxCMo8AprTS/3lEzQF3CK8Ce9u6/YMzzP8CfuL6Z48m/1JesP0UYtD9W84I/xOrXP6Yvqj/1il++1h0BwOHJS0BRMoC/dBttPxCgbj0twCzAegKeviHuCL8D0i3AZgAVPmSGHsDWMLS/JgQJvyYGFMA8gBlAt46HP3o0wT+RYNA/ABgbwG5zhEDIpoM/eypuv2Af3j+H03W/7kXlvwH9i8AxrCU/6PgsPoXrwj+egkS+7NiSP//NDMCny3q/tlaDvgW6HMCyRri/X8qCv5jTgr98uT0/GGYpwJgmt773qrI+tJdAP4JBNkDeKPM/1NpOPxKiU0BZQGfAhPPbvXwFMD+rnx8/JXl4PxCTBr1SLwhA4EK+Pqp7Vr/wm2W+5RCSQBC3Ij1ShY8/1dW/P14XDMDqdhe+NbCZPydfor++Hgo/N5Zvv+Kqg77WJuU/aFgjwLHo279DTDHARlmSP6FVh7/ZE6E/CnoPvzZjF8CQY0VAuikRwBC2+z7vdX0/lEfbvv50zD78H4y/qoUDv4WcCMDmj5G/vPmaP30+ZD/BDXs/shrRP3e1D8And8u/GdTvvoEODUByBA6/GD7cv35VC79c2gq+oHewP04QCr8X9zjAabvSv12hS79SkT5A8nlHQKSInb904D2/98IOQHOAZj99riFAA8tbQJGuqz/amEA+MxWGwHaFhT80Zyq/M4d8P/aAoD94/to/QMIfvjgPgD/6zwM/1ZYSQOhoAMCw95I80v+8PYCf3rtVotG+2slZPsMwo7/6NWu/jBeOPwaMe8DAKjs+qo+HvyMwSkAgREfAAjgWvx57LkDcILU/Xf0/QM1skD8oRmC/BMdXQLKhZL6WgKnATAjhvwo2ML+ZzWU+AhZgPm0Fy7/wn6W+9ollQB2nKEArau0+XwTgv8d9bMAFed0/wOwsv8aNCb8J8lpALBmpvxTG1z1iXi4/h+mxvq4zf7/yqe6/4hygvuLjMb8Qh5s/aUmywNgpjEDGzJM/scEmv6H/jz8LKUQ/YHwnQAKT+z5l3S2+oHSBP+ZnMT+3Do2/DKh/P2LFiT5g7Re9dV//vuREOL8uJTlAIYmeP0nYTEBkKnA+r3AyPxxlrr6P8bK/Hhk1vv7MNUD/EN8+pNfUv0TeAr9T7xy/QIhivjeLDj8j8y2/MsY5Px4OkT9Z/UvAye8OwM70db9g7wI+xKxWv06gSEBPm2Q/R/m/vpULsz/QF1jAJHNyP11eEL+e02c/Uz4Qv0P397/lngXAcboLQG3qHMAuv14+YK4qv17egT5ekhbACnQmQL8a1b/AWUK8oHCZv7OnVT8Y6hi/5DOUv+eNlr92iCg/dPCLvlYFqD+025C/scAhP5Ybzb/c4UM/u99iwFvOaECYOkW/6N6wv3U2A8CaSxFA9FgFvjJr1T8Pco+/ygrmvwRo+j0Jl5g/vzyXwPyjRj9UdrK/NL3DvZu0Vb/y1wDAZ8VdPxjszD0RBZy/IdNHvx5fhb+/frc/+LfJv+xqJ8DujdK/kvDBQJgwtL9/3ZU+5gJTPyJpJkDQo/o/qqrMviM/+7+VVg6/u06NP7zSPT6uJ7a/G+aXPwoOSj9iPSU/6BNaP4zF5b94CyZAUt3iv176DMDl8DJA5UJyP6EWLj9So9i/Fmz9P21ZOUCvYq+/gWyDvwpkmD5O5r0/75TVPxAlwz+A5ji/85Dlv3xOjcB9plHA9i4Ov8T3y72xOYS/4avLPvTGur5dkG8/Flj3PxbJBMA8zmI/QksRvjKQ/76YLC8/P6F+P+JQDcAaSg69FnAOQF+xn0BgXfw/Jrh/P1s0mkBv7ALA0VEHwLjk6z8gbja/K8vHP739AMBI9tU+kSHYPwb5TsALWhY+dV46P2uHaL9A3AbA8UQvv6gvsj9QZ1E9T3YdvsUlFsD5+YpA9jG2Ptpunz/MgNu+AimxP98gPT8KOb6/eJsSv68xlD8YGqk/gi6kPiQ3J8BHxs6+HET0P8tbIL53f/G/OMiGPlRWCz/7TOq+EE/lPO7iOMA/wpK+08QGQHaSBEArbvi/4L2dv50xAsBtTkPAF8djv/tfqz4AYdI+ocZnv5T0NMBgi8I/ESmWP/+oPEA0rYa9rUnTPzYexsBeRBA/Qj00vpbR4j4rfNy/COYxv+EIkT8AJKK+/0xqPwjkH79WzYw/o6m3Pm8JLMDDf+m+8/AWP9ycZr9sTj0/uPV7QC0jIcDf4Vm+dwZHwDHv8D9aP44+IZw6v3VjCr+oYai/olWrv2VFLcD7cW4/mN2HP4P3RT+BF88/a5CUvyfjoD+787q+/utNPzBk8T+2XyLAviQuv1D68jzIj3o/8hqUPvq8JkDgLtk/BcSzPzPDSL+S3Lq+47VmQM26gL9moxjAz2Stv5HClcCg5e+9UhydQJWsB8At8YFAGICuvwTI4j7OTOI/Ftiov39IbT8bYok/MvgLQCInkL7ZuVC/pUf8vqRvt7/WT7w/NUG2vsJhJr8Y5x4/3rHkPS+7MUAMW7e/3+OQQOkhRr1lbZ0+d70VPqxgoL9MsWU+kOszPwdx4r9tIgY+uDaTvpsqCMApk4FA64s2wLjmVr1NbI2/A8MEvzCn7D/mnA9AVyRrQCZUTr9Cpdy/K0qHvyJJsj9epaw/cvCuvwzrXL85FSzADRJ/viWM4D/p/hJA52sEP1KAB8B/aAfAW0u/vZ+LgL+ozym9hTMbv+VXGT82vEw+kCVePwBQ0r/NjFbAy0uSv5Sfjj+eeypAeFFmv+lrJr/eABLAR3+qP0KtNT7weAo/jm6nPyR6Sr/geru9mT8CQIkcyb1K/0u+YIVLwA3tJkBQ/jS/sJ3IvzGog7+a+qu+H3IGP8iLuL7AeB08pAwCvnXF6D6ETHc/vYHPv5jDdkBHg+A/vwTLPrvXyr5c67o/CrYqwCIXnL8s8y8/2+yOQNzNmL3dfAw/O7wYPx75lr+s8OQ/XGEGP8hQZj9c5rk+eJaGQKb40z04xbe+6rOrP7yAS0CoteO/iMiXvq1nAkAKcV+/89MyQP8rhL+LSdi/Lvl9QP5gvD8/8gbAjWmyv7oKfkBzNSpAgOOoP4SZKj9+CZO/3RCnP1AqCUAGbbw/NFbiv3G1yz8dsTrAuVL8vxhuUz5IB5M9Nvl5v5kZzj/AVMq/9kUQvxLAJMDJJq0+Na3Vv/AvOb2fnXBAbxsev0JUPcC604O/Rt7Iv3TNpL9arrk/QAHSvyq2vr45xxC/tV8iv1Wfwr4LczHAKrIYQFuxbb9BMeW96Ow7Pgp+ET8Z7ac+IJa+PWoUQD7IcAU/ghiQvkc8GcA0dfw/KFnpP0bJpb9TQsS+zg04PsibVD2yJ14/Qi/+PyKkN78cyMu/+PwLQCjKkj5R7km/QGnhPiCXGkB5K5o/zXGZvx4AXUASO4y/fI70vpjvwr9MctQ/Pr7EP/ATYb+ZpGK/"},{"catName": "Gita", "catImageNumber": 2, "nightVision": false, "outputTensor": "oqcuv4zYFr8RpYW/rN+GPxvuC0AlMQHAlPeLPm7QE0D/4D/Aq2FCQDpMgr1ttk1Ak6JwPw4geL/OBiK/Ntk2wATfOr+6aaY/FJcxP4BHIcDFBPs/tNKvvwT3ZcDcPRLA2B7ev50SET/6yiq/DsNSP5dGDkBSQgfAWNrJP75yBcBqM82/afnxvuRzrj4MXAdA9u5XP2gNjb+W+ZY+dKR/P2JuLD6nWN8+75p0wEzbWT+tw7Q+CCx2vvfzgL+O7Sy/SMkcQPk5BcArhfW/xlsMwLFPCEDv50E/7bRQP8J5jr/SmmS/xXpavyIqKkC+vgC/vTDmv/M3nL9uLm8/fulIP6DIiT9JCxI+8/nCP5aLyj3PAZQ/qiQ5PrRSBkDAdUS8P5MRQH3mx78oUqi/XEDVPnQEsb+dmVC/77MtPixOA8BejHQ/dQjXv8PMuz9OX2G/oM2WP0O86j4LDcY/BevRv5Yhl7/wYXy/NtAhQLJfasBwYAJAIpnfPxDwLb/6gyTAIozqPhg+679F0KO/WXeJQECdub/wkZG/XZYAwMxhEcC+5EW/u9Z7vwDLsT6v0/6/Y14Qv3qA7b73Avk+MwiHPwcNE0Ddg8E/46xjQHSTSr/6GJc/fDghwOgSCb1IDZo+E9JLP7573z8gI4rAuFPBvvN6HMC5iBW/DNMMv60PLcAMlby9EPAiQDhgv74SvE+/3X55wBQoHL8uZ1ZAeEEdQA311b4pxLG/lmghwBhTw78AvTG7yNSyPgh8aT8AUM6/eF0TPxr+0L6u5g7ADtmqv2+Bwr9o2am983knv/iM9L900eo/vE80QIZGCkA0Sc8/ABBOOu57JECD2aM+O+UQPzvrXkC3NgXAsHoOv5YjYcBLp2c/CyR/P4S2+b2/AzJAcvgRQGC3w79x2ey/iiVeP74mMcAP88K+fA5/QB4wBMAwxGA+3pK5vweNdb+3vSDAI4XVvoRp2j3k5oA/2oM/v/Uryj/OMe+9ExOyP8khgj/jpxTA13sGP8STNT+gCzdAnzm7PqMfZj9CQ1c/+ZwdQO4mXL72l18/NtCPP25/Jb9DneG+XySdvxtxYsC6QRPAJoSvv8JKPkBsJL4/xHbfv0iFnL95UxS/1mQ7vp0WE76xE/A/HmAZQP7xCMA1awBAs/r/v7yHH0AUqb+/1vizP9+oWj+AgiQ9wITTvnTpwz02ErO/PCJrv6JNOb+ytaC//InvP++GTD9gqWO+NQOvv/I7kz8WSGe/foy2v8o2ij8f+sm+ePOnPjBIDkB/QgE+I4BUP8QrtT8qDylAwOqxP/x+77/FmmQ/dBeKP3rBEECTt21AJNvHvQWCM0Ba7OK/pgstwMhuiD8Qtwi/3/50vwBMBjsnIM8+3IGXvhOSBUA6zng/LIbJvhypgr8FcAzA2YrDvwv/GL+5bSTAGIwov/5/yT9WkgO/5CsdQNPStL+WJ3G/WGz9PnoajkDQ+s2/dAqhv8vojEBoBNY/TBaPPyeaQT5UurC+5a6AP5/1OL0ktnLAm5oGwKJiwT/hMzK/1j66Px5YyT+W+Ui/cNpwP6byiT6qS34/Y5kqvpfZPz+AZzNAj8yTv0JlCD/jgbE/o70Wv3huAr4mOMe/7I2Cv0CO7b/nK/o+uOL1PR3mwL/+dRNA4ZVBwMGug0Ay6JI/e9onwPZYvz/ivu6/+a/NP0H/UL4YQxpAFZ5nvz0rs7+vTbY+srhbP+3ZZj85e6K/mhaqP841zT8PNLs+fLg7vyRggEBJooRAxFibPgZWlT/zk+O/VJkOv7j00D8644G+5gECwB2iXz5NoyTA6BX6vn6NEb+aAtc+10wwPu4m176U5kHAE56Av3JZoz/cchC+izWmv/z+375ATHZAHvgUP2oSvL70JcG/44ovP0s+MD/c2pi9Sfw/vxOfwL9cDwC/iJ3tP1pV9r3b9M4+T/GYP5URAECzZvi/YPTePynxhj4Ruq8/gwLCv6Cor79KHqW/4YXlPhMntb+3zQK/YPUdwOkUsz9QOA880TYJv1TvyL+x9lHAaqcOP3xLLEBCowlAPLCtP5gq1b9UrZO+xWujvspDuD9CvKS+Ui/XPlDdSz+wBYJA2jO+v5ieD78mwdk/GGF1v7zz6b5hEK6/A2DnP21zgD/I9qu/kDHhP4Y21D8YbJE9aHqPv/q4lL994RbA0rQSQPKonb6ScQXAZPTnPg0tc0BnIgdADVeNv00wtL82KS/AL0kawMxkHL7Seym/RF5RQOrdbb/FUWu/YJ3lPxNWOsBDol0/NqzuvzglH8BVoiFAUGelPy2hkT/GlgBARGKHP3o/EUB38qG/GdyDPoqh/L/fxIU/rBCyvyMRj7/wYwM/sTGHwOn+hsC7rey/8G4sQMx8ZECceAvAsLOJP18TVkCIoh296KNQPgXSCsBvAbw+1dXeP6Bwk70MDxVAYNeJvyYaVb/LJy2/KflJQD/1mEApuDG/jEktPxE8WT88uMw+ePEWwNpcrz8f26C+e7/+P39H3L80ZYY+w7WfPw/6AT4fFKi/3nG/P8/4u78gQeM/UqGxP76rzT5UsYy+QBkKQB15mL5qkc6/rj3XvWdlpj6+yno/u55hQDog2D8KXEu/NvZLv7C9p0CJS5NAEgQ2v1jHEsCG5Ua/WBRUPzdvCL8aNDi/0XoOvzIBYUCaZ24+2rIVP78rrb82alO/BPI6vh+2I8ClljrA6NL5PdiDAsB9Wee/+7fdv1CCWz3T6UtAOlYYv+zZfb/HHlQ/AMvPO4cMlz9Kaha/TglqPtQpB7+YKxs/8rwMvvP9CkBYhjNA87cMwL3Evj8gdTfA+PR0vogyBL/of+A/IFSCv1y0ib3qaAFAgqYBP5pvFL8ftj1AOVSDv6rcGr61DrM+ZSdNwJteLMCnmUC/yfKCvvXGH8CuaiI/oXKtvtSLsL8W/8w/iEy0v63Vjr9HDXY/jn7Fvnsuyr+1PhNAY4jFP4vDJkBc6+2/np8Fv01Wvr8CJlU/wPgvv1AMd0ArVFy/AcrXP+q8RsB5Bn2/GWcXwKJZkb8G5eC/mEFmvmWKLcCqLgJA8gmgPkCYOr8zuqM/Q6Ywv+lyIz/EZ0Q/sxo2vw8h5z+5sCS+mlHrvmU0Rz8xdTO/1aY9wND/NL+7XAq/2W7mv9A1Q8ByM1+/0MNlP0G4Qz9MOps/MnGZQHC6ob7dMok/ODodv/JtKsD0VAQ+QezUPxZbAMA60R0+F3ALwBO1tr9ZAT5AsJ3Iv+IYj76Y+pQ9EQiNP7lJH77DhIU/HHI+P7y8OL+X4gzAm7/JP2qVar+wgmY/CITnP3BWm7yCsCG/KJSavB25XkBiSpQ+bwEAwJP8oD5Kz8e/aoeuvk4X8r/Qt1Q/rEbWP2o7w75SE4A/5I7EvoWRV7+k+fe/aFmgPcqp47+nlQBAjHSzvg+YDsBCNay/hlSNPDwskL7wjJG/eIWgP3q3RMCjaybA0NQxv+V1Vb/BS+S/7cvyv6Z3tD5AB6O/VyToP6/DFsCQhoE8le6Wv9CvKzz2TXk/cQCMv0pEH0CjUwU/kEVQwOa31L+XAMw/+rSBvjfuQEDgjKo+ZBOVvxC0tz6sTj8+rLBKQGDLKL+QhIG+rvMbvsEGAMAJi/y/Uo+Ivql/97+gCOU/3XdmQIhXOECuVjpAilvPP9sZir533Rq/e46Lv6wwuD8VbIu/2qYvQDJxB8Bss8a9UBQqQAf0wD5aw+4+nmhwP/PGqEAmwT4+GDYAQH88UcC6GPu/kG6jv41Vsj+dtxNANieFPzNWsj9fhTXA+67Wv1CWrD/AlwQ8MS8NwKybmD6MijLAf4ecv3ELnj+w/SNA2I47wOFDH7+KmWc/hTumP7KHhMD4Cuk/TZaCvlbmuz4aYsA+4jASwD3wdb4Az+E+BQpWwLocCT8jHI8+l9gWQPjndz5YeyBA0QfQP6CZ0rzkaYE/0/8JwETWib7lH4s+WWfdP1m1t7/1lWA/gMPyveHU5z4M952/KtmCPvQtGD1WGnQ+6EBNv1J1xb7CVY4/sQPxvrxiDr7/a1LA4r4AwDNho78eIkW/tSIKwF9t0D/sq+A/OPC7vVVyEkDmi6Q+HANRP3SgF8BLEaY/"},{"catName": "Gita", "catImageNumber": 3, "nightVision": false, "outputTensor": "WJsHwLDaOr+c1uC9gmqyvlizkz8itfK/MIfcvoD5Q7wCZmU+OBMLQAE3j7+oxbU/AC8cPblIy79GXvE+wmBCv3CtY8AZCZu/oIfIvo0J879Ey44/JuzrP7++Bz9OlLu/rPiJvyUxgr9S6o8/4TnwPsp71j9pCIq/0cwFv6Z+c8BGEGC/A8nqPudrVEAVfRk/jHUiP6/vML8xerQ+WSU0QD/W9T7f7DO+M+a6v1J/A0AZ+C+/T5SBP1704bye6uu++dSTQPKyp78ATzi90sjbv0f3BkBQBHi9IXAuQNvxzj7RfYhA0JO0vsBWhjwuI2M/9vcevsh9wb8dsSlA+IIlvv/8BkAvf7c+8n/UPm7P5L34mDFABICBvbLq9D9Ggwo+aUXIv4keKb7F99+/76LyvziiQr5AbQhA//SmP6Ixk79C9pk+7xKGv2H0OT/Dny6/1HTxv6Fo8L/5YpG/CziNv9jcfr+IbpU+8lzzPj7Hh8BlxzNA00lLQOYSwD5FZYO/6zgHQErsNz9AZpY8ag8IQJZJYL8i1Tg/VQelv4yP5z5s2tU/qdIkQBpeVT8bCIHAR57+vyjxisC7n1nAobhRwGj1BD6lRSTAJL9wvtTUHECQn3i+JMX3vwByxL/CKKo/QDUJPk0LtD87/rG+KmoEPxDUiMC9Pbm/FwryP7hNHcC27NC/rJGEP/aIh7+RiPe//igwQGU7Aj/WDuc/2A8HQKqsUz9KKN0++QUZwNX8S0BDBLK/BIy2P3J0gb9woWa/OBlUvyRqMr4UPiTAjpYNPe5qJ8Bu3nq/WrkOv0ujFMB4a+0/tXxmPjyDdD+k2ANA+0RQwCJqlECMA/k/87HAvjgn0z++Sta+E1HQv76AmcCMTkW+zwy1P/CC+z1AyRa9i6HgPy/ZRL+OlqW/MjLyvvbNJ8B9rbu/pwF0v0BBC71ZRGI/aB30v8mkvb8ohLA92LxBPyZPDECNSkc/hpuaPwGxYkA3g1XA5mIsv0uvwD+L2hS/rWF3PiTJsj0Pvek/eN7ivr/12L9ymS2/mSeQQCnbxr4UN9w9nA3FP4ICT7+EWN4+Whc8P3e5BL7Ayg8/LyEJwGfZsb7Ys+I/KLQqwE3ptr9yewPA0nrxPzGW1b/F1YM/A/bOv4ajOcCBBydAtgS7vwCFWz0U7iw/BDgzv36Bez9+LgHAn51AP7YcHcAUxvu+ZDLVP3T4CkA3mgZA0BrzP89AIsD0RKm/MEtFv2scJ0COuak+cBTAvwCARLj4Q2i/GkamP0VGZ7/z7RjA3T+8v0any76fNCFABYSsPwAkUjyfkX++vuUoQO5RBj+Kw88/W1tRQA8+iT9pPzQ/d6qPwLY2Rz5u6LC/36hZP0zfOz7sV64/5I9+PxakWz/K/eS+CNDeP9QRrb/LFK8+TJqjPgqGFr95H+++blRaPqdvvL8bA72/R037Pna4jsD0Mek+uqyyvg/gUkACnnnAhAcKvj4+CEBKp+A+6TPgP1EEjz84QKm+RLROQDZgCD8lb6XA7imgv0LSBr/HD4y/UMP+vXHcw7+Q8g6/O6pBQDtv8j++Hai9rkscwPi7sr9jl90/1PzvvWoPVb9VUjJAwlyMvw7vmz6S3Qs+aI4Ev8S/a7/InQDA/g9nv1z9LD5pw9o/gGLWwKLMpECJpww/eujAvhSsIj9JoA4/L9wMQDKZqT+V3L0+mO7KP9KRgz/WL4C/u0+hPxB7kD3Dk+y+gAGZuzCp2r8BJkZAGhm5P6OPhEBIlA8/vY41vjMIwr80yra/lmBTP4y4I0Ap7Io+8sYFwA2EOL97Ce++0MHWPZqdGb579FW/DCvSPxqFpT7nKNy/s6QcwEQH/L1AkiO9MUncv8C2LEDn2xQ/B4eSP8Cn8T2mcVDAF0InP3jad76CqVI/21Hwvnuw/r/tbxDAfgErQJR7d7/PvAc/rutQv67IIz38nUnAWhACQE5AScBquWQ/nyesv4K1mj/FDQ8+D1HKvw22UL8/dZQ/N4Uhv/ZIID+oCGS/rF6JP95Byb80zDq+MzJ2wKpkhkD3cMO/EU4lv6dVHMAx0Mw/sCKMvn7RGUAAQtC9YvkTwNjDLb41FI0/mNVawAgHPz8a62m+PGGhvz8UZr/e5Ii/v5LbPapeYj6Ismm/VsnZPsTo8j1qpn0/sEhzvxExMcD/iKG/Qgm7QPYtvr9YEjE/tIrZPmShNkAvFFY/AGOpPGOP+7+3PRC/wj8BP+9yAr92l3C/ZbLPP3xehT/gZW8/RGCIvTJf/L8ydOU/wQIewCFBO8BwQ0NAbApVP4wWA712C6y/mDUQQG4ZS0DRss+/L3Ljv6DOzD+4V+s/rtmKP0IVBj/Apby/wZ3tv0XcqcDmTXLA8AHHPiq2wL7YOiK/xAK5PxVZpT6c/wY/SlXfP/i9G8C8TTc/M5uDP1/Ihr+ncYs/eOWyP0FT77/KxWG/mnb+P0olqEDdtWs/FDLpP0lmpUD/D+a/V7swwKpxUz+FRa6/es2IP4MTFsCWcKo/LsjEP4++P8Dd+wdAipWFP1m9Hr9s2xvA4H/YvoCstj92514+h5DkPnfjFcA22XNA+NiPPYciFUDgvNk+bd8fQAqFcz9Abme/4JjNPaS6jz8AqNo/SH3oPpgPKMBKTo6/qQ6CP0ia2b5mE5m/5FxNPmxmPz8NpZ4+o66PvB5MPcA+33m++CrjPwb//T95lPu/1SaKv5pvnr8WBzTA/I41vxX/lb66Aew/FF86v2zKK8AmTJk/jHNHP6LLGEC+D/O+kIWtP419rMDT2qg+3lmbP7y8hz/8KKq/0nS1v5RGsz/gz5U8ogaTP27VQ7+keqo/EM3VPa+IOMBgBTk9//UAP6AcNzyki7q+iN5uQASlUsD512y+PMkiwIxZpz8u5/E+eg3YvhJjWb8W22O/qtbJv5TIz78qnM4/zG4APkb+lD6AEQFAMiyfvwIclD+WERy/mJ2BP3qY8T9MmAHA3qk1vy7iLr/wm+g+jjWGPpcWOkCuzJM/yXpZP/dwZ78frxK/rPOMQI4PFb9+/sa/JpswwGCRh8DAqpa80gR4QPOBOMDer5JAiQY+vzSoHL/LkJs/QNDFv9WvgT/A+ps/TioxPzeYKT/nfwK+4U64vlrgM7+aUYE/6WHlvngx8D3rGHW+Ceu2vzZBNkCUqtS/g+CLQM8lXL8JY7i+svfZPiOEq7++iVm/VkyeP3ZBI8Bw2qw9hsWwvzlPgr//1YBADYgYwC+R0z7wKcK9IM+Hv9OhE0A6LwlA1x6YP5aphr/PQQnAisYGv0a17T//WYk/98Z2v6swnL7NERrAbHNZPjeG1j86v/o/13KGvuBOJcCv+fu/Fm6Dv6DLar8Kafq+FssZvlnaD78ckTi/ESEYQGAgwb+J7jvALBBSv0cydz8I0FlAKyyvv3CIoL8YiBPAfgv5P2R3Zz/U6ow/+LuqP27MCb+VbT8/wvInQPgYcb3cwwa+zqtDwI1ztT8k5Ou+XtvIv4cvm7+KmOs+drFKPgCBIr84bea+h7wHvloNMD7JiIc/NpwTwEw5Q0ALzNo/IG5xPdhTH79ADXa9SrfOvw6Fqz4aBNQ/lR6VQPj4gj9CSRw/i9cJPyuEgb+IfbM/2DbCvlBECz82GZI/QIhNQBOhvz6v714/RpjGP0aOLEDm9SfAMNwcv8SO5D8RNaS/RTwiQADAbTxkChHAnnyOQPBW5j4qHQO/hFS3vywxXUDdRoBA8nPlP1IhPz8IKoC/LqbzPnqAHkDk8P0++nzIv492sD88ti3AMLGtvwS2gD0iFyC+tcmdv7W3uj9QywDAFAEFPWI+VMDmuKy+h391v9VEXb+sJW9A5gTWPoi3KMDU4DbAXPcUv05z8L+1Mn4/HFWVv5rhbT3GiMC/iD6dPvxOLL/Tm62/3I0gQOopWr8eggu+8EzZvMAYsj3V7DQ/wiyBvqk5Gr+cj/s/PEvRvaZIu7+oghBAk1fuPzssFsAQ4ZI+xhLAPY77eD+4x3c/GF4BQFhCHL5cwZe/ZkIFQKtMkj8+IIC/kNSVPQLPPkDxALY/KHfnv/bsPkC8RiO/4JkyPqS+KL/zQg9AaAnFPzpad78x6H6/"},{"catName": "Gita", "catImageNumber": 4, "nightVision": false, "outputTensor": "Yfmfv8dtb8BOMyQ/YiILvkbSIEBqG8u+1Llev3RfAkCLC4E+aIORQPgkAL/ZHDhAssz6PUoN+D8XqEhAv+/bvoUk3b+6qv0+h9sSvyAZvz+2j7W+cNjAP5EYbr/AvfK/yCr4v9D3ur4+OnM+ggWPPtP5DD+9LNI+Ae8dQK3G1L9PVBHA+K2jv4TLQ78sgJU/qDjWPWqHyL/S05s+i+D2P7VB6b6PwOQ/yVv8v+h0zr8DcIQ/sY9+PlQDcD6Ysuu/4gWcPymX5r+NEZ2/TMXiv7htHEByeoK//DaoP9xZib0VSsk/7otwP6E+LEA80Cs/hWAjv1zhKb8EAYC/OtmKvq6HVT8Elno/qOVivfOWjL+IH7m+tBa7vqN05T90rTDA1cC7PhM0BMC6I0E+edjpPwGJHL8ozWa+WSlBQLoerr8oF74/NHsLwEzWgb2fnSvAhtr4v0lDBEA3lUdAh3daP5aubcCsehu+CMK7P/roWsBYeOU+5pSOPyxJtb/qMjHAszGFv9s1M744HcG/AnKHQD04+r+gs5S/huPhPoYcoL0KTQ4/nUmHP/gwJcCyXCA/YGhTwFlua8Bf/VzAMH9gQIh1nD0GwuG+es+pP6+tzr/oVOc/Aj5iwP6jWj67uPE/+IbNvWpdTT/n3IfA6FMdv1o0az+9PLm/RG4FwAyuPcCkY9I/JQDBP3A6Vj/cgPG+ApZAvyS4dD/aJAe/oV+WQHiDob80xnu/JJ03wMcmZL8mwrW/DDUCwC1CF0A/NVU/MG4owJDFjz02ELm+QoMCQEA6OD2dEqi/TLlNwDeiJ8BY0kw/VAd5vwDb7T8MFH5A7EUqP64GuT/PxQFAJBmoP2mMqT/AuPi/nHgNv35r/r62leI/Lv9FvnhkVT+Jap9AqAQFvsrgAUB/8Je/hUoTwKC0lL+0TQY/xILBPz/3NsByfVU/Ch67v7GjgD8s6yjAQaCzvrA7Sr6YZR0/jDvWvUVg8j8Oz2C/xtJTv6Zpf0BwUyK/Y2gaP4v2mz87h74/lKEgQFnab778Vo6/ogOOvzz+lL3m31A+LDTyP0aJej7sRQq/mj21v4P4yz+B5QPAQLRcwI7lIED+UY0/RHyCwKLbSj6n/Us+15RYwB91gL7EZfg/nOuuPvK9ZMDU4a+/CP9+vyshCUD0iPq/LDZoP4fIoz883649yLWXQHtOyr+6NZW+fuokPhkEL0CTF56/WVsrQP1zHz8vcIu/T0YUPy2GjD689Ly+rW+0P8KaCEAc3T4+MhzAvgY5W71IRZM/8Cw4v/rq4T70ndm/uD6qP0IOgL8Ylh4/HqvDP37ISUA8HEJAaUeXv6N9kL8bG2a/QGVAwHCBCr1QIH2/bww5wCmH4z/OcVi/qedDQE/e1j54fsM/X9tBv3rBuT7g4E2/0ATSP3BQYL4+FhS/v9bAvw/wD0CDIKu/0bbEPsB0L7vlgIi/fqdBv2U6HECsXRvAWLKKv4Jvk0CsX9w/yEuUPk7GJkAfCTY/hTvPP6uWIEARJQDA9dEEvwhqYj9bEKU/VopAQPjbPb68di+/rJuyPwtKQz/iLm+/2/wEwHLOMD90KpS+RSiEv1/j1D+NlMq/snQUwNCnWj06/Uc/fL5zv2u9k7+Qlew9KfK6vyAxar09nsK/MErVvSDU6z9ul7U/BwVQv3OZJz5Uzei/p8nQv2Bb5T6Yjii+Jf9Zv9wuV7/ZD4g/nDaZP2h+hj//bB3ATp37P4ONdr7cA7W++uJpv3Yynr+DXSVA2rjovXmimT9AJ9W7y3ufP56C5j4HT40/TFJ8v7wcib/0d0s/Zzqtv5n2Rj8UfIG/0RW/PvPVKj9rMDHAdhY+v1SEcr9KFu2+ueHdv6KMOr8a6ZG/zjsWvlRal7/31tA+sCJjPgVhAkDs4ik/Qa/vv7RKir5wKMq+n1LDPxRe3j+z0yy/1lAKv+jp/D/S3lG/QZROP9mNFr7q39k/knGvvgZwFsBMYIe+6josPtEjWb9l7FdANUAQv9iNAj8n8iI/XE3GP7wEEcDteLW/+9GAvzthdj8CuQNAXOi+P55tmL8qwTq/69ouP7lp+z9IPz8/gw48v0AKAr3haHlAYjaMwJSEa7+ofQBA8i5Lv8OmDz+ySYc/SSbEP1/PLL9GelLA2R4NQEV06j4cswxAnw4/vi0M8r5l9JO/AuwcP22ccL+94zE/hCKgPhqnB0A8r6E/IYgov192pr9HWsW+bjZTvwKahL822dy/4/t/QLwIeT8xEbK/PsccQBAz970RZwo/574jvnnkD8CmhSZAYDncPh4LIT/85C4/Gt4DPzmJxj8g/B7AhVsQwGiIQ8BfTqQ/pKgGwB6MYz+a6so/f0Hyv0aK9L/FcwbAgLeMP4iXb0AQ/Ae9JHa0PtBQiEC4gSE/tAf4PnRTm79/h+8/Q7WsP9JWYL8l8Jw/VsKDv3adJr8Anc6+PEyMQAUfpD/fWD+/YwAMv5T2xr2a0wzAn104wFitFkBTca+/X5XIPwnOsL8jvCC/daswvyTRLsB6HfQ/UJRJPpv9bD8e1h0/3c8hQAYC377NMaU/0zEnQPyoi78O8zHA0kDUv7Odxj9s/XM+ejP6PxqvLr/mboG+K67VP9S3dEAyUy1ATjQywKhSTMBdZMW+Pi/6Pwqf7b++tPU/GOiJvevXzj//q/Q/2IujP9ZqlD8EQW8/MroGvwAY5r8NGILApCeTv0aK879Aaj+96UPEv5/qcsA7e0ZAiBUKQHbuA7+riBxA8J2/vUTuV7/YtL8/7xbiv2uWAcCQQEA/MBcxv6z0gT8A8GM/aYsLwHG+vz5KTzTAhFqbPgolR79EnvU/+0PZvqATzb9J4pc/19Wsvjy7hb+wzeg/chCpPqaspL+0a2G/huTlPqg6VsBUeA2/2uRyPbQJAr/6ugpAHCDfPhUcecAU+Ki9AuZXP7c1Kb/UNVdALFiSvyNfsD/eAZE/PC1NQF1ihz+sppU/4Df+PRFAA8A8lrs8MpRgP27ynz8S7su/saXYP98iqj6m7pM+W2wGwJOljr9Umx/AUyn3v1c5e79ArVq+LDIaQJ3Ivb+2M+Q/S0jzvmMvD8Dpx4Q/zrgTwJMYTUCDf0Q+f9wlvwSFy77pbxJA6SxKwLmflL5a4ck+xezNv/9wcMBSRhc/eub6vnUHCUAKt5w//fL3P7pwij6IJdw9lr0uwFhMRb/A9yu/0PZaPl09+L7xgPu/lL0BwP1euT76h8Q/+vEFwBhBlb/wwle/HpEhP1HeAMAkfyBAGKzsvix8cr8m/5a/2qP7vhlhHL7VCxlAYZoUP5jR0b2Y86C/2M1Dv849SUAYYr0/5Fv/v4iuib+lHdY/DDOKP45Prb/81a0/h1RRQBE1TD/Em6w/soOsPxbn6D9tKCDAkOSPvuYplb/W26NAnU6UvytJRj9VDZ+/VBRUvxCTi7xDLN8/rVwVQCAMe8Cv/QfADPrgPxxOyL9msTbAdo5Pv0C7I0AZmE4/8BMLQKXslz1YvEdAEK0bwPImAr/4AE+/KI4WP4ZDdz7oDhm/eB4OP+RQ+T+2JYM+9VvwP11pob+IIPa+d0zIv8i4YT+OfMe/Ps65P0Y4gD8wtXs/QlnZP4zxcr9SYk/ATn46P8Lod8CctuQ/dEhaQOWbJUBWg44/dKA3P0B8k7+AFM87H/a6v5gu079Bjnc/KKnqPrWcob62dPO/xZ+QP6Q0x74CJb2+5iaZPynL7D/5hIk+YKASQLDQO8DGhvS/wMaWO0Iaez+QSMC/oKC+PHTAAUDIVfu/klvpv0b1Cz8B+36/lrGZv5bpn7+eUhnAmx19vvxxlD/a28I+w6saPRqOlMA+TgI/cLq2PlkOcsAp0c6/vZ75P0H7ZT9SGHW+vm+JvwpdGcAaBn++6whYwKTObb8AA12/xGUGQNsKgL7oouy9SLnhPjZyFb7S1l8+qFC2vztxXL8iyGw+nNG3Pm2kBcBlKB8/h4q1PzyWuT/VDri/2YbuP5pYHcB7jbI/OzMRv02j8D8RmAe/0bD5P9JfGkBN5l7AcEGkvbs49r81GrM/4SsCQKTDoj/VIWU/ABN7vWtSiz4k/1E/YtFuP9OLCT+uZTBA"},{"catName": "Kocour", "catImageNumber": 1, "nightVision": false, "outputTensor": "wSkXwDyyOT0SjDVAiJwTQG8nEb8ZWSO/DZZFwIv6u7+gQjpAOMnIv7eVAsDfnYjAGn2wPhz9/76JyA5AhSAKv5SLTsBHuxZApoefv1TgFb40Tx/AkKlLQDu2lj9en9a/uL6evsB4P71h9PE/Ze4xP6jcYL1m63A/Ksk5v6NBgcCJaIw/mlKzv0nDxD8MwwK/C3MrwKpxiL/K1aQ+tYuDvy4eIsDGU30/0v8MP3ojHL9ddwxAzL2CPzpG2z6vmuW/EgUHQM62Or8h7YI+X/4aQBz6G0AkXya/YhY1QPa6579Ge8I/QKzgv5U8Gb8Ezau/dNSdvz8CXj9ZSQDAJIXRv+zKKr5GPMm/Hiz9v6F/3b/K+UNAII+YPy6Goz8A/nA/cCO2v7HID74X9Sq+PKVsP30kV7+iKaS/pWOEQJ/hicAQmg6/pSKYwGImUj8GKcM+ekLHPo56BkDYCA6+2vcnv3PPGr682TK/8TrWP05pCMCAXVg/d+x2PzA1Br+Mgxs/tQ+xvtMceT+D+YU/LpxEP/6XMcBoeuE+vXfjv6YEA784bga/JwB8PV7Hnr4z2KO/CgPTv1Jjib9qIFhA3/7JvyW4ab+hAaE/SXNVv8HyUj/wKbu9ZEH+voBfKL8RlfS/tIfnPy3H8r/Ne6W/kuUTwA94J7/mBoi/xLbgPQwEg8Djig3AzcN4v/yUNUAwzT7A/DSbP+DNsD3artQ/pqsFP26C8j+bdeg91quuPumTA0AM96K+sh8CQPbDZMB3Kq6/LmiCv45fVb7OwBzAq6ciwA49lUCM34i+ohkHQAynCr6A++y8m+IEvjz2yb9iWw0//GLxvoie0D9RhWe/pHdwv3iwnb9ZLAy/0bwKwA2zCcCKK8A+7dGHv5DgR7520Kg/mxDCPzMeFcDWyFM+BRkZvwNbJsBEQq+/RQZtP3aOnD9FK4BAkChqv8IvLEBQ93G/eHlGP9ZnLEBaoaw/T+fEP8vXHEDYYZTAL0TZvnzEBUDR3Xw/ihEewPMGjL8jpr0/hNW0PmapA78Qbu2/c6goP1YI3r9eGSFAdDGqP+GGAUAKzg2+hrSWvp7okz+6z2y/nnkOwAnRPr7j1dQ/P+3ivxqWHr9PAPg/5mIowEqSyD4G0YQ/l0giv7/qCL/Rih7AwK3AP+ubrz9rUSRAEpoZv3/lFsDZJCi/WbhlPqIDh7+dXgXA2FmMPrd0D0COP7G/JN+AQJERWD92dNi/rXrwP6bYjr9EiNo+wtebv3qs4D7HuIA/0P+jPk9qAEBRD5q/yldgPyrEqj/IbP4/Z71VP6kwJ7/zOXM+ED24PwoRvz4uxLC/GVFCwEYfoL2OK25A6Rksv/BsIcCujKe/X3GSP3jUIcB66U4//sHoPzTkNkDsEW6+vu3hPbpFEcCya43ADlL3P5AqOr9IcNq/I2ffP/bqH796yZg/2b0YQJrAjT9yvf8+1OQywOzb4D9VCTu/Gxa5P8gVbkBc+00+DHzxvQ7nA0CcbIrA2Njzve5OKD96HBzACBcyP2bPwT61xZm/GLRmQCu3rr/wWQI/iLoDP6R4JkAAgXo9ztlYwO0qYL+VZ6u/6OH7PwAGob2nqrE/4XhFQOzGiL4kRNI/s41ov1i/E8Bw7v2+bvAFP0zob75Nul+/Gz4RwOHQnT+jZEk/iufaPnfOhb+esII/BJvSvybBBj9YLWbAdDtPvwztjr+0ASQ/LPfFP6yLED/65li/e2s2QBKlSUCNwCBAGCpPPkYVLD40OQM/C92LvjJsmz/EaeS9EXjmPlyYGEBWKFE/4yAvwAnmPz9MuENAxEwKwBOvbEBzh5LAJ8JKPjCclj8qi18/54uKwFa4dL/RbdQ/TUBHwCsTor7YCCXAxVQpwGcuXb9/WhjAVxG6P20qK0D1GZU/GJctPzD2AMAEFfy+0M8vvyD4J0BG5XI+YtnTvx8jrb4rvxw/PSdtQGQ8JL8XdgdAlO8kv4bID7+dzZw/bvemvgQpzz7C9I1Agv9FQJ892787C0U/6m8rv0/2fz+LJ0i/dWFowLXPQkAopQC94w4AwF8OLD9eusk+O6KFvoBrYj74iyC/R7f6v1pw5j7IfgRAtVgFwJjc5T748F8/oGbDv7gd2T1blPy+ag/Zv+yyMcATkwvARWL7PgZzor7ikBs/ndervjFEvr9dMhVASF53P4Cmtj/PCJS/HlZJPyn79j/Ua+2/VHlhvvQXrL/iO7C/A0xyv+SMaT7yVKo+bNRsQBYDIEA7SWJAZl4rQG89hz845e89zLpIPm+QDcAKP7A/4JU3vjzslz90RLu/rYmVP8zFJkBSeG3AaKccv2CfNT568im/CZ2+P2yriL6Qocy/eIMrv2beFcCYQuS/AG35OwQCuL8CymY/m6goQBRjDz6Q7K0/izcrv5ixJEBgcgm8zhMzQHIVdD5TiBg/RLD3vxwIVr+dgWs+vkwvQJD7LD8TDxk/G5rOv9EGZz6nARjAKBr2P5KdGED2DzC/nWliQNokMT+q+dY/jRYkwHKPsL/2khM/7rKuPyCMGz+shgu+fNdfv4NFu78Yscq/BzzYPmWHQcDpqFk/CrmVviojTUAA9B+7jqfqPzeTg8AbEge/EPaKwOT78L4YEvQ9D6Y+vysdnD/JOM+/GC25P4XvzD62snk+MeiZv3LjUb9co0O/JEZ4PRMNHEAYlgG/vBJYQKncMj8ndoi/7JeZv46w9D6764i/Nv9jv3b4BsBuzlpAcy+0v6dxk78X/aC+eHgAwKx7i0BojaW+fo85P15d9L9zvMK/5QWHv4pVvT8z2ea/VnEzvkluLD8ALt2/AFeWP9/S9z84KJE/TM9+v+FbMsCaadC/ttI/P0Ai8TxSXeY/htzvP4N8I8BQzxTATIIXwLF9A0D+ClM/gF30P2hGHb7J0QBAoCrgvhosHz/b8FpAeBIjPQmoh7+mR62+5NpSwEdZ9z8AKtm/8J5Dv6smFUCIDEm/wOR8QFU+y78w96g/tpADv1HpGUAEC+o/uKfJPT1VBL+O1g9AEFAXv/4pJD8F7Rm/Eq43wAkYeMCMRuu+7zmFP2NshL6YXLFAPDTkv+4b9L68B50/Sg0uv6FmLEB/CVc/1zbTPxye1b+YcYI/uGIeP+hBLkCabo0/Y9W1v7hRHcCPIyFAXXuqPlH8yj9dcHPAqm4ZP+PPTT/POAnAnvlxv84Kh79qHE6/rgV/Pxl2YMBXgoC/Xqayv+Xbmz7BXhNA5QKRwGCktb5SVH6/bz5CwNUeLsA51ti/iABVQAJ2iD8EqHU/mibvvzfwLb89ZxW/clqXv4g6Qj8SokvAa8wOQMVsQj+WuAlAdIPDvv5eiL6PYUJAtl6QP1sZob828KG/bs+QPtk+Wz+sOgE+3Dw2P7D7sD9uDPW+P9i6P8ETMkDesQpAANGbP80YA8CkVBe/IoWnPzlOtD88oeM/sIqxPWcl9b+lFxjAnA4iPsNCt7/vIhDAz39qPrDkCD20VT5Aal1yv80UST5YNSPAPSMFP4YqSD+Mjfs/ajeSvhKkXT8oKwK/P07DP47mfEAxLZY/7bFsP1/uy78cdXI/4b2Gv25QD0Doxfm/XnWDv2WnHD8pdq4//TxkP3ZaC78wYD7As/YtP2qF0L9aD/c/CrAVQCVULEDArcm/ApK2P2pZ1r88e5s/crKzP/IGO0ASGro/RGgLP2IG2D+Vzzi/BKF8QFDpub2mUA4/1w2EP8PDMj9yT/2/MJ4gQEVjkT83nBm/1G6aP5ak7r80TgXAGhINwDaHGj80iHI/6hCkv3Q03T9cVhG/KEphP9HCOUDWbi0+xMUXv6ID8b8UZ7c9hMIIP1t5Qr8JLjRAhb8Zv1IlY74Y7lLAtMGivpJGDcAAeyO93RGnP6tupr8AeMY/lxieP6fUHL8mUitAHyiyPlTeSsCIun6/SmB5v5yDCz8BeTo/u04gvwxUMj7WIh4/vei/v12Awb/vGhA/vXXdP7BMnb9mfJe/6OmyvjpLj7/o0wFAYspOPkpgIT+XNEK+qr99P+xMNb+knpK/TnMHQFA6ND7U9Ay/nwRgv/+aNT5AdgK+3a+UvkJF6b9M0o0+hNgGPzATrj82mtA+"},{"catName": "Kocour", "catImageNumber": 2, "nightVision": false, "outputTensor": "2Qgxv1wFYb8MtSZAbDKxPoxq5r3Y4su94KvKv9znWz7f/D5AGaVMv/EN27/aMz3AxHVdvnYTFr5/cEBAB7ksP9abNMCAtYFAGDxJv5A2iD5AOCbAqqlEQAe5pT9Y81W/XF+xvziklr7P6pA/FJn+PmomWr+fxI8/cE0tPwcUWMC26q0/8T7Uv49Ksz+gLHW9bknwv0rKw78FpKU+Ic/Lv+gsZcAejys/IOZIvkdfqL+6Nz9ANEkjPqcNDT8O+2s+aH05PksRND51cR7AnGo+P5Z+LkDAS6Y+Tx43QO5olL/FQ88/bb4gv2QVlD6201++v9nWvjZ4Kj+s8dm/Oqvvv8/MlD5MgxLAAy6Bv9i8gT0sZodAJvfPPjYmFj9J3qm+zMi9v0UGRr8CQpu//icSQLov2r4GbJm/ey6AQAhp2b+ZxzzAy8ZEwFI9jz6vi8k/aaskv0mS2z/+fG2/8sYCv+ZFJ73Cg4G/Am0dQAR8dL+CHe8/OvdZQOylCD2gY+m9xlEZP+UFj78x9Qi/0froP/WeH8ADR5I/CBhXvlTTir8AJeY8eLfpPfZTXL9ulKy/XI4Xv+YLeb/wPSU/Osfdvpo0Qr+5SghAYuzTv5VdJj9yRV4/qJ7VvoOUvL6g/k0+wkGVPrpPasD7AN2/2WArwFxGyz/HNRK+fGV9PzTDRcAZVTK/6Li7vc0yGUA+EhfAahufP0qtgD9Iuco+iDduvWBWJz6vaYo/ReGvP9zztj9TQL6/9Q0xQIVRJMCJeJu/xBx4v3YpZL/loWm/bg3ev8VKk0CW4Tu/m8uyP+A2hT1SXzA/6Jmlv74hsr+4Sqw/oMnXvbYU1D8WqTnAZdrQPahgbb/Adua87h4WwKCdVL4UbCS+2RwZwBt5yL9mnKc/jyS6P/EGBMBi/Lu+kFbIvkcIHcDhMrm/9N3zPvovKz9V02lATLS6vnMnCUD2xnm+7hXKP2PwIEDb/hNAaqYTQM58bj9zfHjAGJqYv8rbL0ByJYg/GksbwLJI5r/H6eg/ECFMPgnxxD+Q9n+/Dn/EvyFqRr//4d0+AToSQIylbD9cd+c+lfmEv/6jCb/KrRa/8hsvwP5gh7/Vufs/1R4XwCbKLj6OWrg/Iq98wOZsuT9j4tA/nFQUwBbsB8APGTrAvkEFQNbt1z+6E3tAMguOv8sKoL+py6g+1uXtPiEKcL96G4O/6DCpvvbQO0B+XHC/yFxLQBqe1T+gErC/gN80QJxRZj+P8Eo/Br4xPzpTqj+VOps/rFdxP1y/1T/+HH+/BLCkPk23pz9OKY4+ii8IP+sdLr/b8Xc+LBz+Pz3fx78ZRqm/zkJQwNvLhz9InTBAopQZwIavsL9/wo2/yEIdv/0AU7/SMPK+pP9DQCwHHUAoFSg+ZvcBP7B88L/FjLDAK2UKP7QXRb7Th7G/9A1VQDfh/b++beo/e40QQNwn8j8UtYW/nrIuwHzkF0CcQALAOByXPUE2+z98RJE/VWGNP9B6+z8kzqHAuOtwvke7A0CXTTbAtGDFvmUGQD7afJG/oBmDQN7hij5QgxK/eC3RP/FsIEDy/Ds/iic/wIHY5L9AGX+/7PYDPzX3Bb/eK9Q90FncP3xB5D630SRA/kYKv4xT0b9YW2m+gIzCvrqdnb/kcVw+hgu8v/BPA77DAsW+Gfdev/hWRb/lLUe/J1vwv88G477zLSTAfQF5v2ByzL8xogW/4J4HP1+FOT+Kqd+/TI31P5nGLECoqiBAFBQ1P6lBPL7gbZ+/Aluuvwtl2j861LC/bWYdP/IxMkDwgps/0HxlPWdPhj8z4EFATpQrwOxeZEAN+prAgItzvxam1D/NFQA/pHZbwGpbND6a6R1ADXwAwLMdWj64IVHAtyQXwF2HBr9RacG/KiHdPxQSBEA+Ag0/Wl1iP0UgF8A/dKa/GFwRv2H8dUDWNOE8TKQ2wMFDlz68WZG+oVxDQLaY9r9aMRVAx7orvgJCIr8RZ3o/rhwuvghim74cm6pATh9nQIqJGL/RWg+/0wTCv06Puz9U14w/yCFKwDf0NEDFrYM+CYEHwCbMBD+vPBY/ZpkHwHfo5D7L0aS/kBQBwABLlDvjjOI/EWzmv61sgD/kBN4/P3stwKHSpj5Jn2W/Qyohv1Lkfb/iNM6/qGaRPnpCaT/glw8/wNhav1ikm75WFt4/+NlnPzBDsz/N1sS/ymuHP+9lUz9cc62/rlnbvu3t+78qq22/PH/Yvf6viT6TGPq/Tt8wQBcnqz+2RzJA+P8RQDqJIj8oNqw99PMWv04LCb+WjIg/XlcVPzhuKT/XCwnAB5EAP0w2h0DqM2XAwD58v0C8Rj74eTc9MbvsP7JCCD9h7Yi+DyGGPrj3NsDsOxbAuIqLPXp6cL/uLA9ARhCzP9sHhD89jmE/Fexpv2a/2j/l27U+vhoBQKm16j8BN8Y/S1O/v+LHEsC48zo/EJeqPwxXFr4e6yNA5DD9v8pMS76R0EXAdf/LvpPlLEDWnKW/HheDQIrHK0B5iLg/8TdTwI86r78sWg2/WPZrvpM8aD8aLim/NNZtPupuNMAX7dg+7Ks6P+G9P8CWdE4/aLoMwBpsAkDQdcg+mr31Pz84k8AgoAw+uA71v4Jdn74Qzo09NxVrv/jCHUBMrATAfiPKP045mj5jPu4+zIm/vTAEAMDWhzTAYuYrvrJJTkCXb5e/jESZQHjoSD7ZJxm+MNTaPnAULb62U+2+JVGqvxEqL8CYPQFAibpWv4BC9bu4hiu/G/qlv6GQMkAGC4Y/WsWlvg86Vb/jpJI+nwjbvzVASz/MFRC/AupXv2yrL75Yws+/VGKyP3ZXOj8HnmS+iPSCPqet+L+MsEC/01f3PkTSiD5Aieo/LnH1PxIkkr8TGCbA7UkDwBrQIj/YtFs/SZTJP07/vD8mRNQ/7UK7vqZUHT/UiqZAPgkXP1jz6b841xQ+odgcwAZwQz+AqNS/dmw9vwj4AEDQU+G/KSeWQBhDtr+etlc/R99sPsDgE0AsBg5AT+KdP254sb+RVhVARkiVv5WvuT+kyAm/Wjj/v8RWicDA5W6/47oXQFjXV78VR51AcOPzv8cVN8ABRpk/U8YDwLIyXEB2w/Y/htTHP8hZH78gbdg/MNAHv2YukD/wIgJAMfGcvzpfJsAuVrw/mvKhP2yLJz9kVC7A/bsTQI656D/OfwbAAJuOv2FZsr/OnMC/djkJQO4PAsAdfJ09XFVrv0CLPTxgSAlAaL94wEOPxT9qmzy/yM9IwGngdb+5s9G/DssdQGLEBz/tCb2+Z2izv3coaL5Cj72/ds/2vvI87D8kZxzAIqReP8+iAUCCzt4/wiSrv4DnJ7/U1zZAgwrGP6OMeb8XN00/zuurPi4f3T/dHKM+P4SRv37wjL3V8mG/z4HHP95liD+O01s/QtvZP5ABr7/IXVU/Or/NP0Np6j+/eghAgMG5vSLhdMB7GTLA0B6LPHJBgb++GhrAt529PpDcUz73hQJAjPclv4DZNL+GI5K+W0d2v4ZqeD/mR+Y/PB0mvhAnBr1hxA2/jl85QLOihUDUT7Q/t2EQQCeGIsC2Vok/YR0BwDBHxD+0G7G/Isjfv2F5WD+wN+s9EbJ3PuNL476wbYDAHE6NP9BcBMCkhK2/NcbrP35JKj+1ItG/0tWlP83Z7b8LE8A/cKY1QDDlD0CoKAZAkFaRPzzDlD8/kfu//LhsQP3EDL8slDw/SWtTP8BLvT6Uqfa/zCASQGK2zz8ie80+PJEZP5TVOcBknpS/gCwXwPaUcj/bteK+Qg63v8cUhT/SBK8/xc+UP3WkGkA/ExC/8t53v9788b/D13w/0h6qP04uyr7k4+Q/7mXmv+IjJL86TI7AutS9v8oIB8CpVhS/JlaZPjwU4b7WXcc+bkdKP1+i2T1UvwpAgRNkP8JiDcCi/EPAtEK0v4A6iDwyjds+3Im6Pn9+qr+omXQ/Yn2mv1c/CL/LSiI/LlHbvkDBo7+Imkm/aMBGPtaCHsA5qlxAKisnvvSBFj5gB5Y8MHjnP9+Smj+am8y/nPN9PhwYsj/xjw6/GKTyvlSFfz+IrZ2/RzM+P9c+qb9jiBg/mmZ4vkqlI0D+jRQ/"},{"catName": "Kocour", "catImageNumber": 3, "nightVision": false, "outputTensor": "0DUpwHhpwz1GSzxA0iW6P2BJr76pPTe/8rkkwF2hi7+ZBERAajIBwIqGrb9s0HbA9FE5P/B9sL1ekU9A5KsXvprxP8CK7BNATNCdv56oAz8bxCfAKSJcQP9woD9awMO/1sgvv0z7m72llCM/6f9RP1R1Jz6oz4Y/9MqAvzlXncDijnU/ThoIv2Ykjj7o5W6/f1oIwK8fWb+o6p4+0j0YvwxBDMD+WkK+FcEkvrhXZL92fx1AH+qdP0fOQD+m8/m+/uEfQBahc75TEWO+cRAeQK6zHkCqgKO+KA0/QIiIv78lNKM/djj6vzifjL4+yxO/H/ypv+cwND9iVDrAMocdwElzRD5b+MG/meBIwKs/EcA0pmFA3mRIP7VYET8GT4k/Omy9v0s+kr8sbpm/ZD+SP7kRDr9EM62/zJN6QM+3Z8BEJ6e9Uu+awD0X1T+8EvM+Y85IPymQHkDObny+hDMJPu+UUD+EvAW/qmmIP8kD4b9Wzb0/crjePz61ar/kkYM+MPerPcqEKz+8HAI/KPaUPr1uEcAFxYk/Te8QwG1ZT75c+gy/sjfIPii9Tz37QaK/ZLe0v76m3r95QGlAYr08v8w0Pb9p+XY/uJAQvp+Yzj+4hni+V12Bvm2Ho75mN5K/vJiJP/62DMAXkpe/QwQVwGSz1D2UHZy/eqbJvoFRbsDAPxbA2u2Ev1x0REDUxiLArp2MP5kKcL961aw/ijk4Py64IUBGBoY/vHGxPjJ2jz+8o4Q+HZLtP3bEeMDh/M2/bhHXvp5SMr6w2I6/rhEPwJ0CikDOJL4+2AawPziOJL4wUVy93lySv0lMCcAiQMs+DuElv0Qj6D+G+5i/AtaivyMjjL+24oa/uBUZwDOFGcC0YBU+3UTNv7h1nr00m6k/Yr50PzeZGMBU2Y89ieNCvwKvNcAau6e/OsKEPw+wnj+wGmhA59i+v8N2HkAlbZ6/2daiP1mPTkBqs6A/YQvcP6119T9voV7AQDYpv/jCHUDs1qo/Bw8OwM0npb+Bi90/zG0NP+UWOD5QAfO/ACh7uubZob9uWBhAzJKtPyTYLUA9Z9I+CLmGPVtFQj90RGO/DYIDwCST7T6u1QFAvJUGwB8Ww748Qqg/lwkiwKBcbz/WT90+toCrvtAzzL9EDyzAd2C2Pwffwj8p+HNAoRWvvZj+FsAGaYq/6gzXPiNvvb/SWg/AOq4RP262G0DUGBnAnndCQJftBz+gEc2/5rvRP6hIXL/dSiQ/tSfJv2I3/j5kzj8/AP5QPhTB6T8Gf5e/pDQSPwsg5T9EjRRAD/t1P8ZvDr+kKVA/4OW2P/BuUT3k13q/13oQwGGzQj9TSXBAoGrevlaMGMBdxTS/mhVqPzrJOcBSVaI/2nO5P/5gLkACZhm/HiaFPp1vBcANzZ/AlH2xP/oTk76orkLAfXtePxHpk7/vm9M/HDW6P4wKhj8Ejom96NBCwHYjB0ADCfS+cwWpPzyaRkB4DhK+WPKFv/Ivwz8D44TAhIa+vuFLtj+VzR3AxN1CP+EflL5POzu/rcBPQNV6ob9GQmM/xYorP+j9XkCCK54+QltDwKtJgL9zpjS/kiUGQEYPIz8ducM/bIsFQADQ3Tt4P5M/LB3QvxRNSsBQHj+9xF9fP3SfLL7KVjW/3v+Cv5SeyD8g4zQ+UhiTP6qNc7/Sn5I/wvimv5BuEz5FMz7AiP3ov8mJnr9q8hE/KASNP2AX7T6whem8VSsrQBvcTUAd5dE/uaQbPz5HAj+7O3s/oPhuPWTVZz88v8K9neHoPvcDJkBm9tQ+X0i7vwL3lr7Xx01ANBkkwBo7akATwZrAbCJfv3yNhD70P6I+dGl/wP/0i78aH78/1DtTwCXfXj+0Ds6/0JcxwDQJYr9oMh7APkqbP0haB0CwsQU/352gP2ZaKMBmd+c80hGWv+AsxD+WYJw/gjDwv0W6rL4FP0k/hoZ6QCm3Rr8DZS1ABgeDv9j/Qr93O6Q/pr0SP4A5Irw+VqFAvFMhQFa/rb9rrmk/pJEJvybHOD8OaLG/cL5PwJ4+SkA7utI+JLsNwNmLEz8j4LM/hPNMvm/k2D5EORu/jYAKwISx5j9hHqc/+36sv3Bkbj/GLoc/KuCfvxjfNL4IKAm/XGTTv7DZHMAc98y/aJ68PgsZnD6V0Ys+3NACvncgEMApGyJAnNESPwGIPD80TvC/TApMPyFXRUCYjkW/Y9gEvwaqyL82x6u/+cKPvoCQaD1kXyE/osdtQP0QB0CxWE9AKuE3QERPsz/gRcM+fZhsvl4l5r+it6Q/ntItvz4lzT8LizvAKEx3P6ZWKEBAb2PAgC1lvKVLAL/OhYK/2AcEQEuX5L5WjADAPgdGvy+zBMC1t+y/2E6xPnCdxr9eU8k/dKXvP3CEWD75Bew/5341vyz7FkDUfLa+rP1JQADZO77uBks/Em7fv9byxr73ikE/HRVAQC4vyj7rSRU/rtj2v0q5Bb4wMiDAktMTQEa/IEALYc2+jgFYQCFYED8YsXI/n640wAiizL/QGOG9PQRsP68YBj/ICui+ImZiv+NY4L+VaIe/4EqQP0Y3QcDpelk/9sUJv7QfSkCwcU89p6orQInMgMCgrsM8HCthwC0VT74Ee5g+YBJwvwOliz8mYje/GBTHP53CSj/bCRM/BTQOwMdMAL883am/7NdSvnsXK0Dz3s+/PwFSQPQ5hT8CY6o8kv2BvwBUFTozUUi/RB5wv3rqDcDkTQ9A2B0Bvyo7yL/J9zG/A1Xqv7GITEBTnb4+QHQrPnJ+KMB++E6/pv2sv8a1/T4AYta+QkROvw0BFj/umfO/zLp3Py50vj8SoB8+VWJ7vzpnMcAiCDi/HemhP+5fP764e94/GnoNQD+MIsBomPG/DnwUwKNH1j+J4qU/B3PiP6+N0L3PdwRAgGqOPoCXRT/s8TdA6neMvlwBGr6wNsa+gLwzwBH/BUD4PKS/0bOBv5+PNkBIWje/FMx9QNJxe79obco/jKmKvx9WKUCXXcs/JFCnP89EK79SHgFAIM+tvwonaz8Ou02/f7QcwN4YYMBo3yO/NiiyPxgfJb/0vLhAOo0WwFOczb5M0TI/IFaov9UkYkCEOJA/8NqNPwjJwb8cXLY/BHrBPB2F6D88F3g/J92Yv+dzYMDyOvw/4xtmPtpupT/sJ1rA/8ACP8w7ij/ccgTA1CCbvzrHEsADLIC/LAl7PqefNMC3woC/k6Pmv1c+6D4pghVALTiCwN4UTb8WnHC/vo0zwEpsAMC/o2O/biFaQCgEYD/uvQs/F1uqvypzzb4/yHu/QdMsv79QiD/HwXbAeIsHQMpDkz+1DiRA+8fivrJLq75oXT9Add4ZPzuKqL917nu/EIoSPV+2nD9Pz1W/Og/hPnLV+z+5QCe/Z7W/P+5UB0BH+QNALAurP9TiGMBJYSS/HDXHPy1RiT9Rdug/UwitPreJ6b8WZ0PAavrRvmT0Cr7SAPG/GNhyPVBfwD7T1SBABnekv5Ym8T4kWSLA7QFjvhj/Az+HPw5A+3ofvxMIkT/y+oC/P2gpQHq9gkAFh/0/CZenP/VSSMC10To/Zcsgv7DB5T9AhOW/Lp6Yv33WAz/JCJ8/DMsKPg1DtL+AlhbA3sRRPyTmzr91UlU/y8ooQNiOVkB403W/468kP7CX9L80r8s//uYcQDLjF0COMlg/yihyPz89jz8GHwTAajZ0QPCAo7xRMUM+BJpvP/mhWj+CFai/rMQrQGOjBT90wZy/voilP7NzDMDY4dK/sFwTwL6FLD99TyU/n8cFwCliBECoMdW+skkKP/WKGkDoru89YuWyviuCBsBsIwC/y8ivPmBb2zwLVzJA0Pdyv/Hxzr42/nPAxJ9Tv+Iw+L+Y3pc9x9jHP2tB6zzywQFA4TlYPzthw7+xKkpA5RRgPz4gAsB9K4u/do/Ov2R8MT6Z3z4/IvrIvmp6XL4CIHs+aBQUwAxNBMAjA0c/bf0qP07kv79kc3W/GKALPjvi4b+/NJg/NJpyvjRqMD/xD6A+WrzXPhLQhDxqmOC/UnzvP9YBiD83CBm/y6llv1QrZj/e17a+QFCgPZ7JuL+Qb+a7Uo1DPwaGjD+nOuc+"},{"catName": "Kocour", "catImageNumber": 4, "nightVision": false, "outputTensor": "ZGxZwI1EG79DDrk/9Fvwv9O2bz9+T9a/jSIWv4XruD864DC/ondJQPaV+r+9Oio/SxLEP0+14j7Sz/8+FtkZwDmgaT9mPoy/g9oOv1Ajoz7koZi/oPppP5OwUMAQ0BDAmgWMv+lZXr84UwBADsBXP6CACL8lIFhAcsLkPxC3kb/ghT+/kCm8v7WnE0D4+uu/tKvHPqJ1x7+p5NA+XJ96P8zxKz7oejtAOMtSPzZGN8CrQ0VAvp2gP7nU2b9qcty+n6QjPw50dj/7A2u/kPEuv9ZxNUBm+YW/mjQbQPQ85z+CJG0/DcQyP7z5UD8icUa/sIJSv/zZuD+m36I/vunEPk3h/r/KFyvAsgGPvfyv2L6UXuC+StGHPk40wD102GE/cHGAPm0DD8DEoeW/0FqrvfORAz+BMBS/8kFeQHi8AMBM9Ma/P/JWwLiMB77BKwnAYIi6vzSQpL/DifI/dYDNv0dDcL782hU+05OiP47mZcAWttk/EAXqv7LYtr6aO0fAwr93v2aci78EStu/p3OuQEqcjsD4may9rCeHv9wnrr+8Z2C/gUmrv9ndVsBI1Kg/yA2ePuOPrL9bksu/dp8PQGsw2r6PqRu/Jxptv2vtYT9AzpQ/lLK+v8DE4r8+Pjk/Qhi5P4lFH79tLnzAjGOQvxlNUb94lrg+F6P2v+IYtL8a7Ao+AOrmP3QqFUBCAsC+8C66P44mNcAAEvc73stJP8D9175cPnpAOzdrP24Dl79nN6W/LKzxv1bAjL890aa/uMLYv/TJNr9kDtq9KkdTQPFyikAV4J4/To0NPmjmBMCeAUO/r2I8v6+Dsr+kIHRAa8oDPxEjHkCOjyRAq7amv524IEDUvA/AAY/avpyN7T5zSjo/ya/WvrGR+z8SqXVADoQ4QJ8BEUAtPXS/gOGvP+TIi7+ZSxk+RmrOPkgURD+/BsY/mA3ev0MmQcBukrE/4DPZv5Jc8r0Is6S+4vaEP8CmgrukQ2i/2VHjvhAWgL7Y4co+DoOivxF/Ar8sgtg+UDKLP3zy7L6GKXu/+pCDPyk1JMAHpBe/dKrcPepIQr8HzW9AsGTgv2ao5z0Qk1PAuX9GwGQ02L5QaY4/tcH3v7e75z5Qfnc/qsS0PkqA17+0nCU+MCfUv5QDob+5yRvAbsmAvtJ2xj9/g7i/8tIUQHeJzb8Dckq/U+5xPncsSr8ERK6/pQgcv2j9L0DLpVu/jSeBQDyyiD88hpHAhcgbwN1IhT7mCZG/uHE3Pz1QDT9Z9Iq/Il5dwHjuxr5YG7i+arc6QK9yGUB4NcG/beO7P4QmF8CIdbS/Rsn5Phultz61aMg/4WCUvvDvqsAy/tk+8HqBwBGYHkAmVRQ/aGkbP6REVT+w9yw+JkxOPh7gJL+Iu8A+BK7ivcD9NL0ZgJu/0wbFP0O5IT/gjGq/tI6kvx6mNr/dQdY/2LsUvQBegkA4Ezs+pMalPjzQXkDSsQnAFuObvxH60T9UuGg+JHwvv0DFLUDgyNa8Seo7vzYx8T+Kj+0+Zn+Iv158JkBa3Vu/UMc+P2JRNb8pZBnA3uQ2QNNz371ac3e/8sanP9kljz9o6m2/O78mwLe/mr9Fmhw+TDPgPVaLBr9rnHy+TcRtPwtuQsCiTCnAHYogQNIU/D58cou/JekmwN6H7j8EgqK/oJp2vckSJcAyOLS++Hkav+BG9z0/g6c+cJr6PYx48r9RROe9coHAPixx176kzhm/hiZIvm3qNkBwKBM+rCzOPhUr578E2I4//o32P46rmT8iJOw+54OrP3L2gEDy1ZW/tG/6P7xVCT/DsHg/jCUBwHingj9zTjDAxYFWv9aCjD/9SN2/M9u5v/DziL8jnTBA931yP16e4L5VzH+/dPl2vy4wH7+pHybAJBTDvvk4OkBgAcy8/ny7vhpdvL98OzRASqgowDA7rj/LTc6/ALyEv2WPGsCFNe2/GMNKQN8guz76cz++SthrP05P97+8zdm/OouvvxdLd0DAkGRAxkyPvm2Crz5oLpc+wKyaP3mSLMAyUDg+QsgRvwMipT+gp4k/WH3gv7I/yj5kcp4/KFYAQOy+vz8S4le/NMhQwOPcBL+VflFANvAcv6n04r++uU5AzxmWv8W2fz88hbW+TvJ9vgodcL/b/WjA6N/+PwZ7ST5u7lVAuC2JPtavtr8ys+o/SPKmP2C1n7+i4WK9SMh8v5fycUDrMZG/AEENP2LJaL5w/vy/h7kPP+Czlz8+Haw/6OUvQMV2pL8C2aE/bvvKP3kvdL98LcK/VUw4P5b8fr9UTg0/of0YP6rdNz9yFhM+cB5Zv7V9Tz8cMWq+YpwmwILhg78nIRHAuY/zPypaFj+1RsC/k6s5P8aaPz/yjoy/wbqTv7jBhz2UKHm//9s5PtgbBkDmbdY+aALAv4BFaj9eZrU/ZCcYvhpslr6wEFNAVhUgv6asGUAkmAZA511gQCEJFEB0ogzAT1cfv0qWzb6zjAbAPNcXvzyOKEDzkUrAxoIkPhFDjr+1jxG/hTJvv6uLy798IwpAdxE/v9x3nr2uWdQ/2kMAQFJNH0A7cLK+1bPTPtzYWT8DVpu9C/Oav0B+8jxEvXE+vJyeP5C9HMBblK8/xVLYv5h90z/3E15AnX1VwKpLWz+W+Du+PIw0vizP4b8OaSO/eGcOv3sfzj/hx8A+2dvPv17uxj9w5im/Gv4RwBJGOcCYKhO+oKroPpW+CT9M9Ks/chLUP7m4DMAzg6w/HNpNvs4YU749yjA/J0vyvzfLasDojbA/cox4Pkb9G8BAQKg9ZJNAPsUvOkCA6bY8CSXZv1hMGD/40xnAYgS4P/d5sj43Q+G/Kr4vP6B3pD/8B3NA5mAtwItgGsAAT1Q/6I1+vzOe6z/ACoi/2g6XvzPLtD5PR7k/fvSzvZK+zT/c9AY/551iP+0lMMC2qB9AJsMbv62ERz+37Os/vfLxvzrnWT6cdxVA59zNP3QXeD+klvC+xtEuQDnprr6lCCVA7pOFv8xbyD6OoaC9ELEUPfo3Wr+YzMw/PWGwv9uIxz8AObY/86qCvjKsSr6i3Iw/7KIUQBAYQ786Nuo/CawiwMXNuD8mtck/dPO/P6Rao0Ay7II/DiyKv1oqm7/l9WtAlnpHwNLWLr+zpKE/xViwvxl+X8DdwmNAYlvnvqxQc0DwZb+/8OnbPp8qKT8vqaM/IDWDvCDzgL/8h2g/osqUP0dMGL+d0dA+0BnJvcWEmT5WBZI/xjIsv5vm+D5mMAzAEcFFvwf3L7/T3Jc/WzxPP1oqSD9D+wO/rpCVvWhu/D9fbuQ/5P5+wLiloj6dv2G/lxUmQIbWUb+wmRg/fFDBP+MDkb9Q9E5ApiugvpRAG8D64xq/zm2xP2ixEj7b7aq+q7aBv6hdkr85tEfABDrBvm+BckDOfzxAJBWSvjmOCUDM9AJAM6pdP5OXEEB4ZR+7XxJpQKlNXMBjHhvAQG8Fvi4vyL9CrjHAEkOUP0LphUD4xRk/mcnXvsjyPsArWkBAtSMGwFIp778czwk+qpUIPv7jz78CDcI/TKcGwNUTT78oPxE/07P1PwBrVj+Apfg/MXYXwB5/kz88cbc/Rpa9P0G4RsCsuGG/JboRQCo4Jb9zTKTA4SddP4Ju3L7efVI/eXcMQCixjz+nEaK/JV7NP3wMX8B8FwU/jhmDv1BWOEBg27E9sccTQOuB+L5XRAq/1d/DP3qHAcB/hhrA+FyKPs17VECZa2bAblRlQNQTaD/6U+W/BOPyvjRmzL9QUJ++gFMAwF4UcT81i+A+o6zPwOJ7qr72aF6/QsQgwANl2r8K2PC/uobcv5pHJD++6j+/sV02wICAMr7JrxlAsDWoPnWN5r9T9K+/nN0uPiiGJ8D4iG2+BN1Zv1Nvl7/4DPi9krU/P8zjVL8Klvm+VgFeP0Gvsb90Q3Y/Nj59v7boij/a5X4+DibbvnLlOb9iXxk/7BsUv3wGyD8XV2M/EOTGP1Mver+AFXg//lOwPmA5Mb8ocwG/WsMUPobObj/bwOe/X7A0QFeIzz3RPQLAlkScPwrgUL+2D2A/iDAAQAeuKUCzXRE/Ap6rvoANrT9YI+U/CAemPdQKGD+iQaQ/"},{"catName": "Maugli", "catImageNumber": 1, "nightVision": false, "outputTensor": "F+lUvsz2or+azZW+ck3rvtDSDUA4V9W9x4oqwManNECwB9u/C55Ovy7KG8AeA8k+pi0VQKOT4j7IKdQ9vP6/Pt7kdr/+GtQ/Yft6P8dXrT9UyvK+6keqPxN11b/QKLU/gHTRv1L+ML8qu0BA/zbJPyxhKsDIaxdAdAOQPzLHTb/Rae0/qAYSvYegUj7ykYC/NisYQJpgEsB57kQ++qTbv1jORr/czk5AqhcvvptJ/j6whsk8noV9PxdGBL9LXiLAGN7xPR0GCcAkeYe/ZMehP6vE4T6cSOe/ZhNDQNRJoz7g7qs/EfNZvwrF9T+G48O/CyLKP0P4xL7XleQ+bCCzvy/tnb9gpkG+v7kGP77WKL8PYVO/kgW0P7ycQkCjg5C/CO6FPnPyjr+uiNu/T6UTv3qdsj9A3pW9XAw+P+Zf8r4+5EY/Q/S3v3Tngz+VJZW/cezAPtwTKL/jc5U/WtmIvvZd+L+2iQPARmsGv7zfF8CTkfI/hqaxPjBL+j7aOAe+pJQKQP9e6T9Au0fAkDsnQDSevD9KTmy/wE0/wI8Xjz8L3lQ/DxYjv9qzBEDdORm/Qn0UwNDayT9PnrE/KnvMPxA3JT778OO/1NPSP2geHkCYhLG9dAB5vhwEDcDcPw7Aboa0vrhY+b9Dss2/uLzZv4/qPL9Cz6e/ECzJvByrtb/w8ka/RGbkPqQvxr9lH8e/w/ZlP1KMCkAIwH2+WJIMQMBYlj1dbyI95FHlv0Hjgj+AcwrAqvyzP3qJIz4Wvj6/sGmIv/Bh9b4Sb6u/jIiEviRPar8cA5O/1dG4P7xFyr8mNx2/j+S/Pw7PXr+4Sps/XAw0P9faDkBQ/VJAXhZRv/Y7H78AVbu9gZ2qv9mTKb/QxmI9lRolQADvjz/VnDE/a1m3PyCJZL6kKj6/ffwTQPAqM70DSHpAgISVPYejNMDgtu08OikFvwbZzL/YjAa/yHw+P1i4Er9MFq0/tASSvXh8ML4r2+m/Tn4qP+siAUAcNCO/Thzdv0i67r7Q/Li9yhb7P/M7CMDeTeq/JEbxP5RaPT5sPMa/8Kzav7dr+T4smDq/Wbj8PmHe4b8Si1m/5fmTv5peCj4DXNs/Fca0wEgki73I1QA/7A8+PiAzmbsNYQg/dg1qvgQlcr+Iwti+zqixP5UMpT9hS66/CRm9P2xnyL5sdwfA2Qx3PpgzJz+/1hfAhr2zvqjpIT/pFRRAhCAiQI9ZSD+6y0rAfg4RQMZRej+0Z1U+2tFxPyA63L5eKxnAwQefPlWPP74hrbi/5iaivlPinz7fDz8/xNX3v2gC1b6MKvI/xN1RPmEvgD9XJ9I/QjFIP6bB3z+IHg2+MClgwAjNPz6rEIW/FjB8PgDeir80oodAXs39P4xJlj9pKxrAOHwowGrdsb+C3kw+S1bsP1TsZr5VUay+aKQhQL8FzL/p6i5AYtR9P37VZj/IwO49ikkHv+gfJUA28ie/4utlvzm/zz+6IhS/gNpJP2N3e75O5ybATB+oPhI2JT8Nqb+/LCo3vjR7AkC9WAPA8FhqQFK0dcBL7um/XvqPPn9iMr/Mxte+JscJwLzbSUA4Dmi/D6pNwOYfHb8Elrc/0JRGvcMNTz8V0dY/NNznvfEDkMCmKxW/Ju6jv0hTwL/BZKm/VIrwvtUNpT9o6+E/RL5Cvjwgib6aE7E/INZfP+PDaz+kMh4+YFs8PgxgmD+vFxJABWjSP/4OvL7p3zXAGBOOPz5ihMCRXxNAuLACQFzd77+MSKw9ht/CP6DKTb1pLn+/XhmlvxULQ0DdFAbA3H9Qve6xc7+EWo2/i4q1vx7yrz5+8pq/98T3v4iTqT+ySNu+jcqvPixkNb/E+fw/jCRNvy/1rL8m6SdAAuEWP4rd578Qo1m/RXcqP4nDQb+3zAzAy7eNPnigdT/hW90+aCvqvvq3Rz9z90DARxosv/xyCEC9EA5AWkX2P8ZiV79mO/s/7IsjwLHFdr/wzXa+agxSPy7Nfr+TR54/eOrwPwVKqb8W9Lm/5OwLPhN8psBIw1m9ykAiP15VE0Cy8Ri/nPKSv85Xj74xg/G/SRJ+PxborT/fDoI/MGBrPLjwA8CRjCRAIieLPhuyP8CQmgU/JX1PwN6KK0Ck4oO/KywzPyc51j6Mm2fA/iBBQEB0M0BCNO2/uNDYP3ARFcCjRgrAi0NoQMQ8IcAzFTFAdHL3P9jWDL9gdLE/oefCP9+UL8An6kjA2vWJv1E8e786mQc/rARRPxwtmD+VZpI/jnVdP+JP5D+F1BVAEAsGP37TQ7/6litAcyu/v3xncz/LSQhAULHhP1aVLkA+FRjATd7kv4EPRr/C+/c/vvhAPyWJyj6X4R3AupCQP1xaJsBx+IG+gCjxPo++D0APb5s/nyt7v+UhIT+KQPa+7gmtP3PGiT9WbqW/bsMDPmxHZb7cpgQ/lseovy5r3L7IsxM9Pq+Gv/fLJUBF7xW/7WBYPuaSwj52Nb4+ppL+Pk/jFkComLa/kWlgQA+QD8ABU8E/FLG/vzRpob7HSYBA50NAv3Vg1b+N1j2/yrZcvqQBMT9rXGE/nMxvP9fWoL+mgv0/85ZRP98Jr77Hl4u/DiEGPxCyN0AKLYU/LGn3v7r5W7+hjQJAEGmevvDzBcCat4S+HCmtP4bxjr0MgFq/qJPIvxUO9D7kjRw+Kp3Zv8xMn76nlo3A/K4AQPYvm8CPWgfACigdv8wG7r9gKk8+5RTMv9mwqT7zXyNAz8x7wMEKo7+IJpA9Koz5Pw7BGUBZ/GU/VrQLwJ5Zir83rTfAvg8pvuXJMkD/lF2/+DMOP+XRbz+/z20+fRqLvwK0VMDYeNu8S5rdvmDgIr9mb0M/gUbCP8wOFL+sgk5Ad545QCpLs7+9koG/MU5av1eGrD/adEE/SrOQPwQ6Ir+SdYA+huAsQGw6lD9Asac/9NlEv7Rq878IMZI9MY1Mv92NzL6uSM8/wbGrP/CT1z+P+z7A3qXLP6osMMCHgLG/AFaXP/VSTr+DPQZAGHQyP4j4Ub/g+BlApoXtv04CYT/5k6u/QVdlwFdhI8AEzAu/6h6TPwhGZj8aqLs/+PRBP/UpCT8IJyg9YtGfP8whwD+Q4kNAn+OaP0+eEECWU34/0mP8v7VNsz6qumFArSYcwO+zkL9wd+k/oV1RPytKBz+08SvA7UckQM/lWT8RB+Y/p+X2P8ID079kEj2/HZyvv1hf2z/vi9i/4vBSwKHiR8BQqdU/atf3v89cQ8A8iAhAZnhawFx0Cz+R+qo//vX3Puvggz/krYRAEQPpP5w1uT8iAoi/66aIPxbNVUA2DhbATvwiPxoxRb83Mv4/WvdevrY9Dz+DMlNA4+GtvonZAsA+CxjAgSULP24Pxz8VeOs/DNtuPmQGn78+raq/MA4SQP4RAcCsOo5AOrJBv5yZK8B4yqu9rZdMP+fauz/33gc/p+MZQKOcgL/IZyzAEozAP5EzB74/Dky+z1HhvybX677nxJM/+Sdav3tpFz/3hky//xA5Pttogz/QXiu/4tUwwOYqyD8g94u/NPsuv/MALD93Dfw/CZLZPmSt5r3g6/E/D7gkwPjNLb8lhi0/n4gdvzgAKr0tOaS+hgqsP7YzkUB8TAk/n2HVP9GoksBfW4RA46HiP63iTz+M05s/zNchQL/z8D+I4bi/mMa6PRzNf77G4yVAFXQCQFoJJL8fAii+NPCVP3DWdb5y3Z+/HN+Kv+ebPz9OFgW/vkoAQN+soT/xg2q/n+4iQDEMSD+gRBPAryQfPyCFsD35WF2/+BSZPpcV8L+AOZI9+yP5v6BrATwqtxPAf5Alv1SbEr7PLhRAbQ6GwF3qBMAw3Dc/jOUPwEJmxL+0NDjABZ24P/iu+j+QM44/DCa1v6BNcr/s3ty/7JGmvR68sb48lClACNQfP82xMj/8oTq/qrAGvyawJsD+d6s/cHayP6H9ir/V29c+vacUP1c4PsBW5aw/hFhOPlL7Iz+SUwA/N2NSQFzNhr8FnBVAFGMHwJvua7/BpxfAXrVcv81QT78ki8S/3GMsQFDHYz6OsYk/HqRIwHDj7L4ozN8/FqgsvwMYOMBHFfQ/AOtXv8dEiL8G7yk/"},{"catName": "Maugli", "catImageNumber": 2, "nightVision": false, "outputTensor": "ek8CwH1HPsBIJZ8/xFrIvyhOiD9f6jc/GCHSvqHNREAlCZe/knQGQGxL6L8AlQy9At8FQFgXDUBpwwC/3gWRP5IXEz+0NAk/6dBWv1yZdD6rYSm/s5QOP9AqH79/vNi+zpTxv/1ZOr73yp8/EpACQBqNIMBy5V1Aoc3GP02UosBA4BK+JM6Tv/jvC7/YYA3Aj/AaQMjvD8DiC6A+3U6ovwgsv73fGvo+FJsGv8AIk7wBnsw9lvQlPSIAPcDRU2DAlu7SvsChkb/ahKG/4Q3uPhKZoD/w1rW/FYqvPyzZEkAjgp++9roYvwje2D/8T9k9iMwMPwLTs71nTbu/sATiv2A4dsDOHmO//xHKv4/THT9W/Km/wInNvcQPkkB6y2DAbSnqP/sw9b/hbba/IpE0PyIW3j925Zq/P80EQBn1TD5A3w+/XZKBv0KAcz8OmRvA2HPsv15Tvz/O+Ma/TdsmPwgkrb+8vYy/NS3KPlpKPsC+Nnk/cFWevVC9b7zpbAW/1zLLPmTWkz+o/Zm/Nt0lQGndHz/YgZG/ypIUwC94rL+UTOK+VNgWwJSz2D5DphfAlCn1vtPQHkBr9BVAOxmcPgtXAEDNo4E+YCOLvC3cBEA+QsI/KIaQPw4NOr/pZpi/BMTNvxzEuL/S8qG/o100v7i2Zb9YEZo8LlkNwPUSvr/buKA/K6/BP9/cJD8gT4a+BIKXv7JIjL93zpe/TuaTPlcaBkDaYB2/qb1AvuVEoz6EuVC/9rTUP1K0mz/ifSbA7T9mv0h3Xb7OC1vAao+QPjEfnT/FKp2/zR8AQNlghr+QwG4+XG+pP97oCL9/6EM/QOgSvcUdXT4Dii9AoRWpv/Y2N0AYN6O/2uHxvirY6T9hWi1Amqx4P0imCj8wU6U+XkcvQHIbjj9ycOG/K0NwP3pqjb4JVH9AL/Cbv/a27r/G/Hc//JMUvjzpCMBdqBTAwEEyP5rYkj75dl6/JrODvv320D9uLYPAwmsXPyHJD0DK5/E+aV2dv5gUH78YfhI/berRPwPZCsDy3y2//pUmQJZ9jr8U1BQ/Cj/iPnstjr9eaLM+TrjEv0Awhj4EJHy/bBDNvnAHZEB4sku/af2RwAyjoT/AvrY/vj7lP571XT9sHSdAIgjwPoWTHj/ww3e/8N6LP7hRJECABtm98RdvP1xQFr0ylaG/PlvGP2BH5T/CBea/z6rMvxW1mb27shq/ntfpPzdzXD/gfjbAi3vRP51az774vqu/HiOdP3QNkj/eLAnAen4ZPvmNFr/6kz6/sHyivuxEpz5zyAc/y8gWwE/HXMAPDApAq8d+v/s38j+kYYw/DOgUP9Sbsr8QHcU8+1qowIAQiD+OGG0/1mEcPyUXiT7oUZS8N/YNQAs+HkDKDKy/ClBfP7rCyb50wqS+dvsuP/Z/k788JXE+ukc0QGJ1br+p4DNAYopiP/DO2D54q/e+9j5EP0xQ6T/nS98/Ft2VP1P8ib8zUFbAu2MTPsqy3D9Tccu/Bpe5viDuoL9iUGi/ClCov+skFkAXhprAhCiUvp1e57+tJwnAx+4VQFmLtr8T7K4/ljnIPtg2lr9T2M6/DaRowODvcb589JE/yXeEP/4khD/Lp8E/atMxQMphYcCg1fy9UnbbP1BE370xbnk/FO1JP6CB7T10yX4+XFSdv+zvScA0BwBAmhSfv2KuF0A0dyRAoFwVP01r7j+K+q4/44WcPxaEqT+4oPS/dhhvv1COD8DV5wZAIuMgQOQ+hL9Cp+4/YbFLP47SwT827vO/9plMwPK9tz+m/yNAqkKxP+fidz8AzNa/TcvUPqxGU79+KkXAFERxwNrgwr/As8+/QpI1v4T6Pz6inzhAkarpP6DaVL423c0/qlrWvrbd5r8uXNm9EAkIQC/pLL9UmPi+B0gevjgiaz+wpjQ+Aq9lv9qjHz+T1ua+boXSvtmjmj9wchPAPMtGQCjmar7wwBJANA9bwMSGqb9uRdG/zR45QEDebz812PM+c10uvw6yj79h8mE+D98yQB3uKsDyFia/+TDmPuNSakC1xmC/rpoTwGpZwr8YMBBAzsEnQB4koL2uQyjAciIIwJVycr/yPJM/WlyxPvWa+b8c6AtAKnk3wF/YZD8qEuK/PrrmP9RkNL/IogrAhR5jQK8R57+Cit6/mz8bQBx2zL9DQnI9Azk4QMvVOMCvRIRAZFEaQJyRKEB+fZw/rDUdQH1Pqb8mKwE/6kRdv/b29b9a99c/HAYYQPs/JsCV4xE/vO1Zv+oHp7+9dxBAVO2lvr6+gj8myQlA5TiJv6JZPj6Vu6S+2V/rvb4POL0qkXPAGqYqv9ylWj9QMqg+bMhTP8FDz76tzIS/ndq2P/vwwj+JXW0/ntVRv0A9sz/V0YG/WY55v55MHkDXlZw/Zk62P3oYdT/crgK/NCUuv/zmEz95cps/zCSnvmI+JL0eqRq+NFSwv+eiVT9R6hG/qgqYP73eBj8wdC+8Njyrv/FrV0Db6Km/8bN+QKoyBb90dui/qhTXPqh6QL9YIoJAIIyGvtmiC7+tWoc/gIDIPMCYOUCA3so/sNxIPsFFzj+2XbE/KKUPPjiVOj/YGhvAM6dtP2RhzL7adBlAiNIxwC4AUz+ly7O95s9ivxAgm74vkZc/0ua/P39Vtj92LK8/hd1iP7oAfj69/N8/jRw4vzNlaD/KLsG/6aEPQEAyaMACqWbA1Io6QMDV0r21uQFAagGGvpAT8TzUTV0+cm9WwKL3kL9uzAa/ECriPVMLET9c5yNAEajRPjQ8GsCAcTu/4Gylv9J/8D8Otc0/hjMRv7+ugT4M1Pu+3HZgP3iTdcDyo4g/Kq62vRwBiT63ciVAEdVyP+IpQj48X4u/WSKAvo3m7r4Z6Mu/QYQLv4UBB0Cde0E/u2BDvwb8Qr4NPw1AshnoP0g8qD+d4Ko/U96Nv+Oh7b6/Ys2/Gd9dP/UYY77ywQI/eFb3Pr5OCT+Y2gLA49quQM/UGj84NxW9/rwSQNhhjL9V4W4/P7FiP/NTrb/aIPI/bVv/PnGp9j+iIqC+skNPwIIXiL/KT8i/MdxaQF9tuj6w+X8+96iIvn60NL4EWSQ/u/QaQLrMTb4srR9Ad0aKvzCIiD/YR3FAc0O6PsHhQUC/NRdA1hGqv7ToiL0GMSI/F00rP3CQ4z9ybYbABOaKPwCXir6vXlBAr6MuP/6LNb8Wnig/Zqiuv5b9DL67kcI+iup7v0LeFMArEBC+rdCDvwiimcCyaTfA9btawPIrCcBn6GA+RERpv2HdWUA11glA6mM0QGwNwj8skby/MsW6vs0NKkCmyYHA8alfQIIlqr5QOYk/gnKuP9WVpD4oJZI+GIvUvxUl6r9cutw++eUtQKnBJcBl6D1AEVoBwFx10b9OQ8C/OJU1Pvwz7z2EzmlA1nsJQCORSsCSnAZAjnWkPsVJrT9dUMs/GZeOQAHWMj+oK9m/6BTWP71lFMBnSP8/TOXEviFjUb+XZBtA2Sdpvxs8GL+zpXa/fXVQvuZdfb+btZK/UEStv3B0rb7uizu/l4T5v6dDM78OLhRAyMdKQDjH/7+gzCA/0HY+wPvNgD/QWdI/Px4ewH+VEz+QANM92f2Kv/z3wj5tQaS/MEMjvwpoqMBH/5pAvyKRP/gVRT9iN3E/iwO5P6juT71kIw++eqnVPw88hcDYztU/PH76PkotLL85uqS/AO/zPuBzTD9nMTm/KpBrv098QD9Beqm/yA0FQOXNlz9Rq4W+JC5pP6jnrr4LRYg/CezDvqw/9D4GpsG/1z7wv/dThT70YnA+BeIowIA2Yr+p7ivAZlvSv4AtmLv1JClA4RC2vzrH3r+1F78/YcUNwBPyOcC4ZhDAK8YAwNJJ0T+mEqq+eGGgv7Gq2L+BJiTA3UBcvyRoDkB8CzU/3ouFv147mT9X0QRAYJtovreQRL86ktk/BJXeP1tQ7r7QkAO+RGUfvupYtb11iGU/Dgf1vTNhLj/YVJM99VNaQFj/0TwMppW9fg0WwCihXj4sbHLABAoKwC6Il77KIuW/Q5AlQPlpAT/Z4k++Qzfvv4+DLz7w6q4/Mps7wBx0J79ihMS/akMjwBYzSr/XWJU+"},{"catName": "Maugli", "catImageNumber": 3, "nightVision": false, "outputTensor": "3/b5v1TrjMBwLqM/vd6fvrSaRz+fwCy/9fp8v6w5NECVQaO/5DuuPyKoP78upl6/YuOnP+zRhT9Afey/DFebPrYhUz9OyyRAKEimPrCtXT5UEcy+DNTXP2Kzdb9Xq6K+UbwswJIfXL8r0/M/whIWP+apNsA/KRVAHJsKQNvzD8D9pb4/AoD/vvgD9D4Yte2+/63lP8UmRL9K0JQ+JK4bwESrdr80r3c/rJirv4PzuD/ldeU9Ja6jvkqq/r6yDGDA+o6DP9TOPr/lugq/+K6oPvPixj9oX/W/lltaQJUe6D/YIcE/ToYePxxA4j9cGPe9CINdvt1bVD/FBlu/eqzav59eAsC4byG/lcoDwGeWzL9gIIS/Iu/Rv296e0DomyrAuDitPmfa67/waIu/NIDRv+mBmz/SYibAFTgiQHS6hr8JFri/tOI4wI1cij8+C2O/FDXAv22nGUAisi2/NkcBPwJMWr50OU3AI4SqvuP4g8A8nJg+lLSjP+rb7z9odk/AtjvrP0yaAED37qO+wiEHQKRscz8n5xq/9UwGwHdXz7+8zKI/2TRRwHVxGj9Q3tO/1p1hv4gHgD+uuH0/PWPfPv+Oj75b9xM+OJKcvfdWQT9/4ic/DvJVPzwUe76reBTA8INUPgrAD8AFP1HAk98XwL84Kr9xs2Y+rEJXwKRbBMBgr0C+h8qbPxNxFz+7mYi/uj2LP2n2mr9S35M+3XOeP8I5pz+0mDM/9Yq/vwjwsL7ueL+/9DdyPzyW/b4Puow+wOLPPVlkaD/7INu/EiGGP77SjT+dg62/qfH3Pxcdir8u/Aw/8RCnPyoZDL6974Y/1OLnPmO8WT9Q2QU/27Kuv2Dssj84HZq/fWPgv0zR4D707xBAcZDyP44fIT8mMo4+KHQMQKRqGD/UYgDAqLk4QKhr6L0eGx5AUvGGvlXR1L+zUgM/XLeHPnNNUsACFhzA+1waQDPboD9gp+o+BAx1vlj8OD+8boHAYs2Pv0uW7j/ZcYC/QLXevz35Zr6YWTM/GfsYQFBoMcB4XxvAWvR/QD6yH8CQ06m8CG3ivnKCVb/Z7ti+wLb7vtYnOz8AXmK/TETJv/okeECrArY+wc6YwBKiRD+XVoY/284eQPPQpz8bqtw+rBLlv05imD/Ot8m+mAMNP2lW/T9kMOg/PZBBP1PEeT/cbY6/6PsTQJhD2D95PSHAv5Ltv4GhCz98T02/Rx4DQGkzMT/NzIrA+u65P4rCaz/WfLS/Rr1tP/IMJb+m0Yq/ENk9v5xFjr/HT7i/7mMUv1rSYz1wLeQ+SJopwFqnqr9IyUNAki/FPsvalz9CQf4/QMdsv9GJqb8eQse+CFaWwCKQlz9OZqu/IoR9PSVceD88tSxA4IpVQLaTrT8fQQHAxtTJv7nxOsDZe+Y+sbyuP/Jvyr/MpQPAki0/QK7MW78CWUxAw47rPpMhRz/l4zw/gJ0zvFqrWkCYkSw+EK/Kvti29z7cpLy/7qjPPcM0YL5SgQvAAzuev0A3Br9D6qy/IcgjwLt7c0A2kprASiOgP/KoG8AGVtW/fgRkQNuCNr+AfPQ/gKxZvhu58L54WxW/YjmQwPKjAb/cBTBAe1SMvn1myT8EH6a91BTrPxqYisAeQb2/EssWP/awzr4mPsE/MrC5vmhNuz/VvQG/Cv/Hv7gt9r+YefI/uN6Hvv5puj4w7MM//D/zPmiRsr0kVMQ/1ESyP8Y/Xb/RHRfA62LAPg+VAsDbpaQ/Qr5aPw0YP7+yvrM/kHsrP01CjD5ehvG/h9u+v0j1wD/AMtM/UEPmPlJYkj3780a+TqYnv8rwD7+a64DAdcZvwHxn+77GOMa/JWcZP5Soib21DwVAbeZfP7r61L55XVE/9IZOv7AyAsAFVam/BpsgQLhy3D6dxDq+iJQLvRx/wz0o08Q/69O/Pk11WT/FKwW+dh7nvkjtxj9oras9eYBFQFovEMA2yCxASu1ywIxGoL7JOl2/uYYJQPZ10D/+66Y/OFfPP1ltsr/kzb++epEOQFh+EsBD0Li/27yNPrl69z9qQDM+xV5MwFgjg78GBKM/SjvQPzkJvz7l5Li/I+khwAD9fr6tXaM/9J76v6UrIsCCzRxAOUgewErVxj/8Je2+oPE7P6nGgL59XUDA1UBrQJobAb7i58+/tf0BQKwkz7+NDA2/XRkKQFKG4b9OBiBA6NkYQGRwzz8owJG9zq4ZQHxssr8e3bu/qgcnwBRRir/I4eQ/PwmLP8SXh79On9o/KrqWPpCOe70UhxNA73cIwAxwPz4S4TRAMhM9v2VJkb/nz9C8Hw7DPWhKzz84+WLA9LmpvyCj6jyQOBg9hYG7P6m1pb/ybUO/pu72PvAdHT+yZMI+iOwoP6b86j8gi3m/JX3fPmSmj0BIuz0/AtCGP5OjmT6hlKk+vO/8vaqKMT8/Z2M/MC/9voIowT5fuhm/Xhj2v3aBWT8vRQm/wEGEPy8OdD/kXUa/UFIBP9DrrT8LEtG+s0R9QNgEs7/P6l+/z6Ylv9dntb9295dAJMn3vvLYkb/4guQ+yjWZPxY2TUCq7dU/RnK0P8wG/D3aCQNAGNQiPyyUrT9f15C/+qsMQNOi7D8qLlk/WVwZwH0goj9JBm1ACqr8vnZEWL570NO//KvMP+saVj9PbWI/bUKGvuKIoz+gHrI/nI1vvsyeIz50sC2/9hGcP5vrbMC/3iLAOamRP94tsT7Kx68/w+HRv9azhb/P+N0/jpt2wPDY6L7kWlY+U3XDPom0IkAxHytA/bz5v5kCLMAW9q6/A38Cv1tOCkA0PjM/ZGHgPR81m75CL929XF+6vSMdJMBwW5S+Xb1EvcceGz8yYCVAOrRBP6hzAr/6hu++Wd2WPy4lC8A64CG/VBVKPjcLA0DD+cA/xHKWPZurtL7UmwM/gptXQPWpDUA+wp8/CsBjv/VUb7+pToO/ov0Mv5btjD+SA9g/7iziPlW+oT9fDhLAGAF8QAKVX79est0+EV2bP5ZlAD99LWA/SDisP/SGqb5si0pAAptTPm291z8kv9S+h16DwPQzZ8Ckqki/dI8nQEgaRr950QlAGGqQvcwNJb8oM9W+SCH9PnZskz86KyhAQYoOv9h1lD/1RVtA7eaov/Tp/T8BnylAJgRxvw4Xl7+Jn+g+hM/rvYqQuz7ShGjAkdM1QH1ApT7PjwdA+zU9QPPR9b+Kfz0/jicHwO0Vpr+s6Yg/Miulv95cBsCGVg9ALUYgwNM/kcDHbrO/u2mFwMd4O7+uuARA0JmfP9mWGUCvlShAB30yP46Iu72mKJ2/eL3OPBpePUA78THAnXQ6QLULQD/yTvI+okGdPg/qej8nJLc/1f2JPniU478LfI6/ZDDLPxJRwb6xXUtAkBFTv0Rh/b9Re2G/So8nQIA9FD0O661AH3rpP2weKL9H0gVANw+QP9t0wT+JK4s/LeY+QNrklr8wfKi/mH4oP4Gjn7+PeiG/QtQCwFTBKL57+yA/RAcJP2c1EL5Ui6S/QPjwPok2J76+Rne/4/vev0Quqz+d8+e+3lHTPjbV8b4KKQNAGjIhQKF/xb94YfE9bXwXwBL+ZT4aRn8/GGGRvpJR0D8+zYy/GokdPxhP074F2ee/oQ8rv5xne8D00YBAZL1yvZq4Gz6AES0/v/sdQHD6zz8DjN8+O2pQPzhlrb8bC+4/4cuoPz4PVr/jx8S/+oqHP9rD5T0gXhi+Ccs/vxTmzj8vgLG+qDAWQBYruL5AZ+A8zknNPb3sED+0fci/HqSLvmbIKD+eA5e/lCi+vwPxVL+A3zg+E0ZowNXQdb8pqBLA2rHhvogQWT9/Vy5AC30TwDSRlL/sGog+8s0lwGfo4b9GuRfAaNo+v2R9BEC5D3Q/ZKSXvzLVsr/VaTLAi1KvPe80rj/2IDFAGSTjvQolmj8Qc3Y/MY4Hv1HCEr9IDPE/7jqDP17hB7/XKaa+HnHAP1Z8tb82+Lk/JMn6vTjNBz5tVvC+6AVKQLwlaL/JzuO+hogRwHPctD8om0XAMQhDwObBEb/4wJW/RgIVQF3inj/gMRjAxf+AvwwWRL86E4w/iaXMv/dNgL8kZyTAxRTfv0hksb84UOA9"},{"catName": "Maugli", "catImageNumber": 4, "nightVision": false, "outputTensor": "6wODvxrmjsDw0kc/mqIPwNmijkCgdaa/eborv2KTvT80iTjA3oVfQG0BpD38i2S+BMqnP7L6PUCMbVQ/7Mz1vlgLQcBvwBG/CZoQQMWjhj8cKpo/iGn4P/up7r+gCuI8EBeuvw1BaL4EzoK+RAsCPopW/L7qo0M/CD8CQMm4U8BMJsS/aG4ZvvJAOcAIACY/sLMnPu4h/r+VI78+FeI5vx7OXb9N2LK+RrHgvzwtQr6Gsl0/4H7yPbkuo7/6ors+2OJlPkgDGr24Xpm/wl2Vv/b7zz6Kbd+/TttvQOAcuj9wisY/aGlLP5z9YkBqYzW/kLaevTDrqT98xng/Lh4JPySfkb/PzYG/VL0Bv+iEkz76jC+/mvPvvtEd8D+sWQjAq2ekvzPsOMC/EQW/7HARQGrDCD+ynou/aGv/vTZ1Gr+V5wHAPMJ5wKTAaL1IelvApPIcwBrdJj8HiS9Alglmv9eVYsA6Eri/kG0GQIRTasCkLCa+BHSuPnpbSz+a0Q/AtqitP5vRfD+wLwnAXhmNQIoYKD4fwga/4zrvv4pt7L9Gy44/lFG6vxEPJ8BYB8w/OfalP42ao76A6wzAtzGeP9MOTED+peK+2iuIP5tKaT+H382/gy+HvwIjKb+hu0VAJHZzv0+AJb197ZfAgiSAv7tPZb4zawbAGtgMwPvMG8DniIY/RFAfQLfhgL44bXw9kNjpP9CBRb/hKKe/mC2GQBp/jb/5Vg6+c9B9v2jE371ifza/qdgcQHET8b4WAuq/eKIlv1Bu1z+UUQjAkSgfQJAUPj1uPKW/VGVMP5vJG8D6kde/sdt7PxAhTzzv2fw+un/LPtJULUDSxbi+1jONPydr1D+lh26/fZKwvzAD07+2jao/uj+ZvqHqTL+8M4BAKlloP4AWtTvonYi/+I4yQFjNdj/qxvA/fT1IP9Yftb6Eq7A+5i1AvxuxDMDvx8W/NK9KP1Hb2j+Mdb0+TuDaPtZ7A7+eGr0+2nrZPod89j9QxLq/VtXpvgJieT8w6By+nmfkP7U1t79oqfc+PlGkPyjzOL2/vI6/ItREPyQLhL9sqChAtmHBv1ZZxL1U6TXAoBejv5ikgT/QFlI/q0ibwLLwBkAswgI/N3cPPyltYr9qrwK+nFJzv1UzfcAZNp2/Noucv23DHD9HKZi/XhDJP5Q7E0BJ2lG/lVLqP2swF7/C7/W/gM/YPlCS1T9TSGW/TIq0P8ndcT/0LU/AVFdzPwCjQrvO/Zo/fNy9PpRbKT48Nlq/iRSHv6i4qb5kqpY/Tu85v9jPGz9t+wnA3+odvyprtb8+T5K/AIeDvTgAJkAMYg5A+TQAwIOnR8BtwiLAWKEYwJU4IEBA9pm/OAIwwJSRMkDWiE0/cWtoQGZGCL8r3QZASHfZv4AkOj70Zjc/IoEOQODfbL4i2E6/hJatP5SGcj6O6ytA3ynMPrsJKUAewX6+yFe5P5rnNUBUEpC/TmxJP6SgnD8aCIi+MnQTwHGtRj9YNT4/FHMrP6BIzT86ztG9KdIfv4H4PECZCQvAvv7jP2gnBsDs1bc+XFi6P6WHvT5UTBc/RECoPcVDDUCx/M++YjAswJRBlj92tci+tO0gwAKOxT7B5a8+NJZiv/z/P8ByZGw/MSiwv7QHzb9KZpC/3qb8vlLuzj/mGgK/5ESov3lOqL+CyLe+32pbwBK/mL4WIFhAbqGUv25Ckb4KWnU/5jFuPnh4rz8o5UrAvAiwPynAgr+JvqM+ZRxlPsBthj8wk6u/4jTDP4A3hb9IqBk9lUgAwNZu8D8D1rK/vhj9PioK0z6AoCE8U/KVvz6ESD++TF7A3UQxwKh0/78SRITAKeaVP6iCZT0De50/eAfYvwGKob/O44Y/b3LgPrxsyL4pmpq/8osaP9Oeez+wTXq/L8szvoutvj6i9J4/cdu7v2iC1z8T6qm+nHmSwDiG1bsY7Q6/EqbnPx5Nmb9+HRFA35kzwA/sf7+gJKC/6ln6P4BJQkC1PJQ/GnIFPzKHZb8aQg0/3hSRPxdjAMDRG8y/o0Y+vlYiCUAQp8c/mK/Wvchc0r9Hq8o/qNz4P1oZDz8Qsps/446kv8qc9r/REeE/eH2Yv643lcCNKoU/w0/tv6kuZz9+lFo/tCLlPrGIV76WLy/AJ7hCQCrHsj/oVRRArgLaP9GX1L59kIy+MtO/PwA+3L9Xd1g/sGjGP6rstT+d93m/DKP5PsBbdb22jmK/dbS9v2YcGcAc+hw/BuRbP4b+/D5ucPs+9HvbvxhiaT48eA1AJ5ELwPbFYb7Y50U+Ssxkv4i6rL2QjeO+aZXDP/AmSD9mYmS/e9Plvnb1C8BaeqA+svxsvzWZuL7wRMS/GfG5P2GT7L9ByL2/QDgoPGAYgEAnmss/s2gMv+zSFkC0/C2/DwZbv4zIf7/FbRBAA3IjP4Cyar6UfD9AMFKfPiUkwD9ko3O/n24fQDwpZUAbiBy/z5otv/oY9z/oq+8+tuyTv9xcikBqZl2/L2X/P65HFcALkWG/kiILP85AEL+BVRNABmQAv9/CJMAzYZG+v5QmP+DSlz/jaCQ/4Y3WPxf60T8EL6c/7gz4vf7iekBM72k/5XpTP+/tKz9InyA/yPTvvtTVZUBDjXxAVH8tP3fZ4754JhfALVJvv7nNKL8c0KY+qDMwvzyf5j/D9qe+Geacv9yKv73rFMU/rr0GwHr7pL8urFvAEmu1vyIFNsAc+mk/y+HEv8P7wL+Eyx5AG7ijPrDULr3S3klAoC9Yvkym0L9YXvw/qH2PvQiGNr6gOy+/jQQwv3hB7z/2hvQ/1EDsv/cfxz88j5C/st87v4vbqb+Br4C/K9FTvmdHvb94/H29PYuNv4zYir/yM1c/bSyHP/ZjAr9SAaG/49rNPjhRYj+4+FW/mBcxP+ZrOz9svhE+WpUSP6OZSL9gGpo/waC4vrmlML9SkBC/JsCePinUaD75NE5AJgcdQM4qND9Q9QE9RJ0qvjSOdb9yG32/Gr9dv1maHEAS9vS/QGETPj+GoT/r81g/oL27vBffyj+Q23G+vyesvukdS79YgQ0+vftAP14L0b9Ime4/AKz1P1kUsr+kz6w9kXF/v5HguECUVitA9nM+v0puQr+0BnJAmGRTwH7fcD7uQnU/y1H0v8KUbcDqBYQ/0VoCvzuJcz+0gvu+l82gP0O/H7+hvYS/js0iv377c78YWNq+mLBJQDXAij8hCSe/gAf4v/Co+L7Z5BlANHofv2rVgb94NgJActGuvvxarb+mXxNAs38AwKHNdr5GMABACu/rP2GR0T/w3KQ/yL2QP+cokj8fMOy/RxToPkZVa7/6eNc+EMYEQPDKf78Eoa4/mUQlQMmfR8BQG2w8nA2vP+UoiT5JueI+RElcPzGYGEBTbkzA+FA9P3722T8Uc5lAT8P8PlvhBL8WGxdABobtvniwKkAcfiy/uNd+QPihH8Da7Q6/zmQjPzSzyL8+aA7A0hkKwNHENkBTBHC/nJ2QP8UzeD7dOEJAfoYwP87DZ78Gsw7AI/8VQE346z7MBRm+J7mFv1Fajz8GJ+o+tmOFQEaFqz+i4tq+94oFwI7hfD+k8Oi/8BuWvvYnjL/QV5I/rskxQNxLYL7nS4S/cPYEv493ksB8G1RAPipuQGi7pj/8nTS/RfSkP0Z8wr/+99q+NZqYvzMRPr8YxuU/sOsiQAg5mz43H7W/CmcjPz7vEL/i5Iy+RSoOP4aVBUCy2Je/ql/BP4Dpv7+mk2vAgDHMvhSrMz+xyxO/qm/jP7ffpj9jSAzAuXzSwE1skD4Adq2/etZ5wBAV7T/dUTrAI+TBv1ZWeMAinJE+Cd54vxrXw79SxCY/342tv6bGPMBO3AjAxQCoPhP2HUC57Ly+H6+mvw4trL81ymg/Moy8vdj8yT5ZidM/iAdmP45f1D5go5W8lOw5P24fPb/zYpk+kJAZwJWLBMDKXGO/RXmTP9xE/r/VTC4/A9SNP+UGpT8947g/NJa3P4xeoL+aPYi/yIz0PPhXlz83xx/ANOaePzA1oD3jLzDAQ09lPypOIsCSyDU+Fehcv+IChz5g2MQ/QwZ1v3Nz2T+7Ixu/4qTFvxiNA8CZpTNA"},{"catName": "Maugli", "catImageNumber": 5, "nightVision": false, "outputTensor": "BkKtvm6OT8Dqerq/aJxHwFnURECgQZu/SK27PMgLL0ApKVvAvuxVQIE3gr5Khps/2DDkP7g8HkAO2p0/Drl/v1rgNL8nA8M/Fk3svs/lv7+vcE8/b3dfQOUDzr/1lBTA7dCAv1Gk2b88gbU+lVBwP/6is748tDM/40h/QHv06L90cIk/R+zAv/ou2L8Kuow/eqruvvRuw78tiFA+u4+Nv1P4uL753Yw+fnimvxLD775cfGE/25eOP6LOnL/ql42/ypSvvnRaaD883GG/eBVzvyxdgz64TPu/vVUgQMR5A0CGuDA/1BvBPwR0AEA8ciW/bOODveU7hL/mPkM+1rQPwPtFUcDTCL2/BOUOv8BGoD/ivXs/xAuHvsd5FkACgnK/Ztk+wBRWkb/t8y2/YH8tPyHpMj9UI1W+P2JMQDFDAb8w1nO/lgqkwLYpjr9+ShjAKEK2v4B8PL0kOg1AbRnIvxwLsb+s8BjA4CUhu3Z3Y8B4lsy9oaGuv5J/mj+++mHAioJWvuXWFj56YBvA/kuNQGlmkb02/EW/vyPwvpCQLMCQyY8/LfT2v6YDuL9UzQ0/vBwZvZFmbj+ohRS/ttOJP8FhV0CIya2+BvaBv0niVT9TDfk+UNpzvws1nr+8YjU/9iwqwPdinbyW7K/AWuIWwM2xLr/VImy/ueKcvxwhH8Aj7Ta/mMbPP2gbpz8vAei/fTQDQBwEy77AB8W9yDFoQDyWBr/pV6U/4D1iv4SEej8Oz3e/snQ0QO87pz9bcg9ACgo/v5H57r52Nfm/I8u/P9QO9j8QbjPANAEhP/EKD8CYfyU/ejVrP2aqQL9kABpAMMkMP7f1nT+CJts+cFDnPghiYUAQteG/JdK/v5gkrL91S1g/Pkl/P3DHmz/EeKY/cr9HQKAwzT5CeIM/kjFBQA+uXT8wGsE/b7UaP0GvOsDeYaA/DoG2vw8TP8BiAQS+elyZvystEj8AMDY5l1LEP7h96b4ppfc/FpW4P/Zpub4GgzzAANgOPY/6iT93/S+/n+xGQJTd/b5iAa2+ZALPP5qZm76A6XU8a/65PwAyZr9jGxVAd0n9v4+uvz8OApzA8RcCwOeBdj/LWO0/Axc/wIyOy7+y49W+mCaMP7YAhD3zhrQ+6IGvvv6lLsAs2OS/ZD0WPlYpoz9PWV6/2QcEQEgNxD8a6JQ/pi1BQN0pwb8It/++TAdMPheQWj7owC6/6BzUP5Bzvz9pXT/Az8eWPrU46j/0uaw/sp1cP0wIUj7hpLy+1T1jvzQWHb+VJ/s/gA6tP5cGnz/eSuk+yqLzvwRzY78PJYS/vFWVP0DNREDbUkVAsFIHwCDoacAOPlM/mlY3wHQwfj+mjlW/uEgqvtZ39j5EjJa/KOriP4c56b8+CaM/0GQKwEBcFz8iDQo/IjHuP7dCLD+PmAbA7GR0P3HRn7+SnQNAedWCPwFNgUAkdou+oLeYP9ISRED+Jea/+1yhP3pJBkDIVSq9X5ABPrTyBj7EqAm/HC8wPrAzRUCRtBq/ENR9vgOkTEA43wTAZpz7PgAA3DrVsGq/wjVpPwBEjb8IEW6+NpBsv6YwikBAYGs8lAWFwKtW8T/s7zm+1TUrwGkhDD8WlEI+K6dwv1mSbMAQQh6+dXnOv8YoqL8F1wE/12AUvy4Snz8K2Vm/cS0ewOqrmr+iNZe/pP+Xv9BszD0I3oFADhzlv2yNFL5xpbs+HN2BvzCP+z3EVBTAtxQBQHOT/b+5Bae+GKpavSppWz7HvXQ/QliaP1zAG76op2s++Iwbv5jIjEC04gg/EOo7P+uxqD+h4ki/uPXcvlqrEkCso2TATXPkv59WUb8S21i/xI7/v2fwrT9IC/U/JI20v5rfc76cJJU/iJvAPct5wb/tMRPA+Q4EP0D9rz8ilrm+vBi+vlyO0r44UgJAPk/Zv3jRzj1u8FW/likvwL3Nmr+utEu/KteoPyCllrxNPgNArvyyv4M8NMCIV/S+pgxov2tORUCgb6E/C1gZPxWRwr+vPpa/GkaFPzjpYsDOGRjAppV+v497OEBNDK8/mF/8vxjPtL7b3bI+bjjgPkJSCL6OR0C/cOhpPivrEsAVF4lA4t8UwER5O8BkR7U/J2clwLT0pT3Lw58/yslvPp9R+j4ikey/slIjQCk8yD4ALiQ+ghSXP06DTb/nZvk/YBeqP0APib+IkIo/lRaHPlhhTz/o7Yu/gFUhvJijDr/M6KS/88TCvwJpq7/2dZk/0wWnP/hE4r6u6qG/qU4IPYZVFD828SZAn+YUvwu0qL7G+Qi/dtAtP4ohMr8aBdm9ps4mP7TJIUDrAK2/fzPmv2gMs71bzCy/ngj4PgjoIr+SRI/AAcgFQDIzhL4wWiDAdroZP4q8WUCF15k/isLcPrl0wz8fe14+rME5PoF3F785NYs/LqMWPxZGk75UcS5AfiGGP5VS9j/1uni9vDEbQDR5UUDyafu/9ml7vn/+Pz/ZwFi+7zA0v0fkSkD87aG/BobDP/mQF8DPgyC/FooLP4EdVcBXyjxAlS4bvyYbAMAg5UU9Bhafvhikjj9lFuo/yEcZQPy8or+A/0a+lF56PxELo77824c/slzLPzkIBL6Doy6/FFQFv6931T9Qdj1AHOMmvyMOGMA/NYe/KkaVvraUHT9joIA/I+PWvj0uMUApJ4M+73BDwARxnr5b7Iu+/G6Gvjo3CMB6qY6/QGxPPxRY17/OIcs/glAPwKmNib9Gv9I/quQsvpJYKj/qPO0/hZezv8pYBr5vWVVATE8NP6C2ab0Y7wa/gNiBP4rHQ0Cn640/VjsewBfjEb9t/w++EE6KPrBop7/iome/3GHEPkKDYT9NdcM+FkRGv5SCD77ioGo/DOLzP6H5rT7uoaC/oDZUPbCUM7/WJJG/Dk6evgEQhz5QXc49aovTPwr/gD4i2EBAi//TPuxbXL6gBpm9IX37P18HZb/BdxJA7p6TP0N8qD+1QhU/aH+QP6aqH8Ck0yY+/H4Vv4WUAkA1tKM/yvdKP9EJkD6ulpg/4U0qwNAuXD6QQ0E+EjTqv3bD0L/AIIg+T99vP2tjib+SGSJAWqh/P6RpA8AxlJ0/MAYIv73TgEA3h5M/DOoSwFIK9L8POiNAxujxv5hnV79wh4U/H0X8v6wJKcBYa4g9ACbPPtRO8z8uAJM/pQgfQCfzEr9rfEC/CogawPhdob+KDtK/zk6KP5Tqwrz157w94akHwEYAPT/oE4M/CEGgv8pyRL8oSks/C8tcv6Qi8D4VRmxAdkggvz5SDT8HeqK/E2zBP4LS6D92Fgs/+IupPuhwA0CNBfW/lw5aQLhU+76UZ1k/2KcBQHCvPL06aQFA0Dd4Ps87VMATKlG/KDX0PTgA1T/a000/BzS7PyrBkD/zyT/APhjMP+pTPD4Yu4BAwGtSvlhYtL/spztAEzFfv24wkj+S1yc81BMbQEdpVsBkSP6/lnSVP688zb83wnW/lvarvm1+W0DhzJq/FKAmPw4e1b+ESL4/RGcGvwbaH79yPwjAhMiiP3jGaD9gYcW+Z+eAvxTp1Lww+Hm/zgttQKBSXD48m5+/Gi5Ev1xM8z+Dzme/8Gv1vxZ04L7gZTE/mO43QACprT87Nr2/ydadPxWxmMDY158/v+4CP0I0yz/fYQDAONlLQGwbJsCKCeU+y4nRv2NUgD/gSOY/dMPbPzsUCkCv2xy/AOAXPETX/r8oraq+Kj98v0jr6D+QgH+/2Go/QEcsfb5mVH/AWLd/P5WQVD8ejIW/ZRkKPxWa/j+eozO/CR/HwAnHiL5yl/8+RINkwJvzAz8kaPO/VYy/vwwfQMAkYqy/i0x9vzL8EMBuwiZAkETKPoLPOMBzovS/FgsNQMi8yT+iHqs/KnkxwALve7+3H60+1q3bv6+vPb7SpyFAeDWMv2jcJ79ym9O/0n23vqPWwD8Oxsk/fD/Lv7wzwb/34Vq+2gYHQMN/A79A7tg/U9PUPuK7QUDADQXA+ZTvP+NhDMCdHvS/iMA/v5c03z85JVLAGOF5P2p8e7+fg1jA9HfDPwp/T786Jmq/OVrLv4EWoL/Qsty9RA/Pv3wuBUAB100/qHvCv3jg1r3fSxZA"},{"catName": "Maugli", "catImageNumber": 6, "nightVision": false, "outputTensor": "yUcUPykVEsCaLgG/g6BXv4oWHkBIthQ+cO0Yv1pD0z8A1qC/t6Rnv51C4L8rZ0o/zJSsPzjpdz8wk2y+/iCKPhoJhL+2oyBAYBg1P0o2RL8eecq+Hn3WPxn3g7/Wkq0/5rouwDKNrr/OhzNARgzfP2IEQMDVVaY/Hn6uPyzUyD2iUrw/Waa3v0BubD01XIO/aQbiP4Irk78yvzk+6/9CwDplxr/6dAtAcBJNv7w+rz/WK4O+0D/yvZnuR78MMzrANvNjv04XMr+BlTy/zkAlP8cGNz44Dd2/jVpqQAYXST87sbM/oovFvfVxBUDeJrK/fM2+P+i8ST0GllI/wH2mvlYJWL8Eqvq9YKPCP7rLwb+7yOe/EKwzPw1/PECkPeS/nXsavnk7kb91Yl6/HqcQv660Nz92Us+/278IQEBIkDuAAj+9KFgNwDHnpj8I6QS/uJQkvz4UNr7w1YQ+cnYIv7S8AcAEIc+/0Lz+PlSqI8COwj4/Bli4Pv39bD/UcKg+Ms/FP06cRD96XGbANs5KQODW2D9trZi/bezOvw6CAz8Fi40/IDIxwAKjab1Der6/R0OYv8xc0j/W9J++1kRtP/Lanz+vlaW+OBgDQLqcmj8TIsG/GHUSvk5NtL8h+/6/urkzv0TkXb/JivO/wDgYwKWcbr5VCri/tl2JvjiSMMAsfie+GKQNQHKIrr+3EoW/cHeLPw5xyT9MRuA+R3iSPi6BSD8qDSK/10EewChf+z7BmEXABKXkP2KgBL7QPDS/uAnEvoLmjD6mHAXApWlCv2eckz64P84+2c0GQFYBUL9DAJy+2pHpPgEGqL8o3fY/GAZOP47s2j/6iVlABmwNvyD7aD6aRr0+5gmpv0iOcj4Eozg+fM4bQCKUOz9pE28/qLSRP6aSeT5KWWm/0kw8QAvqcr/nYExAHUEdPzLkmMDAy5y/vABTvoBbtL97o/e/hoEJQPNMTT+oUIs+xqybvj56Jb95boy/5WGFPpNXEUCStdC/HeoAwGOunj50cug+lHAkQDyzEr9gsQTAxUEvQE8xTz/CDzfAfZKGv/391T5igme+67yPP5G2zb9mtqq/WWNLv2wNwT9nJ8o/l72SwFryND/cCu0/uO/RPwcYiT/P//8/eMXaPBmkfb8e1vo+EhRaP7f4uT95ZQI/AHM9P2yxDj9a1qm/2UiFP+RarT9/OkTAWjesv23cRT/w6AhA5FbqP2XgFkCnZzDAm8/ZP2S4/T+bww4/aGi1PdfUb79Cv/y/jblwP57vCb9umdK/74fVv66r8r9FRX8/kKVzwEBTXb8PxPc/6pWHPpG9Nj/atJE/svYfP/4xiD+eNIe/HABdwH2bgb6m6AbAbbajv+o6Wb+iIJBADK1YQOgawb3aHBHA70wQwNTTxb/yNpa+DZGFP2VsxL4KEUC/bM9iQLM6nL8vuhlAyIp8P/0y7T97jj2/zqOjvoNYFkAUfrO9bxiwv2sPoT+gVLq/mmXvP9DJrz64/TvAvUfCPhQOkb4v+Ja/KreNv+zcQUDvxg3ANDwLQIRWYMBviIS/YrpBP1dfiL/TeKI+AbzqvyhEDUB6oXG/4n1IwKXyjr+3XuU+6w3Yvi9lkT/B78o+KgYaP7tyh8A4xVQ+LtJmvyfVwL+unJq/KDzQv2jj8z8/G3w/AOx8Peugpr/bvQw/eE2iO4EmWz8AMCa4/KJvPzUOXz/2rFg/kD69P5T40b7d9SHACXHpPpR3HcChPVBAqZXnP2ITn7+sZhG/ZIvzPyZodr8UydC/qLjBvwII3j+8W4I+SNr/PK3VID/S3Ja/UIwQv1mhiD8Q4gzAVLXUvz7x/j+60S2/7g6nviohd77TrtA/GHYCv+BA175cLKw//HL6Pw8Eub9Xpcy/ug2DP7FIHL/xNRDAjFh3P0uqmz9/MGm+XiBTv+yeqT99lsS/vOY/vksnG0AA0CS8kIjlP3S99r9wBP0/XuUzwDmznz7af9e/fSGMPwUvWr5bhRFAfvqgP1ZsoL/U7ba/2Mgdvx/hl8Auh7c/lv58P/0yUEBKO6y/b21/v1PoZr8ouYe/IlHYPym6NUAr7ws/xnyYv+EXAMDNeOI/CFzEv0hSCMAgV6k/5dgzwIyR9z9AKY+8pHUFQJLjLD9B50jAl4OtQDZkGEAvjXTAwCefP39ExL8H3RPAm6pjQNqMMcARMB5A5NjHP0BXgr8Gm84+KqoYQEBXFcDtTCfAcF0yv+7lAMA1cJg/OonjPxBpz7zmuIM/h8lqP9F4wD+8EcY/1wI0vr6sw7/WcGtAnGZ6v72Zor+oYNM/8OWdP/X0NEAMO23A1wkrv9YO2L4aKhhA2aiHPzCrNT0lRYi/XtZUP2fguL9J12e+Uo1sP/OAK0DAwZE/1jmCvpcBvz6rB3e+pXshP6lDzz9+5ce/3gilvvCdST9Dtns/IUsXwOkTpL9kS8i/TKDfv7m+PEB25fu+lcFJP1y+Bj/U3Tu/y1dLv3ED2j5kwva92uuLQDUZur+oC7M/VlKcv6QV5z7BUT9AWsTxv/WOQL9cn6C/rCqjPzeFeT8f8eE+BpavP/LakL/9Gi9ApA73vkBTszsmK2G/oJzIP7qxH0DJNVE/FVESwObaT7+UFeo/xSEDvkbyJcBUUWC/gNWzP251sD5yIRC/F4QuvyK9Ab9jwBe+O5cJwCVCID9wO0jAjx9AQAOgxcBVMBrAvoBhP75omL/4zi2+25z+v3TVVL9CCRxA5CRowJqfVb8vPl4/SlAgQDAYrD8IelU/McGgv2Jvv78g8gTA5a7FPQ7QK0D+PTA/ZMpDP60Vzj7YS52+5ty/vygHRcD7q6w+9ob8PhKuBr5ukSk/uIEfQLQVQ79czFNAk0ltQKgCGsAEmhG/8qyRvzB1wz47CMU/8M7PP8jOJ7/Qe1w9UmYKQCZVxT/0x88/hG7Sv0+uib9XB3E+rkg3vrcLFr8IT90/tLEcQN4/xz807N2/bE9cQI56PcBbLgHAAN3NPy4MnD3Z70Y/0te2PhJYK7+YeIk/QoApv5k7hz8TpDe/K+BqwOkBDsA4xza/i7CZP+fJvz6dygM/KsFAvrpUXb/kaCO+MOzUP81LsT+CqWBAg1m/P8sKcz81sJg/SIAUwI6HcT/ORidAOSohwF4qEb/cLic/VRP6Prve1D5AgxnANmV0QNiJiD9e3QY/xWzMvVGevL9syq4+aBxcv3rQSz+fZznA/LUywM+0G8C/IgtAmSRMwHQZEsDwVMg/ZURKwN3Voj50BMA+jAiuvlqUNj8KJSVAkOcLQA9cUj8ml5Q+DpWZP0wlP0AcrErA0QKuPlQEdr9uOn4/FHWSP2Ch2LzOZYNATPg5Px2+r7+srwDACx8KQEoJHz/Z5Jw/fs4zP2ZCp79eQaC/Wm0iQFHgD8DNYXxAcA40PT9967/Wmh1As3aGPxuhjz/Eyke/rx4EQIUxob/7FivAhZCeP2GAJr8IbvY++r3hv3DYUb64+os+xFMTvhPrwj8D3B+/FNjuPjAOJzwFWpe/qrgCwMa2pD8YaznAAmJrvtndLj9+aglAumEiQHiApD5iGBtA9M0IwGLdYz+mJ3o/aDWsPQPSIr/Yz6S/N6cYQFU8MkBsxAm+vQOdvhI4Y8DdJ1dAzOK0P38Yaz9COhw/cEkwQN7aND+sJrk+ZqKKvgYluL+yyVxABQ4WQJ5GUL8GzGk/jrwCQIywtL7vZpe/0XdSv4Qklz/cxZQ+i727P4iBn77+GO2/TmvKPzDKPT10LdC/eGevvbK2CD90hXm/tMxxP1D+DsCP1Uq/2OkuwKbX/74MxRXAHNbZvpzXZb5WX/E/sR+IwGrM5L5XSyg+FG0twMaDCMBBbOK/jV0DQEKW9T976gw/CSChv4vep7+OuJW/tb8iP/ytZD/Z0EtAs1r1P1xTXr7XZSk+dt0CP86O/b8WhbQ/YKpsP00OBcCxNqY+2/+SP8YWAcBWvsU/Ks3XPg9NKb/gTHE90+JDQOXly7/VcDRAXTqJv6S3+r6BdxPAvvFBv4t5Y78Z0wjAwmHzP1wAIz5wagk/TaQMwBDLCMAXlkE/XUiCv8kOi7/BmGk/cDNivaG8Fb8/lJY+"},{"catName": "Amalka", "catImageNumber": 1, "nightVision": true, "outputTensor": "6Seev0hy278Zeo0/zZaYvtHoMr/4ggXAVK3cvyw73T+7XyhATJ1uPtM5Br9vDmbA0pbyPjyF3D9ClqY+cKGJP+5ZFT9cajvAwM1DPg8v9b9npsC/YVtVQAEltL9luyfAksLhv0LNRL91Nt4/1OvSvmRHkL/cNTu+UfDMPzBzocCbX4I/izWnPxkpqL/mUCy/k+6NPqB6AcAakKc+9q2HP9abQ8CaMOO/AiAdPxjzHj9pOwVAln4xvif4EMB1kJQ//H2+P4tUu75nsd8+vRWCP4V3zj9Ftg4/ErtzQMTF7T9uSpk/V+N8vngmaT+44Ac9im/Svip7ED7FtOG/7doAwMu7Qz7W8OI/M6w8wNmstT8XGui/H9TDv+l5mj7CDRu/ywEDviEfecD3lcM/WkILwDN+GL8W87O/3hoCvtItWcDL0sy+iCpUv902pr9Cvxy/tDlIwJcDCkBApXm/sIPwvULcLz8Ci0hAV3HLPgLxDMASJXg/DtE5QB2Uqb2GBk7AsP6DQN1+qT8o93S/VdAqQJMBZ78KM6u/zzPCv9hUer+w/CXAnHGRv+RL4L8UdQM/GRV0vz7riD/0Xrw/bMO1PeEAHz+RZCtAQLpwPUVyKkCPhQQ/6r9aQAwjuL+QUxpAeqKzv4F4hb7rjTTAcji/vzEBGcA27oG/rdD+v53/5L9RYO4+FJTKP49yGj/bLYm/UAWRPSXi/r8C9BK/vYqPvoxmMT/o7+a/dt1Hv+7qHkAszJi+IDIRQAH3A8CYUXy95Rbcv04hmT/1LzDA2zjgPY7tyD9GZZu+wJ0OvxQSlT/cU9m/c6sBPyt1kr8ASw6/sv2QvxdCnj+DsTK/DtQhv5LnBT4mVdI/bgvJv5D+3b/WASpAOOJMvGDmzb5cNsC+mC3YvcrWAkAX86W+b+S0v4ggxr+xChhAdAA8v+USrT/KJpq/XqjNv7DYIcDQI28/ulMGQIszVz+17CDA7tazPqQ1hT+oUYrAtQ+qvsobKEC9xq8/CoksPh/xgL8pv+Y/iohgv4q3FMByCAzAA20IQLFVAMCBghdAF2CwP2/iWsC4b34/nRQhwEdoTD8lQ6S/gP8LwDbQE0B73l8/n15PwNN9yT8pgKM/nFDaP8aYhz8CACm/BYbYvwwv2T/5hA/AqW/0vsLzrj/7f+U/jcDjPxwDwr4ova6+EuwkQL9w2T9zGVDAAdMbP+gsAj91IwG/N0YGQCwuoj9AnJ2/HED5vs5M2r/Io1+/9nYDwCB+kL+SdWo/CbtUvlqwyT301TrAvD90P2wtKUANNNO+VCsAPr3Qub/EIwU+MArtvZKAvz+/DB/AlllBv5iI2j560oe+C0UHwJFqDcAqzo+9lDepP+o78j56mDU+MhR7P7M0yz54biK+G9VYP/5JWcC1rOK/yjGtP+YmA7+moFC/osMZv0e0i7+S1Ia/QtV/PypR8L/oG4g/HhAFP4ZNRT8XH8Y/qlhZQLJvgkBEjmo+P52Mv03tl77oIQ7AGyIeP2bgwz1IRLO/SII/P0m13j+MlILAg9YQQLphdb+0498/ONNSQN1AasB37KE+/6Z4v8LgHr+iiB8/VHsZPoYVPr8VbyxAZumcv6Ccxb3UfxHAHcUvP2JpNL/jdhDAhHd0P9NpOz+r2Qi/kq+bv89LL0BpQmG/8405vz2OlMAAoTY8XJ3bv7fSE0Bqtz6/rQIIQAydWD9oEUE/zeoVPqTCfb8A3i86RptOv45VKj3DQNQ/jmhXQMpG6j52JO6/fhZwPkaXPz8GdJy/fYUewKEdMkAuvH0/jY8VwEBk370AX3c7iRbhv1DHFT/oDGfAOJfBv9dPI8BuGra/S381wODMA7/z7kg/LLkqv6IWdb9gMdi/uVfFP9NxD8DJAIG/VphFP0ELMkA4GfY/9iZUv3gHe7+MJCi/DLICPnlODUDiEYRALJHgv0dTD74Afku/hOBPQB7aFkB6zRI/7uNgv2dJSb+gfk48e98mQKUzgj+g9ShAf4IoP0blMcAQG6U+J4FBP7JBxD96AU7Ahhs4v1pBBkCcoX6/6UUQwCAiez41+vs/TEt1PqwnVb9jZ7O/gxHTv7H1nz+DC6s/3g+pPfVRjz+pcg5AmO91vYbntT+ujiQ/fDwWPk3jYsBlHwzAyAs+P4B50r8cmQRAgLCJvQl3nj4/Odg/gAv3P+N6e7+HrdA/rEELQBSsQkDMPK+/is2rv7M58b/0b7+/ZW3Mv6/v5z6y66A/23DEvh6fhr9E5DBA2AXJvsKeor5MBaM9vPZWv//Frj/OJhm/FhI3v/ioY7/K1g7Agb6uv/IH6D4kcFm/ZH2TP1fASEBo/F++ZIKgPiLH/T8IN/Q9N7acv+3cAsDk6sy/zMcLwH7d1b54EvS/+wilP3myb0C1FVJAYgbKvqbFJECSgS9AyLHBP0Fexj8iZoe+Z1RrP+SbOT9/KkI/8Iy1P7MCCr/+9fI/U9jnP8RzMD1eX4e+wDAKvzvPDkCsAcG/6xo9QNH7sT0B2hG/QBAEwBgK1b/JEyJAB04SQHa1nr8K1Ia/TNEZQJUFikD859I/+cmrP1SqIj959TxAgFjGvNyRUEC6idE/BXxXPw7xLcCX04o+gA/rPNSLZT9k1LY/dnBKvkd/7L/R1a6/AHhnPE3V1D+0iHS/gKY2PrXMJUBKdBU/dxM1v/hW9j8fDOs+bTcYQMDkQT/DrXI/go6hP+p4tz9IZzE+xNPiv5QxXT+aGWg/5YXCvuw+ar+N6A4/BP6TwGJ8Ij5sOWlA9vbuPjO4pL+Z6x9AhY/3v1RZ5b1BKY6/AMESu6WyOECPF5LAFvZvPySO5r7tleE++g2SP2tAIsC01nA/mmmev9GP4D+iP7G/wCGIv8QTDb8E3W8/Ckm4vxU/jj9qfHi/v+0yPzv1gL+UlXU/kZ+UPoyu3z9YPXw/tOkSv34hEEAAHg7AeyiDv2jWFr/m/uI/pcLUPwF7/T5hgoW/mpdHQNwmUz8nb6U/pbyTv5BeTUBr3AZA5iiBP/aHHMCsZ3E/UNUHQP3q8z9OZJs/85pCwDGj+r88iuK+mLFCQP6MXb/Yg1ZAlHoHwPg9ib/PrcS/YgFuwPmrD0D9Fro/6PlpPy7VcL4Ew3VA4u93P/mSr0CqXuK+QvxKv3iQPT+n2as/9EDDPqNAvD929fe/ll7pPzrrrr+B6tI/CgFYP0IFrb+QMqc/a3mqP+AlS8C3+xw+sHVRPQgoMsBgkQC9T147wG4bA8CwPE/AnMb+v0YTzsA73rK/7VVewI7oNj7gVLU+egLcv2nT3z/Iklw+v3mbv5lJg0DFpxrAUy8+QPLS5j5uauk+EX4XPzRcAr6H6lw/YgZxPvySlL9fbc6+6PEgviEGOb8OaGg+6nPjP5PJKsAIjF3AFD+dvymNEkDXnCtAmdmNP9ychL9e3nY/PJlMP5Uu/j9KGyNARK89QCK4WT+sNwnAdrKiP1teKcBr1xQ/cONtv+ZJhb8m9TZAaAV8P+wqBr+t+ANA5v5TPnHYvT71M6U+ZpzIv0L+wT+WYBRA+usHwIvKnL0OMGU/1tdoQKrf1r9CnYc+ZUI/wKFhGcACyOC+CHUAQIAW6L7G0gO+2mx6v0YzRL8faL2/h3aivufE5b8gsq4+PaWiP4BAxz9iuhu/SbQ5QOc6Gj+wj8Y/+jbePlQGsb+jcgpAkJLUv8onpD/Nt0/AVJ4MQMZlxD2VgXe/Qgexv5dglkA58bK+o65HP9OXsr/wf9u+DjmtP84XW79SCZa/RLscwMQcw758GnO+NJ2GwCF1iD9enE2+ZoYfwFhnLj5pkyDAbl5vwGEAOL/bc8O+1T7RPlT7qb4UbQlAMiB/v3ujqr+Azr489TfLvy+0Mj+ajI4/d+2ivk8XPb6wuJG94v1GQF2wQT/78dY/+3WtPoiJZD4LiV1AznK8vyrTVEBmXtc+YtTtvvTmTT+1vg2/+tu6vzPtHL90LaM/rK77P4DK+L9+XYY/bci3PumDmr84gR2+ci++P4BvAT/sSum9CnJvv/m0vr7gib2/bNMjQFxvT787E6u+pam1PyJv/j4iEQy/TEgrwFwM2j8RK7U/nJ4HPk6Dez8sKZS/"},{"catName": "Amalka", "catImageNumber": 3, "nightVision": true, "outputTensor": "SlsRwKGtCMB4Kpq//IXzv3SUfj7wL/i/Kv02vuJkJ0DpIIU+PfODP3HsEEDp7RzAyJf5Pn8lc76wSPw8O9NaPxwRX0CYwHO9cgAAPgagbT/zsRdA5oteQIZdKsAebd+/9CngvwDfA8BSUTVAyVq9PhIdpb5Q642/7DRHQBvEkMB7TCA/5pF8P+g7GMBcg5K/Y/sIPyL1C770NEE+fXZ/P3wJ6r8zioq+rHizvD2Mgz/VUyFARiRlv/Tjj8B+bOK9NBSbPwRM7b0mmia/bM6WP82iCT8IvZy9M913QB5CJz+MmZM/ZN58P3RErj7wgVU/729cvyOTJUDaXKc/SXdlv3Z46jxPqQ0/cmtdP0cJBkDWmgDAso6Wv8TUS73QqTXAKg6aPlDE8b/3qJ29pR8TwGV5hT5hri8/bIUIP9xWMsDxb5o/E73Fvj14bT/IRtw+Mg6zv3UJqD5xj9m+tKJwPxp7ir+Uh0w+wdE1P66hJcDyU7I/NmEVQG3rSr8khG3AlrvCP/uLrz8H8ta/N4wUQGw8371gYiPA1vUQv1ggU784VIq9AVltwA4WLj4xWRTADOTKvjahqT8bKg2/Ne6Gvz5BIEBWNC7AT/ouQOnr0j8iFbo+yA1zPmzXYT8Nhdc/vjpTvySSyL/XdDPAakBfwNchGb73chC/iEtYwAxYJcD+900+CnawP6C1PMAsMzS/aDRWv+aYG8A0uDU+mAJkPyO1lD9AhRvAyUm+vxUbVr9uUkq/pFwSQMBZfTuRuDE/mqQtwGJo17/kieI+0JLjPy7syT+ciYu+PoV+vxtocL9MgQG+cj2WPwAirb81Q4c/qlSwPqxbYT2gws48LLMrvzvkzz7XR+Q/2u9DwMjgpr+psQE/dCvhPjJA9r+DWXQ/m8fWPwkTmT/GgNA/QbFTP4oE9r+e4gFA6CZLPbLmM0Aqf6e/yqNPv9zp+b/sp7g/XIYkv1NJs79EbFa/QNfDPbeImL/EoEnAoVvRvniybT9hQ1+/F0kYwDXFyD6JX8s/lWzGv5bgqL5eMhTAhNYxQPx/+L8Vrw5AOAKrP80rqb9L7Ym+4a4MwFtHQ77+Am6/L9DvvxjX5T8IdLC/uMuDwA6O7b7Zzao/wmT3P9OSC74s7Xa+4pQXwM/9Jz5en9O/XvDCv6VJ5D8w4Pw/mchvP0SeOb2WQrm/G+wKQLMYZb5vpYfAcdAYv58M8r9VzaI+UHHCP/CQPb2gyBfAwphnv5gGFr8UuWi/xpHrv5KsNb+O7qQ+QfNDv7gDi74qNErA0VqEP7fCFL/gZ9+/PLmnPgKJ/L63Isc/uKC1PwLuYD9dFR4/fRCgv8FUDj4J1AW/vxi+v+6WRL/kZ3W/+BlPPyBLhD9q6pe+DL+6vgp1EcBMGb0+KvmvPwBfwr+wZ+O9eFe1PYN0C0CA7UvAXgvFvhwxHsAAVvO/XQbHP/RGrr88J/w+GFhSP4aFmz9eOQe/oCtqQGv5mz4WMvC/T5p0P//nzT+Sz6K/5XVpP8dJBEDCc6G/6PpLP1zMpz9xaNm/UsUTQJCzTr8unuc/sq0BQI1Iz73E/Wu+GF9Qv5YNVEBUUrI/EGJvwCTUFj8hskA/dqGrv6i8H8A1DyDAEH4jQJ3+6D4bUwrApNqLv7IwFb+b+T/AevWov5WyaECGSre+DhcowBx727805m8/4vP/vhZXvj+WRG4/2I4cvohWa777KgO+o7vTP3aXg7/QxJq/J6SUv+A/KMBn6q0/UimjP6+a/j+Rmyo+ygrAPSgmxj+G2BrASo0RwKkKG0COcdQ/3OLYPyLc8T2uU1bARjYpwA04Pj93Hm6/nyPMvyfmiMAkm/m/DkINP5z+h7/rIxS/+kPLPRKmtr+csRVAh2hoQLV7eb+GhW6/0LYlvr+BYj8BAZQ/mnfiv/tNrj75Tf4/DvCZv2Djwb27Sjm/Gqg4wLYzGkBaA6o+LOUdQJ7sxj9epBY/ZXmjPiJW0L89+AbADOClP9+XLL8rZ2U/SUE+wNaVSMAc5v+/urbhPzIG8r+CnPK/4zKCP/s95z8cfO++b04PwCbJzz5JK5E+8woTQIgpUz9ouco+XBqEvWg4Fb35fTRAfLOQvxb7BMCs5nQ/a8qEv7kgYUDGexNAefIiQGhAKMAsyAXAjrhMQJRgDMDXFas/NE5FPhb3b73egs08jwJGQE0yK7/+MD++tjT+PxXO3T7e2Wa/l//Vv8BNBsCUeLq+7I6YP9OKA78god8/Z2vmvlX27b/f4Jm/P9EcQBBD8z8mf4y/mFu1vyLj8L8CPy2/HXKYv8skML9kcto//8A5v0ZbDL/W9gPAgaC4v2XwkD+eXj3AIHR+PVfsPkAJ9opAC5j0v+Fzd8Cz6rG/HoScvmokVkAiSqC/qrLjPtWhjUCgKEhAqlQkP2mYqr8gXrc8KRnLP9zyiz/aET2/ju2WPy1qpD8E0JQ+QMLrvktgsz9mzf8/Q86zPwZoqT9r6OK/PH4uv5BlCL0213LAC/9NQPxc17/+ebU+4lxpwA0npr+SdmY/NO8TQHRNLMAETNe+rvGTQISjQT8yOAdA1PZoQHSyl73mA8I+IHyLPuau5j82Ak5Aaf3jvnrWY7+twR2/m9KvPxmhmD+Y/cs/hxFcv+q3KsAYWFA/gCmyvVfNjD8pkMK/im6PP0SUGL3nIaa+i9FUvwy60D+YW0M/WEgsP1as/73D9N4/mO5APwdJC0AEso0+hHu1v/zoLT9KNjNAZi7NPlIVij6s7g0+yzTSv2+gJ8A2zIRA8sO2PyLpxL7YlPe+ZhTSvt9zib4PNQBA/Se/v+JcrT9VGBTA0QKJP52jjT+gYKm/9gJNP04cnL+vVxpAbYL+v27Xhj8xx8S/nSUoP40/9b4N8C1ATPSXv1BD+z/Otsy8pNsTQKXQ477fsKw/YwuQPvKW/z/K+uI+xE8CPwy/FsB55hhAhDePvjwWzb9eclA/aG4JQAiFYb+qvpy/CsrpP/uKpr/wpXE/8YjgvzZQCED2G9E+pgZQQHpV/L/shIO/osTqPwCpUzt/8RFAT3MNP1jUUT8arqC/DFVzQHfI878RxgFAyEBrwC+38b+09RjAKYu+vpbL5z79LeQ/+u08PzSo9T+u+fM/sQMHwAMLOUACda0+T+aKviJgqb6Vtfy+vrYOPsp4PkC65au/uU4rP0DDVD5eI8M/Kse0P6jbEsDQ7b0//0b0P35nXj5NxZm/urgHPzjEOcA81cq/XO75vkvxTsD+lhzAMbKXPkHtlsDIqQ4/7VypvxB7Ij3ERhE/QvQzPpVU+z9zTV+/6gb2vtaDrkCJLKk+ppViQMCtfz707Gs+dYp8P7rmAT80MSU9wsCIv6Csg79e9YA/CkCmPukxnT+eRbO+w8nkPwzvvr2c82TA6mKmv1DHIT+frRJAnDDmPvpENMCG/D4/nYkVP+cmNED3tBpActWrP4eqHkD1XA7A1PdwP8Kj+b/4Qu+/ME0bPNI9IT61Ivu/3Pqgv1XpCT8uNYVATezcPmQ9Nr7SLj/AgIkuwJo6mT896tK+WOMXwAeapr/H8Lg//aSAQCYVML/mNSZAR2QlwEzpWr+hnQ6/8SV5QPWDab/21aG/kJOEv3VvC0AMbSo/E/sNQEaFkb8SAkQ+ezslQKuWlL+Bjxi/uB24P/qRhj7ysWVA69HEvx07aj+QuS9AelELPzJtc75OcE/AyBw2QMvbBcDb4gXA43jwvzBmbEClMYI/gxbev/fbCT6mgzm+jmWBP0xd4b6hSkvAFELUv/Q+rD4xVMi/+lOGwHTTAsDyPP6+BPoZvzT6OD9WCcK/f4ZCwLd5aL9muaS/0IhcP+wQxr+BqA1AV57Bv/62Dz5Uka6+APLUPa2VBr/MQZ4/HY2nv3yjDL+RJDS/2xUUP1R4nr4Ev2Q/i0apPtDqHEBl6FRAqkY3v5owkz95iHC/hnCvv9YlSz/SJsK/umCVPhRNPL2Klrs/SZITv/kCDz8NoDlAQlUyP/tRM76lnIU+JMIcP2DwlDw4/Vm/SCeAPx5i7D8Yrtg9PASrPpMmpL9eJ40/eQgYwHGSKkCMKyW/ii24vjwEOD4EeY8/oKNTPSqyLEAzgy2/"},{"catName": "Amalka", "catImageNumber": 4, "nightVision": true, "outputTensor": "ssZBP2+uGMBDxAxAmCadP+/WGMDug4u/Xu/Xv9CfPb7LD3BATQgEQMnUiT8EJgPAYBVevk49Vj+w4bI9nk9NvndycT8s/eq9B2cCwHv7kb/eYgFAMBGcQH9jBsDQNfa/ltDMvyg647/uw29AlMwgPgwWIcCZYZi/hF1VPZIcusAs/00/5/PqP9R+Ob9A/IU9UuuCv/bU+L48nEE+YVKmP6lBbMAwJRW/EFpcP5eBQL7CtgtANt2yP2MV8L/DrDO/VHWaP6pF1T7Pt1e+n5TVP8yy0z9/l5O/LfkeQL43ab/YbiFAeDVPP9T1iT+WkE6+KasSQHGZDj8Dtaw+lzUBwC9IQT0Oz5Y/d/C2vzXLuL0jxFi/YHq0vADhyzwWkZ6/cqBywASEor/jmxW/roErP8BrST5AofQ8fV3RPxNgFsBwtm4/B6Cwv7aWGD/M2uE++3QYwEDgyTzyn6q/47Spv0gNQz/x6BU//dsdQA6YTMB5CSU++/5eQJzmE78qYE/Ao/RkQL+l9z8I7ne/MuHIP6Tyo78Qr+A+Xk0uPkex/j9I/ra+bixKwAre67/G+iU/10jJv64vsT/DK5g/DgEAvsmMdT+yfNw+uKm3PXPCkj8kkQ3AHczfP6AAhL1/uY8/+Y9Jv8Jkwj+clE7A0TUvwFUour/aCqW/DGfOv1P2DMBeqhc/tCX1P3Q/Ib+qzkk/utOdP0AII8CQBZq9cjB+P/gOHL5JwZM7yZf3v4ovzz/7O6s+UL0gQMR+/L+mjr8/uOnGvy5Pvj8EaQXA9Phuvk0KJEAgZp49Sl9Vv4B4STyHKeW/nrEoP55pNsA7LFU/Vt0NvzEyDj/8876/uqRVv/hqJj9SxZs/yg3qv4h84L8ObcE+H9zrv0Gmc7++/eA/jAyiP1HmiD9ul+G/4e8RPl7a9r9jDA5AUkElPoZRwT8Wao2+XrkHPwDw5T67zL4+A/0PQPJM0z8mF1u/OlUKQJuf+D9HyWbAPzLNv5ChJED2G70/eV8nvwwAhT3yOwE/kOHuvbLp071M686/7W1iP4fyPL++c0w/vgt5P68j/L81ixRA03/Uvzv0kj9NktC/XkSXv8JCAkDIQaM9cBpvwEDc2D1R16U/gnCWP+kr2j/q1Hi/2UIAwJFRCT8vvwTAtNeDvwB7AUDyc2xA8ScDvzeWAkBA9tm+x6gSQLjED0B2FWvAtxe9vk8roz98w9u/PlsTQCkZGECdCBLAOfEMvzPRTb8Giqq/jp8EwAC7x77A2h+9zSs6vyU4FD7Hf0/AcZW0PvFsdD8+J6K/Urm1P7ym5736fXY/v4AHPyj1Qz48ylTALH0lwE3ajr/QM+a9ggpXvxA15r+nvIa/rvV4P6DLwD/GReI/tCP7P1Z4VL+e5rW9wFO7P4W5M8BXOo4+sG0mP1yt7r9cu12/QMWUv8/U0b/6OG2/JLxoP5W9i78Ox7c+AsLBvtIkLr8Z6o8/AhkOQDp/Sj8ypM+/oFMTwNR0AcCuU1bA97XhP1RQ3z9Gu1S/eqCrPybAlT8HW4TAYBoAQCzFB7++Evc/gaHvP+sMub/Hhuy+rT1Zv0qTAkDxY4e/byvZv/xHV7810cQ+RP3nvljdGr+y6g/AgAuZP3yQAsDNzBTAp3C7v98USz9uOCbAy+R/v3q7xj+Y/dY9jDzMP8Y+OcAR2RfAJynkv3fYEEC+kXy/cqVDP96JoL8e80c+dYCbP2KD9b9PlE4/MOLkPBUv276npRNA1uoOQD5MAMASWB/AFtKMviBcCT1TDgi/kuyAwCQVX0BYax2/pn4AwAFCPz9VvvG+qeuJvy0vgz/GKETAOtjgPVZKkr8+9CC/l30WwNFgi7/Vqsg+Q5QLQP2VoL/6FIS/gP8cQJXPAcDdrIO/brmlP1jsxj3TnR5ABhKNva+G278YMoc/5JoQPrnBCEAKARBAtKW3vyNyLb98ZTS+8cEVQDPI7z+MTbS+s+nlPVTFwL+NlR+/douAP/J3vD/lKpRAZH2QPzkOdsAusj+/i1hZP6jIUD3eA1LAO8kIv/h5tz8+CjC/Aov4vyiMiz8G5j0/QLBwv+T4ab9+XWG/cCDBvjBA2r5cmEc/s5zjvnG4sL7weS29kKt8vzUuFkBOdyVATSI/P7QgScBv/pG/qk/kP0rVYj4TtY8/H4tzv0zNa767cDFAgC5gPyZX5b+wrPW/isN8P+wGWUDJs3nAGJvhPqwzBcDc6gw+SYWcv+itoj+l8S1AUY3OP4bnEb8SXsQ/c6klP2A3uz/Xmv2+n1bfvtG4n7/vxEQ/KKnwvjUF1L/JTVe/tErjvDENOz/t8ee/mJshP95a6T861T2/69oSv9ihPkAqwWA/Yr2ivyYO/b9QN1q/8LnWvy5wsz/U5mC/KMwOP3BAOUDJOwZAJLLOv1SbUj+NasY+YJUpQDr2AkBUPFQ/16AeP00nnT+/ejq/xgn9P+ppjL8LPIw/DvrHvop/gr462ne/DS83v3dNGD/ODCXAXi6JPyC6jj/uVNq/bL0bwIHedcD/fAVApQeIv6u9YT8GTxK/D999QOTNUUD+1gdA7Oj+P8Q93r9UiiFA9MKAPpBRIEC5hYw/8BTnvk7UNMBm9WM+wuECP2ZWrT4mvZS+ogXkvjQE5r/XAre/3F3Pvr1LD77JXvO/dCW6Psy+PT8mCa0/19xPvxGSLkAzBRlAwuItQDtjmz5C2bU/DKeWP9DAoz5Q5W0/+bnXv8etuz52ix9AEEJhvsGyG8AKnK6/+nWPwA68W7+GSaI/fOJGvlAWx72+uQA/JXQywED84j1Aow0/amAlPmOXbEAPnOK/hgAJvzz/YT+r16u/4NL/O+Z6279BSwdAkOqVv+AI8Dwk02q+KiL5P523or4/AP8/Fjb2v8JHAkBOigq9y288P3lADT4VBhFAggkhwBoxyj/V6w0/QwyAvh08Eb95wZjArCtFwNywET8ysqY/qWjOP4FYlz7H5GI/U5CKQN7sYb9Qqqo/+XUCwPmUUEBARVRAnvsPQGy+LL/uqp6/qTAkQKVeij+GTsc/8S9bwP3Rir82+4u/j/YcQFXDu7++EjdAG3sywJe3qL66ALi/zJwuwEfgCEDw1Ms/DhyHP9uoKL84XnBAQ4lHv2S4PUB9ReK/npPGv9YC2b8H7ZY/tjuavmBLpD+aEF2/fAtvPzjVcL70U4M9gFCNP8q5UsCwLDs/Qrg0QMm8gr+JOz0/csPuvl8gO8Bg0oW/IEIXwMRP778OBme/d02vvigZbMBfExa/mSI/wB2dyj6CUFm+W3cawAzTAD87oX2/Yt3Cv1RQhEAMiVa/2/fkP/7JTD/3mQo/8OKNPtpymr+1pr4/g5TQPgGf4b50bnO/KDioP8xaUD66/8a+pJ9/QI6Dpb8jWATA0sNHvxf1DkA+9DVAEqJvP+Eqyb/Qpu0/88e/PjMS8j8Xfz1AvtriP51Knz4QyPm/bAxQPj8PEcCYqeq+ITgvP6FbqT73JAhAjM2RPlb/0j+7SlRAzc5MvozFdT+wY8a9U3nWvOLlzj8EzTNAWqkDvwDhfTu1nYY/ryFhQG2TrL613LI/SbvzvwFbij2kmjK+6F1/QPmQHb8YrAy9Rev0v93sLD5cMT2+Qa8eP+Z9HL8s0pq/AI5FQGr0jr5AFBbA7s4FQCScLr3TUxdALFPDPzbB7L7+vCRAkOVLPYaAHUANr3zAq5X0P6V/GMBTHce/Jj6GP4pMIUDkE70/wG1qu5oFtL4GBFS+XHOXvea7OsBWHu+/IWEGvyB2Jz0WhLm//OaDwHr+Ob8gqWW86n9Ov4cezz/pvnS/hHhSwOwE97/fzgi/4JttPkSWB75HgAdAbaPSv3XX2r/7Rvy/slI1vymEg79bNyI/Ev2ovyH4Q76LhTE//ukNQGC4ubuBbwRA8QacP1Thqz6GMAdAP34LwGZZiEBkBJe/7NwsPgOL4L+2cxa+nMPbvnUqgr/eaug/ncBrP3ydqr/2Ics/NoW7vni1DD+vRhg/RtZlP0wHib/8u0W/7o8VP7WFdL8ehNy+UCmtP5mrjD9sp28/AR5VPih/tb8+TvS/07VUPxiUVz8j4XlAECHePnRFNEBe5QfA"},{"catName": "Gita", "catImageNumber": 1, "nightVision": true, "outputTensor": "aPmGvwc/J8CoyZY/l1YWv2LJGUDmMwbAahK2vigXMr9bVCu/h4mRP6OqAb+29XpAFMDhvtRv0r1WjBVAeK9vPpiwR8Ag/5S8c/WHP9va3r+I1qc+YyUDP9L16rzO8mTA0qOpv0eP478K+7g/IMITwAqWnT9i/7O+MB/0vq5ZU8CfNwY+K/QDwGe37j4g5BlAu4kxQCFqb7/b25I+kTJpP5uMEcAsSki/Ywr9v41wlD/Y6k89lwXXvihLO78a2w/AchJjQLD7ob8+5tG/ES8Cvoe5DUCOTpK/EDAWQE4Z3z8eFw1AaPAdv9wN6D8Ii8o+D11Gv25Yo78VS4g/0C3fPmzOBD+xEvE+ME6Yv684dz9UZxA+/Gqlv7soCUC7jbu/Ce2yP/b2oL/sCL2/vUFSvwtdfL/0UJ2/kN82QKYUkL8AfIk6uBAnwMKubz+NzjzAoOUwvW+K6j6yOdM/yKwcwBKHt7/4naW/XveKP6i+LcAtQIxAW+YdQM5i8D98PRa/6ZveP9lthD8YQnq/GO8EQDE2QMCG2C2/58iVvmP/5759lhZA2rePvwhQgDwNugbAzaKTvzBstb/ahijA0YYbwHClmD+9D1++67BWP+NOXj+Rq5S/VKU+wM1l375/LwHAqJRSv8Jw+j+tcr2/4Cp8wNeHaMC254K/WCxuP7TqNMBPXPw+OGdRQMkM9r8EX2i/NiTDPkJHAkCLrxY/Zo8BP8BiG7/ozG6/26khwNzM7z9M5Xq/qCGQPyALJj+c28o9gCmRPpGOAD/o5kXAluXQv/41Ej7K7wrAEmcSP22axr8AwLC6k0/TP/KaBD9gc9w/ZGCMv6gCK0Ar3zxA+LMZvyj+IUAQTgE/jkMvvwSIoL+j4To/GhObP8RkV7/AGAg8ylIpv3jG6b92y1+/v2mrP1HGmMBEAG+/oQRsP/zDor9AeGE85b/Ev5g3Dj+DqP6+XzuiP1xQjz+NCCs/RoKcP77dtT8AuE3ANlqCvygxOD+QtMy/QCKrPzZVdD816Ps/H7ANwNpp1z2m5NC/eqhzQOcMEsDIap29sNeoP0tivL9/3s2+ntAev0vgXsCq6OA+ApJHwLSMrj6w3Tm9pxmWwAF2GEBD0IC/LPc9PlhBvD+4+tk/HtbOPcimzb92nMC/QjbpPp7iIEB0kgG/r6eDP+r4A8AnEmy/mWYwP2WCP76KwCvAGCHFPH4bJr+fh1q/iBY8QAHdyr40d6Y/v4qtPufuqz9KnI4/Ja/5PxNnbL9G11i/lCwWQMhXEECjfTrACkJUP7v5MD/Or+w+WQENQKAk27/eGUs/EZEYQJDH3z3y/b4/AsWLP8RNoD9C0qm/TjtJwKQctT9GYeC/j3MnwJoMd0AGPVe/0ZJvQMNNNT/sV0o+mrOnP4Dytr8Mc36/A01JwIy4r798n/i/IHoGvtmIuL8Lyri/QdPIPwrbOL8bVR/Avj6ovrGFmUANGqK/pHv7P5ogMUA6Qy1AmCKePgJ2PEBW6CQ+QtvfP/3LYT8lv3zAqNjkvQraKkBOYme/Rpk3P6BrPb0vPji/NNhSQIL8Dz+oGm++oOYPwBmZTkDKjA5A7CSNv3AYn7/FOtE+RGiPP9DJKD93rNK/ZrSNPozbfr9ANNm/QOHivyQCqr/oc8y/A4N3wAgTmUCKgT2+klWEvrWLkD+MCuW/DRWPP4bUlj8YZMG+oGUnPnBMu74Ajge+rWvzP/2XPT+PxNS/qkSePwvu5r99KydAar5wP31yrj+MeSNAtHwFwChJh75grCjA1jF4PzNIUT+o3+U8XRwzwPQfBsC6nfa/+EN3vq4/Nj8Kbbm/54cJQIY/2j+bx1PAkIbgvnkVEEATN3O/P6FiwNq7Dj+804I+JPY7P13Ez72y4Wa/jDsNP7vK5r+wAmi+0+GyPjCOWMCGR/+/gmyhP31AH0Bfk9k+wOi8vxCIfz9uyxbA6atgPxjixb9WFKq/sR4TwLKaGb6Ep7A+gz8YwI/Gnb++GOA/mPS0PSjKHj4F2eW9bsmLv9OzHj9TZB3A0BENPvF/0T8cD+29rAgOvjRkib9AwcW9+DAIvyBq0j14mh6/6Ryyvyj97L+pqSFAiSlVwBI6mD+ZwjdAafDbv6lyeMBCXQbAHi+Hv1fD+b8A1IC/rz3pv3YOVT8G81u/rif+vyJ3Z7/PGv2/djCZQPVKJr9om4RACmQnvrX4DkCE97M/8s5xP1yvYb8xz9i/qqKlvxiI/z6cwBS/wBL1Py1X7T+qT6I+krY/vqmxdL8dsmBAWJapwKQCIcCZUJJAzmW9Px5kM0DbATJAPqstPyw+1D/TKojAZ2AJwFHEBD+uvx9AZHKhPodjtL+8AE6/IhAywFrHxcDjVibAvHnzPxKQtT/4+ne/cGLdP3ggmD8wrog/QmetvvlDncAEkao/csoLPzmh5781Vg6/rvTWvz1MOsCXzOy/HJUGQCV1VEAE6Ha+E0PbPp9XTkDAgNk9z847wI4q2T89zK6+/IUFQNyYZz/IW9Q9zaBzP05+gT+rFr4/bWtuP4DC4b/60oe/zyUBPxeTiEDs+wLArhDVP8qfvb9bjAhARDe8vg02xb5Ce8k+IYhEQKWNEz85Hcc/KrhPP45cnb4P2XhAEDSEP6pxQb9aszS/FMgovk5c0L6qZac/QoE9v+TsaD9MgHi/GW2FP6gvcb1Fyuu+HMFPvo6BMz8cEVzAAi2wv2sdCz/a8Ba/AFlXvuJCZT4Wkao/BiOIv5imQj+/63Q/DB3NPx9jnD5N3ho/QrfEv2SR3b9o3TI/lXl5P/xhD0D8VMQ+GVFFwD6FK0DpFdK/agVTv+4CHL81BwpANAYhwLsWFMA5D09ADDSuPYDrTjvwSz4/TGtcv4lCIMCcWW4/NVQqwN/kAL/daQm/zUgRQD8WvL/ItKi/brWGvfBBtT6TbWNAQjAkQPQ2tr+gvY8/FUuRv4Ngbj2jD/W+nbXxPw4wWL764ZS/bJqWP31a5r/he4w9z8s2v2RAJUCgVvs95YSNQEGopL8Mlqs/u5rdP/7vmr/ATg7AvqPVv3sJTMBox0m+37+oP69PkcBB+ZFA6zg0v3dl27/H18M+TK0pvys8qT+0SQI/3EGkPzXHJT/+nRg/n5C6vpRQkr903WE/qwazvuSj4b/364i/G5v0P145W0DAijY9x2CCQBzDtL70u9w9zsLIP6run7/EAO8+EBaDP3Ex9D5apJ8/RE2evjxrSMDlziBAkJcOv8T2Nj6oqjw+lAULvw3Tzj/pjhFAuq4KQEmNJr+SoTbAO3xtP8DRqTz+gIo+9yjXvytISkB/yw3A4FFWP5VpYUAJsy6/HYQ1vxBhS7+0cky/FkzIv6vYtz5eVxtAqJBNQOWaNkDycGg/8IZwP0cvIsBuZxLAOpWKvrg0nD7XmWBAjNrTvtMTwr3xPpU/KNI1PsW2JUCk+ow/SK3XPwEqTMAw0Ze+tE6AQAWyhb+rjee/ENsJwAArsDxZPhc/FJU/P3524r7s28g+f8jePzBsbLwADwG8pgZKP+r36z+lh5A/0TR/v3NoB0AWQiu/BcHTPloGuD8wG2++QRbEv+iHqbzfVB2/ydxEQFgF+j+z3mW/qUvJP+4qx7/1Vfm/XnkBv7LyHb9Yu40/yne7P3x7CkACwQ5AKHZJQKu3wD+WheS+HbvpP+YG2r/g+lS9D1MBQIK0F78iGku/eu1lQLOkaD60jqq/8B2rPsojcUDm6XC/mK09vu+i4j47gSrArPM9vj0X6D9HU0E/T9JEP/Ob0D+tx+i/CV4CwDQhKkDsE/e/feMfv7grrz/K+CnAeqQFv+pQmz5xbihAuL45v5JVo7/7vYk/f/EFvx282L9UDgnAtRwLwKBtlz6Af707rM0qwOei072UvQDAGkm1vs31lL/4Jyy9NdqjPzpy5b9CWki92t0jQJwysT86BQ0/JXkXwIpcT8Dy2wZAxbDrP2VeGL/WbuE/QXfmPwRBp78RJ9G+032gPwp0iL9ePsc/eLUtQAzC1r9QL8M9OI3pPznIxD2w08o+PDZnv5lJvT/nO4W/IcSxv7DYaL5A7r09bbwWvzCmQr/ywlk/WinCP+iXur822YS/"},{"catName": "Gita", "catImageNumber": 2, "nightVision": true, "outputTensor": "iOtQvxz/7b9SeLg/YakpP2oZBkDc7YO/lATVvtRL7D/GnyA+IbitQE9beT8m9po/5hPRvxE/mD+Ecp4+NBfpPij6gL+VYpw/BtpfQCtDyz/LX2c/ePiavilO8D5qR+C/C5lHwD7j+T52ZSxAevIMwHWLJEBQaBY/oGe4vh2TNcAMMzvApHZSvoCR/j7pZD9AakKOvs1BVMBuNu0+nCYCQECzzLxQhvS9PKxVwMaZFD7oV5i81pAJv2c1Jr9QTAhA0sNxQLeLAEC4rb+/VR0HPvJURT8iSgFAAFRlPxI9Aj5BLQE/tR+1P2C7wD6wrRlAlx1EPzUCPz97ZM2/KiQMP39p0D8k9oy9zq1TPykAsT868zdArHeevhxdYL++0CE+Phy7P4gRar/CkhnAwotOQCXEer+TVhS/PU0NQGii771DPDE/ZeG3v5XWPD57TCPA2MLqvtglZD041VQ/zfzNPxLM9L/6oDK/a55rQHqGV8DYXlS/O0tHQAffZD9Cf4a/o9XHPxeniT8UGBvA2j2NQPF5N8BwgyQ9faiPvnkWBb+4HitAXR/Hv3O9RL/EM92/H47Yv0waKr8uyGrAz+6FPjqmHL8pN9w+AM7NP4+K6D90qmG+kuw9wCixLUBUHaw/g2R+PzAIzD/swyLAAKXuv4UreL/5Rok/TX7iv/agF8DYqDa9oipIQGXUCMBrHA4+8Gaiv4PLHr/MI4C+SS0LQB7BkL6DTGM+ktVawJLUor60UIO/vGnsvznJqD/jBcq/OhOFv+Bcz79M+C3AKUugPgG2Jz9mnwvATAfRv1qwWMCbnmm/36ahv1LYPEAqCyFAONXZvqW2yD8zQI8/wsvRP3e/TEBSNKe+4e6UP3nDRb/Q9Fi9RPd3Pl5fir+2gRFAHw2MvwLxuL8QhwjAeGfBv9+HM8AX3xe+A1eJPpyN5L8JhyNAYHiRPvh+IkDsQgjADBqcvvwehD+i3Nw+pRqTP9Vb6j+OMU7A1iBTvhpwNUBHNLc+UH+3Pyb5BkBnQqM/+kQCwI3SOb/k/dq/VZBdP0G5Ub+mG1Q+8k3GPyykt79vf+k/2bm7PnBBHD9yaifAy4ciwIJ/QEB6xUy/9AeAwE1Ehz/pSeO/Yh6cvkfl9D/TTSpAtNCDPkLAY78HOT3A9h5GvyGnsD+irW69AAiDuQlt+D/wBMA9fVgsQLo/7j60Snu/rDkqQIF8TED3jPW/oreUP60/+L7i/Di/oPsmPx6Daz5Y0MG/simVPpIq+z41u9S/Fhn4vgrgND9CXNc+SBx6v1R19T/2pT6/UsuQQKjBhL9+0Q0+Eiu1PxxY776e4f0/3D5ov2pXSz5gJNa/RE4JwE50nT+6Wfm92D55wMKDGECJMdO/EFYeQO6MAD/casg+jKnSP9ITdT/QPWe/McrZv6V/AsCQUGu/2Mwdv6J+uT9ILuW+nGePP+xcAsCSJOk+VGOIvl1n+T9yf7O//M5SvoTIMUAGcJ0/BsNPP5prdD/asAE/KhrrP57NUD+48wLAo/Q1v1xgpT//MEG+YOyUP2BjQEAgrQQ+Kp39P9AXJUDafxq/RNRDP+lmOEBU952/ZTWyvggJFkA6ym2/zdIev2bnAz/0JxfADqKlPr6/bz/lACXA4DNIvLBnqL942Vy/FmwCwFIlPECIBZK/XPZQP2M2AUCSzpO/5lMZwN3RPj8thClAgOLdPKTCWr7E1Nm/jYX7P+Kd0z8ktZnAZZWdP2Qy5jwiAU++gdxmPqXBoT+FlFJAH+1xwAyWUj9kAjDAH9eLvxwvtT+rJwRAk6SGv8Qy9b8tDvW+SLCrvkzapD0d+CW/k5myvSgflT/VhjDAMuU1PWAmaj+BvRy/j+zhvrqueL5s1fm90HFDPmSi9b1q94G/oBvivFY6pb6hF7g/2eu/P3P4yb95YKe/HH53PxbcWUApLwFAj08Ov6xb0D54BQrATuqHvsKnJ8D77NE/NeVAv0Al4L8sIpy/jGtfP4u0wT93PhtAt9ktv3jVXr9CHcQ/HlxlQPXRMr/TBA3AzpV7P10Xsj8j8gG/796APrEwMb/dE9+/eGhpvgRpUj4aChu/ajmivqj6Br0gHiBA8OQ7v9DMgj8MgjdA+FvXv4DqA720z8++RiBUvwsdkz9Pqfq/054gQCjSsT9kIQM/pqnLP9yJMcAKubW/gwhYQJUbVsAYsDLAuuY8P9xJZD8vHFU/5f6+v9yPUL/uZArA7ybgv55M6b6AHL6/zBQAQFXjKj89ZTw/Q447v4wptL+8A5E/rA+Dv22SDcBAvhpAVFf3PqjYFz8EJpY/L0XBP9MTjj+sdT4++hN6v5vSIL8YPIhAfr24vlyNDz7drKc/qoAOwEpCxL9ZB42/RyDHvqr3tz8dAJu/A2IdPjojCkCZRlY9KpLlv8sh278FUVVAAscoQJQovz7hLPo+IomtPqwa47/aVyLAak+WQPCZU0BE5is+9xcUwEreqD5gT6++QNwkvzpxQ0CGqde/cvukPuDwz7+Mli8/DvTsvlA7PcDc9rG+kF67PpPfpL4q9Om+Dh/GP6Yz8T+GJW2/kUnzPzYi6j8wxNq/8CVOP39ciz8XvJc//u0BQHE3hr9+Rrg9ELy6v87kZUCOphtAbn2KPiilFMCWJnC/QHdIwNsjBsAQUie9HPmDv2rWWkCeUbY/z03lP4hI4z+22VO+4B7xPbyosj8rEnzARtCXv1kfND8I+3a/gxJowNhvcb+ASj5A38VBv2EKOr+ujZI+1N5wv/8X8b8jYeI+VKY1P4DA3r927AS/qOkNwCZKZr9XmT5ABfIRwLOIaT64PAzAd0Llv/BW1j8j03tAk8d6v4zGiL+LL8w/DLROPqnEZsA8v0s/7QeJP0iDXL/Ipa2+HrHRv8dkdj+s2RM9mWVSPzqCt776fcE/+r7bv1MYJsCWy5s/StPePxJ/1b85Y8U/8NDIv4q+k7+g7CVA0N5NP/sYHEBn61I/gBjUvoS3s79SlaK/ne1Jv00SVT8qLKA+AAvOvCLbJr9cTja+0tqfPwQR8b6XrpS/zmOPv97n7L5Yxde+zYjZPxMcTMBGOh5A0AdKPcqJa8DCMDNA+sQ3vw87BL8fPh0/uuBVv9R6lj7BmIc/bjsZv1d157+eaJq/220uwIlDi8BolZA+kdOZv0pS0T+x3YZATNTXP3yJGr8AViw/KHbEvHzhYz/4+C7AzVnTP/5Tab0YScM7ayP5v2tbrL4hxjU/7+eav4Sctb2s2Ak/wkhePt8Qcb/QVIU/eGsgvoZ7IMAH3xM/Umehv1rJSz/WZRVAVwAUQDCOHD/I/O8+T94Lv2RIcD9NfQk/bxkZwCFj+D51VXm/6p4pPvMhaL7HhWK/pCkqQFAxRb3oVX8/qIl2PlRu5D/4a5XABNrgPuyYQL4qr6tA1lIBvzBl77+Fkky/qciwPm+Xlj9v0G4/jQouQKPuI8DkK3C+FHNTPz0kW8CdqPq/SOW9vu0sTj+Ql4C+nPw6PxztGT2WPXZA+7dPv4W0Db89LoK/ZSFcPiVLtT/Ymf+/LMiMv9P3xT8yxo0/pSOHvM5yKUBfbAy/d19Uv22J0T6NFF6/8q07QDlGcz8o1SA/QPaUv+4IGsC44xXAzEFFP4xXe8CAKym/MyWCQKPL7j/Sl3g+KlXCP9aoDsDv2FW/qSm7v9+jLr+kr1o/XATkPtCgCD3HXCi//kQeQHXkD79CWZS/g/2SP2/r9j/EgwFAmGW+v4e9nL+Cu9e/dLKSvzsZPkAAFQ+8zrupPyFn7T8Zyj3AghCKwJA7Zr5Q837AX9UgwDMpNUBnBgPAW8kSv8HdTb/LwyJA44YJwDskf7+odA5AYzWivwrcNsAQtBnA1P+5PzQAxb/sE7O/PgJRwMKU3r71/Gi/QbFuwGz+Vr80IsC/pCa2PycWAMCcN0Y/ulZdP1/4AcAQi9g+CdBDv9Xcor/tVrc/fpfGvXwdFcCdViE/IroIQNBkvr9v8k4+1oERP/aYO79Sdd4/sJ/kP+uqjj91NArAxLoUQH1gVkD/rijAst8GwBSbVb9WBWw/zdPIv2TmHEAgbPk9Tj6nv779K7+1qPM/pL4bvlBBGD9Oh20/"},{"catName": "Gita", "catImageNumber": 3, "nightVision": true, "outputTensor": 