[{"catName": "Amalka", "catImageNumber": 1, "nightVision": false, "outputTensor": "NrcfwI7ZFb8g/v28WHpXvwbeg790Dem/foQOwMDSIT3HSSdA0DwoP+BHFz97gFfATTqDvyLaYD8Wgo8+THlwvlj2Zr9EEhw+n9gUwOj7I8CJwg+/2h5ZQJzfLr9eX6+/41wLwMURiD9KZ2lAqvR4PwAWwr9Zjrg/QADRPoJsZcALDwI+hyPRPnA4Ar7odZi/1H8ZwIDR4TvLgDs+n10Xvx5ObMB0aB++k/7DPwWXtr+2JOs/0DQAvodFGsDU9N2/BfJLPxAst7wOXVW/ngivP7TS7T4kgy6/PIlyQGSVK79NU84/xpMKwE5qOL8eBmS/EBKJP0Qhub0cLJO/wIqrv1bi+L5ZBgJABzyMv1MdEb/4Drk9ABKkPHsejb8A0Lc976n2v9Zyzr/VPS6/5l6dvx8yFb8cK66/41FGQI0PYsBtRr8/J19awJSNBkCZZd8/7ozfv9W6sD9tdlTA2+/3v8z/DD+yXdY/U4ORv8SgK8CQY+4+p5pdP9bQwL/rM7q/1blnQAHznz/HjYu/0rbVP4yUOr/oXjO/TQYYwJozyT96N+O/MROqv6MtrT5Fcei/qxUfwH6wC0De1E1AfRJWv0ptrb8ZScM+qLJ3P9A9Cb6BBgg/S/OaPzbA7L+4Fz89AEPqv/CNXj/dg9u+ylgawJ7BsL/rXkTAgkSAv0fXhsCw9oe/tLeqPwMF+736NZe+gDr4P9Q5uL9Jg3k/vyP7Pqk4YkAVKce+z3URwJu9LkBuzI++CIUjQD1TH8DLaoA/FZOnv5SVrj/4WxTAlOCKvow6F0CIDLi/cN35vVSuhT9UOhTAiPCSvxUk1j6FR1q/PKvgv30DFkB2Taa/mwKEv+S6oT6uSIK+sva1v7bNMT7luT2/qL2rvmWaOL/vJBk/IMkeQD7HWT/Kzy0/Dc54v+pO+r/dBmk/84eBv0Qf8r26HDc/x6afv9etF8AyBQS/0AMOPzJJoj/Dq16/gFIWQOmW5j/DUinAXTqOv66SGkA8+7c+vijkv1xuuj3SF5a+abeRPZ+mkb+sBvK/GnvOPx7R17/ya4A/R6piP54Q5L+wOoe95bvqPqFNJkCtjJO/6o8WPkwoyD/lDbi//h4TwDvX6r7KgAJAmoX4PyQuE0CzEOM/QPYBwN26hT8wVJS/RvelP2bzOj+4ExVA/eTtPkgKIz9uWL0/wW5NQAaRBb9gdxW/d6/Svkwgpz+XpgFA2MOnP2z9ez7a1BfAkVIiv7CwuLwkyYk/7U2kv3mfRD+LwhNAhp7dvZZkGT9Zfx7AGwApvxw2o70w7ZC/aNOZPmhZpT/U6JG+PdYMPy+z9z9JFom/XH0XvwPbAr9u98o/4l3OvxpTq8AaaLe/FXK4PyAOub+cBHxAFqCdPkzHF0BeXhe/n0YjvyEOK8DMTPm/glPVP71RwL+Oyga/NCEVQOS+C8A+XHe/fHu6P26ejb+zJ8G+gHHqPgA697vbcu2+vsVSPua6gj96hDPACdOMv8RXmr8O9nXA4L4pQLNsEEBwFZa/EAORPbpGM78Ht/u/5KAEQA7yacD278s/UHFgP66nur7gyBG/IspfwCoaN779asa+xH70vYyzD8Bdln5A+XYQwLlBA0CdHaK/Fc0BP+gUBb91m0DA+1wEv/zpBb8zePu/XgA7wLv0GkAA0Yy8zSHSPy0RksAl1zu/NTkBwDPDST9ywwk/NmXPPxwlTb5E64i+WAD6Py1FMb/2aio/TDxxv629Rr4wz4c/J7qmP17AQz5qPoa/TJvIPj0P0D5a6vm+icvHv3h6nEB/8Iy+YJORv2endT96F4G/KOzUvi2rW0C6vZfASuJMvesVHsDq9Mg/kf9uwFpp8L8C44o/iO4Cv1XfDL7jaF8/FVwzv/baLj9+jEHArV60PyJN4D9IUkE/cGZ+vfT/0L/JHmG/F0aFvqzc2T19kD9AYz0JwGipPD+YZ5M/qF74P8wKmj20uZM/p3g1v66qpb+M+Je+OOkLQEXRRD9+TIZAoAdcPflOLcBCjkm//9lbPz0LPL9fozPACrkAwHNhSkA3JkXAOJnfv99KF0AcE1Q+yvrAP/ndhz4W2hi/RL8zv774ij/akC0/UjNTv6zIoD1OmQZAOoqPv/cBDkD+5JM/sW+MPlnFnb/SKDXA0QqjPyaidb82MnM/sFNOvWwQbD0uhAVANOK2vjOBGMCG+S0/RBRqQIunRUCToWfAJudmP1bHbr98PNm/nLIBwF5Ktj8O3Xw/wvtMP1nbqL+YLvA/emNzPuBSJD10G8Q+QnFavlsWwL5xuxlAfXLZv1hnCMBQW/O/tz6Zv4C/Mz4wqAvAKczGPlJhGz86VKS/MYoPvxL2+z/O+JS/0I9Yv+WlJsDTLDXAVHmpvwKunj+7mdS+8jiFPzHHVUDrrFhAhFcXvlCkgUBfx8w+Q8CMP0Bv3TuSzZI///icviaqyT9fRFW+osUxQMj8Hj9OC70/sigvP4L9wb9X7aK/m1IbQK+rKUDwxpDAwRj6P2CFfTzIRMc92vXev+ZIEMAo1yRAghyfP6renT+qPx/AmDcmQJMcjECXIX0/fEopPiPdur/LO9Y/v7zbvxAfjUAi2wtAGHWHPvix67/OcYe/zDqXv9CF1r+avs8/vFS5PmKPcr/A+1fA4NMbvjtIyj/wqai/Nl5lvvO2nD8Jwow+dQkEwN4gBECQsgY+RZpvQJBG4D4ieJi9DzilP0i3nL/ZlnS/FUQ9vyZCRr/efjA/2mw8v9Hcg8BZFDK+DIc8wOmruz9wiuG/DkFKv+iNAsDfVJs/PVMQP4wmI76shdC/9hhGv00XLkB1Pt+/Adj0PzKk1j/slIw/oFsGvlZMI8DoxMA9tyH0v5SDMD+V1EG/i+BWQG8h9b7gViZAsB3rvx455T/4P0g94yHGvw3YsD6YJyJA/DpEPw7Xvz9EHkdAYXrevwGeLj/Kxk7AmGUCwHAvYED8img/9K43Pj810j5n/bu/OmqVQJg4Eb0Q74u/GHNgvyBAdUA4/Y1AC9GsP9quHj+x5x+/BQ6JQEadLEDoLVk+L3xBwIE5TsCQVJ+/jDJRQIv3BMD86T9Abc6Jv2+/OsD9qQe/ttjDvza2XUCTotA/IHgQP9bToL/iogFAvSPVvt90jEChekO/2zLkv4mziD9Hma4+wNvZu3cqAD9Kz1LAp76YP3OKgb8IT0I/KPiSP42J17/ewoI/hAReQFrzCsDngSE/DqmJwJYJrr8Z3Xs/LFwkwKvz3T4FnpK/+KLLv4DK2L+CsVPA8Hwpvi2G3z6jPzo/hKgLwMqVjj/sYUG+9OOQPjtCKEDB/Y6/Pu8MQD6xcD4oGFk+uuPuP8ZOTj7CmixATRlBv/cN5L+ZsXu/XdARP4FcIL+MPVi/f7LqP1iYhr+5uXu/g7pevyA0qT8II0JAmB2AvtFatb9SKEC/+k/oP6SDmz+9NTNAPt04P+Kl6z4SeI2/VUWXP+BhLMBCZgU/EBYmwFHrhz6py74/wZwlwF/Lqz+G55Q/7hOqPXLcpD9LHcS/YKNpvwC6ob8Yai4/H8J4PwTsyT8kZGZAeflBQJ0ruL8bwjFAq3DCPq79jT8GbNS/JqgZQEC0zj9GHjs/duhaP7g1gLuYUDI+jy+kPqYCtL9Y3vC83gQ+P6kpgT61Vfg+4ykgQKQp7j22pwpAHHOCP+yfib+n2Zo/yBmjPddvzT++wB3APcjaP9x/1L9mA4a/lCkKQIPCcUAzWMo+1nELP8e81z6d9Ba/MK2TP0+OJcAg0L6/voiQP2wU7r7yoLc+cO0Pv3joiz+aReC+cckWv9NYej+m+oy+084owIBFY8BuHL6/LhS2PiuIoT76TWpAEEHavqqahz6nhum/qintP+yGDcAir9o+x4Qsv6TRQb70+pe99F46QPD6oT89XENAZVaoP42IPcDtqsg/Z/8HwJO3kD+RKLy+7EEWQOUcIj+HVKA+VpecvwUsaj7yBARAFU0Rv8nKOL8Qrpw9BgILPz628L7g9z9AhEBSP3Kfrb59F5i/ypV9P2Uhqj+S+v++w6VSQPLQBD8PEbQ+FFpcPuL0nj+TNiE/iCc4wOKhar/YvaY+3Pcxv1Svpz/KEK++"},{"catName": "Amalka", "catImageNumber": 2, "nightVision": false, "outputTensor": "KggWwGajAL6IxLw9BFuePm4e2b8+oxfA+eZEwCBjeL0Q3BxAQXSAvnhtBkDSZBPAed1MP2w+REAE9xY+gD/EvwIMMr+Cjjo/EAHzPBK8xL/d1x4/oR9GQDTep7+B3oG/wCXivxLN1D54OC5AKi9YP1wx0b/6nXa+QjEYP97CP8A+aUA+t8vcP3pUsL+i3/a/WZ+xv/ZsoT/qtC4+lhwzP6W4F8A248c/nTU3QBbFt7/8D8k/HGqRP/+aN8Dmfda/Vu6SP4BWFT/AWTQ8tJFhPybo/z72aoA+KoYpQDiMlz+bl21AVkIyv47mnT8wvpw8vaIaP6mgc77uTiXAX64awF17nD+qYeM/MmtnvwDLwzrpJ1K/dd6Pv8rtDL8UKjK+1dP+v6ozpL/6X5e/kC7zvqBdv74vY0m/puxsQKnNa8AeItw+8I4gv5Hthz/+IBVA+8YrwHwWZT+nGULA+vsNv5z69z8fuBdA0Jk6v5DcdMAi4Ti+4AgQQChy3b92ok/A/S9mQDJoKz+i/I6/Rkb1P9xcDT+LfwK/+VItwIJBIUDLEpC/QN0IwMigP78fWEHAVaFmwE7J2j7Tre4/GdyevxsoCL/0Zba/RlTkvo0Ntb8kFHw/o630PwdFLsCf9sU+WF0EwKHrqb4qt0q/DrdOwM6zCcDhbwbAIhy3v6bTksByCVk/jHkfP5gZOkCSSae+tlf4P6yETsCO8VQ/xCMvPxa/JUCa9BU/W+kywFYKJkB4VeA9/jAUQLHBNMAI7Fk/tvabv2xJqz8X+RbAaCjEvuDA2T9Iw/A+evZMv+0zYj+Rumq/WkYOwEzdXT3U8jK+Yum0v+5ZC0BoOre/1n8wwJ+MTz4a2tm+aKdTv+QWpr8u3vA+dzcSwM612b8wjcE/AJyMO5xYSD9kbAu/IuXnv5i08r9xDwY/tFPYv9pvTT+g4fk8fUBcv319cb+7F7y++9/iPzwzJz/8D4u/vmoRQJ71CUAR3QbAiX+vvikSHUBZWWs/3ZQVwEBB8r4QuJu/9JUUwDuWC74kE+C+BkuIP9ZsqL+JS9w/g7SAP6Ukvb8oYAVAIBbQvCcj3T/ugqm/fOm8vAp6GUBaNdc+AYkKwPDgfb25qgtAluK7P41U3z+QS/w/oCHovzBsirsK3oy/MjkCQLhzAEDbhXxAgpmfP07eob4wnQQ9h71dQLTVxz/Ue+m+mP17vgBVELm/BIg/TrS3P6A4gz7vPMW/YbnGv6dxyr9Nz+2+KMOnvxXUKD8smaw/1jEDPxiCez8ibeG/KKhkviLqTz+0fvu/ojTLvi8QSj+iecS+bTQzP35QAj+MDg/ACmfZvoSV3L86vcw+YHDIv34Tj8Ci+yC/hEXSP+jvxD71J7g/Y6tav+iXFEBSals/FKPZvVR+jr8YAgK+k55RQHw9Nb8tjoS/ziLbP5f5jL8ZO4S/ENxxP6arCcDeAlu/uLKNPmRPxT+ncRu/Pl4gQEaSgz8CJ/2/NYTvv8O77r/tba2/RBOXPyJGJb7D0A3AgHS1vtDKoD2Ei8+/Ui/JP2iINMA73IU/PVClP9ei/D6YV2a9v4ngvwDJ0D5Q0Uw+WsBFP79tIr//M9c/smXmvxiSvL7H2CfAoGAJPFJyLsCOWQTAOgq9P0Wy7L5pbBLArpXvv/wvaz/ZcYK/kIoeP+9Mb8CVUw0/vYA9wBCqxT7LptM/bNvrP1EsCz9OJb2/L6NpQOZTn75KXvg/WGzhvpPCjD+0aApAkeBBQJLpP7+ciMG//qZJv62RXz+krds+rjqkv6LDYEAE9BY/NBl/v3zsGUAwGme/d1rtvx2Iyj/9TofABZ6zPvfhMMBfLzw/3Cp/wPIkRL61qW0/Xh1IvTg1ID87njm/f7uzPjWW7b8qVdm/tO+zPz0zV0C6sCc/yVauPtj1P7/5qnC+9O43P6qc+j/tkvA/kA4jwHM0fL/0mCU/6ZRkQOTkXUDaNS1AD7CpP2Aeh78cuvQ9k020P/hlkD8O35hA0jGZPk622r/Ma+q/rCWtPxxUt78dvhDAw1OTv2JrOkCP3dS/gue4v+vThj7Ir/++AsqGP7ylCT5hl9+/wYLYv6C9KzzAdD0/iFqRPZrCST9KojlAUaO8v/TLCUAQOhA/+rjiveBMuL/0AEK/tmdbP0WYx7+eO5s/5wFlPxBvNr/2ZldA/AB0vupnij5ssOk+zjQ7QLfjgkDaUobAuNCmPqDyyL9Cztk+M0L7v7DQ7D9sVrU/fjq6P0izFsB+eBBAGGkJQKYPAkDx0oG/iEgMv/CFsryvI30/UQHEvxOgsr+wzZ2/UJnTvxxbvL4wmwDACEM7v+LTEECCgxHAUnW5vzTbsj+trM++0ifEv60gEsAasoS/ZJLEv8T1xT4skXu/XNRivlJOO0CQphtA3WebPwXOHUAWtwc/NcuZP1qr5T8gF7k+KnQMvwAdBUA3gsO/O0QEQGjGzz3QDFE+hHEPP4o77D7uihjAGN6LPxq4+z8Qa1/AhNQQQAQZtb6TClG/ydABwPV0fMAQ1sc/WOQBQFqV1r2cFg2/Yt2OQEZyXkBc5yBAj2HMP4aka7+dp0FAsI30ux7/ikBEnec/N93pvmmFRcDqia0+HAo7vvYsLr+AI5k/CLOjPtKXU7+H0pa/5jgPPz7Bdz/Oj5K+hkOmPxDrFT+oWNq9CdYXwN/IUj+L5tY/KoQHQMaXhD+E65c9ZYAbQAzIlb+qcJa+DLRgvR6vVT4Xwuo/5Ibdv7wWTMBiVNC/2oVcwD/PMT8pAnE+42zuvxMchr+yyW8/4ZEbv2gBmL6Qlmm/8czGv1OyBkCAq7y7ugM7QMp8Bb+CyVS+KDsKPP5RHMAhXBVAVqP3v+IyVUBUYN2/J3E6Pxz1SD6AKzxAYrMJwAWNqz+z2No/OW6Wv+m/v767PI4/2AWjvty3nD8RoQZAAEBYv56g2z6CmTzAB2aMvxfDWEAusiY/vmkiP/QnqT+7rpm/Hk2PQKCCVLwR1pk/SpBKPb1qOUC632JAt1uiP7Dvlb+Z4z2/awwvQPZoQkDskqM/1uFDwIcn3r8QXqC9+8lgQFGQpb86ivo/zbX7vtBcGcC3MZO/jPZvwEGIeUAYZSBAhfG9P/OkY78nRzlAgpQQvgO8sECeVty+jBO6v+A2hr6C/gi+vuc7v/J0LD+OYlvAJLAQv90ACMDs0VM/h6UuQAz7+r/yK6U/HzbfP89ZKcDDChlAUBfTv2gu7L9VcIq/SziXv6CegrwaNBTA6AE4v6OANsDHjTPArPzVv7xAyz/4HrU+Gs4+wAxARb8onsm99Gkjv4dCNECB5IW+HjM+P+oWoz7QQjm9oJQUvUp1ir8nkhRAHYFhwIoHwL92WQe/BqqfP/7kyL+Ktom/j5P1P5dkb7+grUQ/EUlIv8Yz5j+uYd8/zAsLv+Mro78iS0U/7omdP40vzj+dusM/3rUeP5Bbjr50YY2/xmdLP4d8G8CO+om/mVdNv+Zpuj9HpPg/TnMYwF58hT/ryVNARQWKv/nI774QCH2/THmcPoN8Xb9cb3M/bI25PmFRhD5SFTtA0JhHQLzKJ8BKIDBAiUTmvwTH7j8hcXc/r5SDQHzPN79t/a4/WGKCPhta/z6fn76/LhAXv1Pfpb+1dmy/u94OPxaPYL94HWa/o0ElQEA+2bwMVAg/oEYVvQhscr3/Ixc/bpTXvikUCEAphRrAScX5P3Sarb8jsYu/Q0q2PwvsGUC4Uf4/GDBhvoxtm78HzrW+IkDtP2pBN8CAjfu/BsacPmDYSz3wjCo/K2QRwNIZkD+wSKG+Q0OpP8pbnD+0oqW+QlJIwFNdNMAPDirArpiSvyb5DD931i9A7B99v4FV5L6uF0TAEsohv8rR2r7wCPC9ecA8v5E5nr+FUB9A64yeP6UjrT8e3YI/H1aEPoIO2L8hit8/PG5cwJovLEDOgrS/yxpHP+4ZSz54j+a/ECMRv3g5DkDm5xtAw2ACP3+ICsCaISU+Qh9UvnRQTz+FTK4/iBN0P0Iziz/BVBbAQAK0vU0u0j+G76e+XcD4P4zq3b63PwtAMaSSvzrEpD9LGjw/p0MTv5KBkz7uGBA/RTKtv4B3ij0a1+u/"},{"catName": "Amalka", "catImageNumber": 3, "nightVision": false, "outputTensor": "PEknwBAPH8DC3Qi/CFthvzhVUz+hpFq/rRtIwPYUTj/Iukw/wDmTv/QEGT56s9C/NGtXPr3vxD4aKti/piRJv0Dm2r7yKo0/bUYPvxL0Ob9P3OQ9ll8AQC480z/KLcs+cA4YwEHPdb9Y69g/HOoGPtQ2/b9ydzBAYpJGQAZEc8B0sSW/a/rJP6i2fL4e+BLACWyeP4GDoD6stNw96iylvz5//L85Ga2+uqgcP5L5E79uyO8+9drJP1ETLMAC/xPAuCqhPwGnKD9IF0I9F/YNwA7+5D7XhwXA32iGQHjPrD+Xfsg/FOwyPrhHQz/psNG/+R40vs67Kr8e2i7A1OABwIH1vL9xdS0/LJ03v5yXNb8tKxK+9Y2av/UtSj/Usua/iiIJvzAiL8BnC82/eP3PPvNrTb9asN6/kx8eQGhNWMCdT5G+KVVmwMig4z9sL7A+cirPv1nicUCC/RPAhhMbQACdNr/+CAVArPKpv9QSNsDV1yBAYO4TPUV1VD/MjgG/tsRrP/avmz8CPQzAgEcWOy3vvr7c24K+johvwFpW/b8vNRrAbRg3wKpwCD91GgXAsB6dviK0rT9oJXlA6GoxPRAsqT3stxbA9beOP69WrT+OAuo+pNg8P3Odgb/Xwdu+4xMswEerBD/p4LK/VB9ewPaJOL/jPAm/28bmv0P1U8B+SrS/M/B2P6nzTb8AGgm+1F7UP7LmB8CI+IQ/YXmmvrWoaUCN0qi/qn6Ev9XUGT8cn7O9RquPPzs5wL9wexE/rU/uv+bi8r9y+/C+QDg0vozj9z5eZja/iMOQv24qsL/TiZu+TmFzv1vNpj93g1q/Hty1v+Wmt76iPYi+CzcowAGXMUCUMx++fCpav6Dt2z24cqw/ELprP0hjlL6SyOM/ZFxPP90jGkC+PGs/O/9uvxAqs78w75U/OhTRv+sH2z/+/ks/6E4SPt6IW8BWoZM/+M5wvjjvpjwZtle/2+KbP7LjEj89IJ3AXrQrP+wv1T9gB0S/MY0wwLqQjj84i7o+AY2bv+aPW8Ak3HvApjS2P2htg78XAO0/uAn3Pfd+97/aOM+/R8gNwEb3LL/js52/UG/ru6gOmj4m4WW/m8lEwGIzVT4kXVlA2sOiP6RPwD8F9U5ALtspwJzAJT+LBRS/yKOcP3bqjz93aihA6arvP2ii7L7oHqA/Wzv3Pxz2Kb/uVkk+S2Ivv2OqIr//EAFAGAUPvhjQ2z1h2izAmDBgP80Pkj9Z66u+1wciwAAAPLYu8UK+spZcP8jB7L5c0aW+gTsgv7Ip7r2QzmW/cp6Av7y6DL/HcGq+GJWDP2W51T4sJIK/lv6Ov+5XUr+zoWc+uQhxwGnfK8BclVs/7qLRPzfz7L83rpE+toiivy/jbT8w54e/Lralv466HMDriq6/AlcVQCAHsD2hKy7ACCqgQI4lFcAj2Zm+upxkQPnnQb+MRIs/UyAvQE+rlj8cCirA5mIHQLX3Y78hTi7AQfdCvl7aMz/WOLy//eBhPvkfxT9CT/2+MOXsPpVv1r8rVl4+5vFmQC4SPcDCSABAwbysP2cuCr/jGKq/1RZUwDBgOj4qKQm+E5fCv8BfvL3HJJRAQJKQv4bvRUBb0pM/MWoqQEjwy70a2Ay/LQCVvzBToL1xRpy/8rHuv0dYBEBo39u/y/MRv7CFhcC9v4M/lD7Lv3oGpz9TAD1AOboOQK7rlz9Nk7+/qS0mQCsbF79icAO/cA4vv6Qc6T0qKzI+bA0TP0GXmz/Y+ou9zJdwvmvWcz8CKwnA6GEzv1EZJUDsG1w/UpQyQPzCzz8Y/SjAvAE9wAneJUDA6xzAIkkwwCOLVsCOSpG+kzZFwB/NwT+YERY/M06qv5uyvL5akts/mAXovzcomr8VagDALljSP12O4j0yuwdAyOoOP1Bjuby38tu/I1T3PoL6RT/WtQJA+yiEvUR8HED14/W/ZaZyP2YZrT/5SwdAA28nv0RoIMAVMVu/9u68P/WAmj++UWtAVh8IwGegyb9OD0W+6osZQDB1VcCqX5a/MawPvlaqMkC3//C/SKMywBCVxj8E0po/3hwjQA1VXUB/X6W/t7h/Pupyjb6z96k/GePgv33D/r+YGD9A0i0Vvx9HFEBvn8Y/tucDQE6vcL9h9xjARn2SP66wG8C1cYA+guarPlBtgL5xNrM/vEGGP7yom79aHEa/uKtKQJ936z6HwHTAUPDvvTK2Wb8830Q/O2FfP3qIgr8ong5AOog8wKtu4L/wrg4+J9QCv/HROL8ZNlQ/CNqRP1ku0D9I28E/wvcJv8QtS8D/SxI+rKxcvn0i/z+n9J6/M5bkv7goyb3W04e/8CDHv9WKPUAK1EK/mK4KvjfOR8CteS/A2dXev34lxj9QB529CZvZPtf8f0DVMQVABAdjP/5YNz9QZaY8XH1zP+A2jz5JaaM/BqO7Pu6y1D85ujW/0BvNP1LFmz9zqRJAjjPvPwJ45D+yJui+el3EP0bVK0BsTE7AKTXkP9t95L/yBYm/Q0gjwCDISD8jaCtAYC84QKDPpz1VcIm/toLyP2DJAECwDk1AhsHLPxQIqL6U7Ik//3/LPZL5+D8+oFpAQ2lqPxKt275CcFK//oeAv/yCfr+Znk1Ai43RvrQsbT5a/7g/4AkVvRz9dz/OxUQ+EkkMv8Ur2z9CSDq+lyQBwC4Nhb5niae/+pqkP1A5Kb+gJBu/msd7P/64rD73Ef+/nsywP9pBYz6o4AY/l7KNv8vUBsDqRuY+tJ0QvydMTUBju5u/cxPPvxxx4r/8oSRAhgBdP66zgz6m4oG+NqDAv/Gn7j+k1yq/DnFZQL7TKb4QlvA/KiTLPmxZJb/+UjY/hhflv+RN2z4qm4i/F6bwPxzgq737Opo+0sLzv3nuE7+uOj4/bPxKP1hS2r9GRYA/RNJUP+XJHT81y3RAFhdavzCxBr7AdAe/GArZvElElD9wddU+RKZQP1DUZj8EC/W/hghQQOoMHr/BCoK/M6ytv3gX7z6rAUM/SVNxP8MbDkDK+ls//Wc8QB1l8D+8BKc/8+rZv/cCccCID8u/MV6YPwB2BcA2hTlA9njGv1xsYL+RpAXAunLAP/XFJUDLBhZAohd1P/aFkz6a2yFAoiOaPaY2p0CtowpAfs+Gv+0tEUDsp0C9GLfavgAy9D+6oOW/4ZRzP702Xr9qnBk/il5aP4pTGcDYeFY/+872PyYHbb/ZaRFA7FJuvzmmg7/NvwjAMgw1vwc6B7+Hrdm/fYZ6vzs3SsD3W02/T/kVQNOdE0AZIZg9zudKPlVkyz9wXbS/fomIPSQFg0Aq/KG/93VRQK13tT8o1a6/WDojPvIhOD/8o7U/Zesfvqt+hcA2QaK/aPC1P8DNNb3O1YE/NIVOvMhlFMAZJnW/+JkKQKxogT/nRwpAzm7aP5riJcDWW0g/Oge1P4rqI0C57URAirZZP7X48r40i9O+doSVP3oeBsAkISi+UOQdwIbp4r8BMMu9Df37vyZe3L2PCdg+TTYYPtbNET8meGvAGkb0v2Cymb9IbRK+qvjJPVy8WL4I6Fs++RVUQHl1jb/eBRBASqTXv8P7XD8E342/YCZiPx5CHECAACg8U0O0P01bqr5gFxg/C0XqPvfdbcDgCvo7UIUMP8T8BEDwqZo/JjT7P16uFz9zdI8//6O2PoLQhb93FApAzRWjP8KGW78/VRDAXgUxQMqJ5j7MsJ2+RFGWvv4ldUDmkZc+bC8GwNbiuj6iXyHAMeMuQDisgb9XvAvA58dJP5y9uT6AqpK/B85vwNJEVT96Pey/9E9MvQ5FsT9oYtK/mpdUvzB5b8AzEUw/aeFCvwK99L9A/kxARNDYPmoQS75gs2m/xUCrP49oi74uCsk/kd8NwDDPvD52feK/8hc9PdBcEUChLVJAqCGAvNLE7L+dTEJAKO3WPZ4Azz51wwI/qypav1eQsz8glnU9rtOnv1C+srwGZvw/Yf1WwLf7rz+is1i/oizqP7UFB78Rguk/SCxyv/4HOz+eS8S+MuTQPnRCQkD5eEm/HqIDQAr7J78I2Bc/57TtvwmTLECpcwc/p5ddwDVQDcAOwn6/EuEgwHxwer/AdAg8"},{"catName": "Amalka", "catImageNumber": 4, "nightVision": false, "outputTensor": "k0P8v4DoCj4tqbC/lPmqv73AGb9at/q+bbG/v+qxkj4fDytAdl6ZPsHsMkC25Ny/nF/svgLrLkAu8rC/mpUqwAxTnL60q8G//NcQwLz8CMDiZjy/qDYvQEqqaL+eJFe+EJybv8WkBMCGyEpASieGv/ZVSkDIlAS/3wbcP8jWpsD8MyG/CKseQKzIML98Ssi+W68zwGoYgD49mZ4+YD5DPrbINMDk1zLAp1GsP3LoyT8LPUlAZ+KLPzi0LcA5NB/AA/Uxv/ACOL+OhUm/vy0WQFhPBMDV8Ba/sqeGPjhiiL9NNVRA/RrLP9DfHL6CO0++FzN1v0uiAkCMbdS/ZyvfPr6U1T7oaTa/LCVjvkkSBkCk/hzAZfYyP7AyiL4IqDe/2lu2vXCCTT+e8XU/lKRZP15r4T6xIHy/XJCWPQ9SAUCgXk8/zC3RPQ9E8b8+yg/A4KMlwH++wj4eWCM+ZISgPhCw3r8OGCs/fdOQvzQHFMAvABfAVqPcP1oKwr9qVQm/DA6Nv8pmNr7Zstq/sFMYQOkEL8AYX9Q9u5Dev7rA9z6wuRc+V9S3v8JO8b8c6CBAiB0DQHlVCUDY0Ne/O5K1v/HTUEBTQmzAsOiiP0msYz8r44U/1AIuQNCow78i0co/PB4nPrzUq7/RtJrA9RVHwMsKXD/CxN++RvXxvRDujcB2yVDA8HoLvubGOL6mKdQ/iOrrv2qNYcDqroA/BLxjP9AdcD+wTP++tddVPxofob4JGpw/yi9Jv85rGsCaWLI/QJbcPWt5WL/uopy/0JkMP0UE4j+cYxnADJ3EPZwCrr+5xbW/dJfRPsSJdb+fd7a+3D6Fv7dxpz94eJW/Jp67PntlJj+gZb6/6YBBwNJpFr80vLc+6ccgvzARXD0ZPC5AWuCLQABB/TzRm6w+toFAQMJj7b7Ce1i/sTxUwKtgxD/UTCLACo7cv4GA576DMMU/YOEivzOElb/8QC6/F0n1P9Spcr9vLbC/lNvNP6ydLMC7SDW/ONHGv5Qrx7/yIty+mJxcwMzkOr9SKi8/EwJSP2vNJT/t8Yc/bvrNP5gKeLwqtqlAS+kSwF+hpD5EblY/E8oLwEFDg78+v4+/XPuFwKhdvL5EyvQ+WFy+PoDQ2bwO63i/78wAv70og79BsZu/BJvfv6WL7r84iAq9YKcDQEf9yz45TIM/xc/wP9BPFD++QX/AnrWFv4sYgL8b92u/jLgPv+z4/T/5imPAHKRUwASHJr8aUOe/Irw8v2hhqz2gVAe/PASxPou4d79e8gbALNjGvxT4Rz+uPjXAGEhfP1Lzrb48xUa/8PTHPYwXMcAP4IQ/cDQEv33EfkD1QGU/Vjmdv8ho0z/NGLw+l1dhPyJwzD8EDKu/5VmiP3D1L8C48Vk/qUxPQJf9dL/KIUe/nW+GvRmsEkCwxfI8SocrPn+qhr8S7rC/IBvNP+ylZD0WcqY/KB6/P3EE/T8HiuC/QBrFvI5m4z9oEUY+VI+BwMTyFkD8ILo/oSRIPz61MEAn8z6/IoeTP7xqM78CWas/KyIMv3ZWW79gzgC9M9aSP+Zraz4unru+QpQ7v+jMcEBNIsE+msPvvwIhEMBg06u+PexawJoYcL+KCzHAqKAcQG+Y0r8cIj3AQl89v0MoMD+etP6+3vm/PsKygL9XRom/JNzov4n7kb6cloi/jMQVvjSumD+qPZBAiwgxv+AJpj2ILu89ey3YP4UdFL/AxkY/8RWOvwkowr+tk6+/wF/evnVRTUAGmY6/gOVJPnS7DEDoiGS/AKdGwEQSVEBFSaG/KpelPoAEir9uvK89PgtWv10e3T/oTCvA/cEcvx8BA8A3gDS/BkeZvxC1xDzz60a/pMF7Pz5qB8DmG+g/GA5xvURDj73zqcy/kKwgvU8K0T1IUwI/fxeXv8n2lz+Gcvg/X94BwPLHF78S0Sy9bL6WwLYdBEBiqmq/Y8gcQJwuaj8srmk/UmcxP9n4nMCZX02/1tMjPx6H/r6RYkk/l9oHv0Hxwr+1/0I/n6bzvjhTK8BUzli/J41rvxSPqj4Xabu/GvM7wMtL0D5V+xY/4vyMvrw5zD/67pu/BHfRv4UAYL8XwgdAG5Xgvog9GsBcuYo/fcRdwADNWb7OvMO+LuILP9Dm1DxJlju/Gx8NP4pG4b8+bfc/KklCwJaR5D+ONw8+nLGDPll5ob4KhJO/FlAbwPGDRT6wFQa/iZKmP46DIz5cyxLAi9ZsP5j7mj+QSIBA5x/Nv40EF8DAY0C/9FWjPy4R7b+a+fy/EJm3PixLPD1bGs6/Eb/wv3Iybj4/nhtA2qWXvwlGIMA0ZWa/SnhLPwBlhT3aWM2/vLBxPyq21z88pTdACyvqvxPCFsCFe8k/KkNgvyakIUBXDrm/XJBCQOdjhD96Hqq+yOaAv7CPbT87ePY/tG3UPnn8Jj+ZiIm/2gH4PkYuMz8Q6hdAqvjXvz8QYD9bjKM/3y/Wv3/moT8OEes+usBhwHBLBUCrcvO/Uz3UP2uHkL+lb+o+Ic6gPUSdWj8I0bK+eSn9vqR5OsDcNfA/VM+vv5wwDcD1nwm/N6AaQHl54T8t0D2/Y22vPzMfzb88Zuk/CuBkPrKOHb/+jEg/bY2xP48DXD+Ckek/Gp6CPwaGqb8xZeE/pcSvv6zcTD9MnPY+878EQCmSDUBceHy/9Vpbv9B69r0DvDpADKM8v0LTZ0BpD3A/pkEMP4iaPb699gFA2cYdwIhXqr49ZyxA7z5FQExi/z5qMqo/anwVwP8Glj6WpQo/j1t/P5AWNT69yStAXyJqv1jRsz94+OY/LoWBwHHoZ76PKOm/vuaQP58wAMC4YaS+NbmEvv2n7z+AOWi7t8ZAwKehTEA6Lcu/HJ0jQGqtgL/jjgNATxYIv2BTyD9SVti//+xEP0P/zj/t4YK/u6zGPykJEcAvMUtATCcyPz+KJz/9igU/KoQkP0F1Sb90mEk/iIG/PXhyBMDpERy/MzOTPwGRJz94juI9SBb/v66Ntr/3JOo/DskmvwnixD/6cbS+zNsFQDrRM0DIaylAcbxtPxJneD8icRRAPuYnv4w0mT1Edxw/RibVv3C5qD7EDcy/KNt/vz8mb0CJ2Vs+S0sdwPbnZb+XAL4/tM6fv2L/+j5ld2m/1rFFP5vd5T69CAtAQjTIP2ixh0Cubpg/ZuDjvljGpT4TZRpAL28JQI9fur48xr4/gr5GQCtgp78iUho+jOkBQAeu0r48RdO/pBnjvndUTT9cgBi/0I2NvnvwNMDkQd0/FHsMvxQJzr4ASXO/rVBNQFRSd71XuUu/SkhxP1R4oT95Wbq/De7sP47zKD+wel69ABoaPrZ5/z5j5EM+KftJP8tty78FgoRApnLXPiQemz9MJHK/efjzP7pWK0B0aVLAOsa4Pm6rYT/pVJk+f3QbQA7bob/kl7Q/tg52vwl2LEAttCI//uLkP17pU7/dBKa/ISKyP1AAEMAOWZK/V75VP7hu+T8rbPa/SGjdPSqt1r8LAyG/AN0Tu2ZSYj8IIpI/E4MiQAzM+r8o9Ee99ijDPSiUAz93Z+u+j20TQDANvL+EGBK+WeAhP/lOFEBS/u2/WQThPiiZkb8ZvBlAj1YOwHmTGEANP8a/7EShvfg+prwmLnu+vccSQCFb9b9+LeG/YiKmPwPCt78W9BY/bFIwwM5pukAWfV6/1Ct0P8ZxA8Cmi5u+vplXv1Qqcb5rpRHAGYaNv0RMYEACK5C+7CooQPoZR7/a/OK/0vQLvxgGlr5ubYO/NPsjvuCNOD5ySpc/1KbowEVjfD+J0hPAi78BQC7M3r5Mu2i+FSGKPujpy7/fAoO/bRehPyJepb84aIY/TkOpv9L5L0ACF7c/VqSSvoCj3Ltc2qo/i5q5v+qVoD/CWQRAioYxPpQftT/BVKk+cNq6PsNlUD8NSgVAJtRyPwPNuz/qW8M9yoQkQOgWRr9K1+U/ZymLvgXBekAU/u0/pti8PmBivb+/rDo/AKZEP/ybhT/UQABA7wCHvsiQgz/WN0U+W9u5vvYUjD7ndx7AKCU6P5VA1L/gHTw+oDSNPzwitL0fYGE/FqSsP1MSU0BSZNw/nGjAPlZHO0BBCw9A"},{"catName": "Gita", "catImageNumber": 1, "nightVision": false, "outputTensor": "wDIDwJvfOz+BY4u/hLhWvkd6QL+spAK+NUMMwBC4AD7W72A+3DEYQA1Xxr9jaQFAoNhgvHIBNsAgeQG86qFvvgadQcAooY+/27efvnbUzL8SYgo/4PL+PVHDnz623Vy+IM1NwL+ve79qCrM/k8DKPqyF6D+b3dW/98Y5v0iziMDHK8W/mvMMPj5AKkBEuOc/SsYSPwBqj7/p8sg+6tAKQIIMrz8aNl+/MEMFvxCaS0ASoL2/RJ9Tv4xc2b6yl8C/fE0zQDmm176ZS9U+K+Cyv4gh+j/8ty++HlapPwrynL702SZAGW1bvuxscb6QPpu/eQLavgJajL8gNBpAFnWDvmZSJECe5Vo/uoFkP6oOcL4GqUZAxK+5v3XCBT+yO2w+3t0JvyjuAr8QAyrAXJf1v46hyL/AHIC7Bp77P1gVyb/sXA0+39F8PqTxQz8QDpi+OVBcv+mLkr/4OHy/SUGjv936iL+IpP8+0PjaPwBxZ8DzQTZABScqQCYyxz5yw5W/Rgc3QGG7Qj/c0oq+VEjOP8Xwwb8Urfs+A6y0v6aFjb8gKam9NrJAQHo38T+laVfAoi5Yv4mOUsCk8mHAlIP7v769Wr+10cG/pAm6P2XCrD+ckv8+O2ERv/EZz78Yy7I9nlicv4bsCUA6wFW/zFnEP3sFacBUf7q+7s4dQK9TU8CndOy/EaYAQLDKZL+8mxG/4HyMP1yaQD8af/I/Z7L7P2X5A0CFCXC+3lscwNFXcUAGC4u+4NiIPdCxfD9fUQTAfMKDPqfHaT98VS/AALJ5PjzrRMDA1P+/HPFcv9JL9L9cTds/b8hAP8HygkBbPIo/TYNEwM8kkkDMJbQ/auIEwECy/z/ot/2/MOS1v0cqO8CLjUw/SafDPndV4j+CMp0+06LRP3R1GMAXPCK/2Z1ovypNMMDsxke+xedzv2IR/L/Ixv8/GJ8jwMhGRr91uMC+YswGv98JNkB4p7s/IlwYQLdigEBF7zHAYpRKvwL2eD9O9PS+wPTrvmcSkr8czRJAvsttv/m9PL5+TpS+wnCMQLP4xb5aGCw+UqoUQDw4W79Nz5e+nk8MPxIFdL8eOJY/lMniv4gWqT5g3kc/jP4GwArKQr/uti7AcAOevpjDT7+HkhFAP0iav/7jq78vBj1AHUfXv8RI/j7BH6U+e/xCP2P3AT+kKo6/V1QJPmvKLsAsuVG+G1OmPwidNj5hcDK/GBC3P8deJcBJJqu/urqwv/nIlT+tqoO+AhVVwKAMdb6OQhs/4I8KQNSdpr8TcD+/YoUXwOyJ279O8yhAV5MoQN7Byb9HRxq+e1cKQKJo7z+B0r8/N/VYQGWumj9oaB2+80J5wD6lBT/xxY6/4dK/P9SS+z4V8gxAkgiWvxmgrz/faZA/UIKHPpbM7L9UeVU/x39JP0jIvL+QBO29fDAIPpX/rL9KLcq/aSuAP4sPh8Cs8UK/wLuQPfcdR0BUvYXAApHGPhr5eUAWNaI/tOVaQAQnYj+/Xbg+kwINQPKxnz4Oi5vArCISwDRjDcCrhLU/HY45v6AeST16RNm+MRZbQIIIC0CRU7i+xPUzwCzW478qqMM/HpgJvw0ZiL8q/IBAYEBEv8ghrj/47mK9cN0wv/6zHD8+OdC/7ODiPYmsN7/jaRFAERbMwFaRV0A6sbc/io/kv0ixeD8ofZk/JkxUQCzZlD7i7nA/UIS2P6ig1z667Ue/ybhSQAAmf7sj/UE/ImhNPqzhgT+NpN4/VVUSP1BhlEBSLKc/QkOlP0ZTnr7ynhfAtCsKPxhxzr5IYVw/WdoWwKJuVr7K/si/9A1Cv2RTfj+qyYG+bATdP5S//j9qj/u/8pn7v3FLyb7gaEq9g6AYv1qpGkD4p8A/njFuP37gz74x5mHAJLbNPjZToj9TSwE+Cl50v6FoccBXoPK/w7ZBQFrORr8VuaE/vA7aPGAcgDyN87q/et5CQAFA0L823R8+2Dx9Pmm+Rz+E2i6+p+Ynv7pdnr9u+tA8buTEvlaewz89/HS/4ioMvrif6b8W+WU+u0ovwCv/V0CxXto+BvXKvzz7OsB6sQNAj+sEv6v6HUBhYM+/QBEnwHIZ4D6h6B9AZWmGwHYGRz/q1HK/UwXQvoiGk78Ebbi/bdqiPfQ8Tz/hJKw9WDviPujaFr4/vKU/yjsvwEvL7L9Vp8+/KBSuQDwD876A460681d5P/emVUBmKew/qld6v8eARr+WrAC+2H28vJj5l71Osvy/pg84PzpuW79gMJy/rM2oP+DACcAlvno/0AK0v8lLEMDoqFFAjMX1Poyr4r4mW5u/4/4KQE23GkBuPea+HvJ3v8otOD/qE6A/8ElvvSDF0z9Ag6+9dT7Av8gLi8AJNUvAYFjfPAXSRD//zDLAamLIPwYFhj9wc6e8k8IkQIvgD8CgjmM/TVZGv0KmM79UWL0/IV1BP59Uu7+wGMy9PhgEQN9grEBTKY0/daC/P3YQaUBHHgnARa5twBDblT9kUGm/p3vSP2o7E8AyF0A/uknuP2YpI8C8pmc/KwcIP3xTJ7+ScB3AfPYTPiSroz/kM7++2m9HPlOXA8BUqhtAiGPRvtvHHkCc57W+LGD8P7KHUD/cbQHA+GWXP2MgC0BeZa0/6c7BvuwSDcCTmco+TvcNQJshHb/yJoa/POcXPhxX2z9fhcS+AH5qPkvRWsDecCw/+0dsP0bIGkBZ1yDA4/pVv/QoDsDhQIbAwJPgv1YEDL8R+Jg/XDKvPbigN8DGnpQ/KFTwPSJhaEDkN1G/QvieP7oPosDWu/0/m7WhvxMpDz9rsAHAnuSmv0M6qT9+twq+J/75Pu4lCz9VuC1A0ohLv0yFVMCG9wk/lN40vR10nT5gKuS8Nq0pQB3JT8AYNwc/2IxmwGeaij4Emvm+c74lv8DHyb/mR7S/9pncvwTyFMBqXwlAch5qP46/9D/gvpI/FI7/v1u6zz8kLn6+eIhvP+bp/T9fmQrA1OaKv5jUBL+9x80/m70MvkX3N0Akx6g/aEYxPhgagr3HJmi/Amc8QHLMJr/ObVbA5kCXv/hRZcDUyIE+OB9pQDxTGsCIVaBAoI+kv3SAer9MuP0/EnnBv3YNrT8wi0U+eCfDP1a6UL+Wd4S/D3oGv3PFqL4Zfjk/zUWkvpqLAj7LUfA+h3A/v8AHoT9wfFu/X/WIQO/BXr90S7W/0kO8PkwsvL8KIR0/18iePziHJcAOc1K/UPyPvvidZr+HT0VAzzWFwDzXHT8OeBvAmUK7v2/nOEBBY4c/lHlAQDgYU7/EIx7A41wNwEb/ET8E6cw/ZFFVv2OKkL8xuDvAMUEJwJg55j8jiSxA8QtRvwGB5r+5fJ6/fPCsv2pJCcCR1BY/0sXpPlN4fr9D/p8+uwucP8abvb9ITaC/iZTTvgZwpz98lAdAvxqZv1Krdr/os+q/2lu1PtDCsz9Qmo8/odDbPqCfBr8K5lg/ejXpP7KU9T28/Za+FOMMwM789z9WQqe/I6hVv4SeQ7/Tlnu/MrKhPoxajr94jQ+/RwtPv3Cmwj5ZirI/O4gGwBh0TUD8dUNAKEFavwNTiT9Dg4c/mGmvv4/9P79nSeE+13x8QCngLT9ZrYs/JiEoP0RNwL/Gt+Y/Cv3OvtEq5z+NPk+/RsRyQCnGrz84FR++iNx0PwZJKkCv0APAUmswP6RX6T8L0ua/tl0qQFr9ob+zkvG/qrhxQIJPlj+/poK/0apfv9oZlEB8DIRAvf31P81pi76k05u/XBY/PwEmpD/crxBABiOVv4Xy7z+sk/G/HwcHwDV24D34p5C/1ke3v/PBnT+ycdO/XG5ev2HQAcCAaBM/xDe9v+87O7+bjn5AHH2KvT6TGsA+u/A+UquDv6zYDcCmZ5U+/ayYv+jgUL9AfkY+EaoivvIRDz8MG1/AzY/WP1Rhyr4dNeW+rqj3Ppi3TD9FkGI/qUdwPxwgLz8ETnU/lcmBvwlFqb8ydRJAJiiWPfaTmr8kXgu/InwMvvLd874CO3Q/do7/P1QLQj7d09i/h1CQP+r0t753jnu/vtzOPiLrAUCGwD4/3cl0v4CgjkCgaRi+zKdBPptYlD9Ryvc/y98HQEw5E77qd/u/"},{"catName": "Gita", "catImageNumber": 2, "nightVision": false, "outputTensor": "ysxsv1Vjfb+26z6/xbcaP/2dLD8IhrW/KKH5vmLjIEDT9l/A1a09QO4KCT4AClhABhyIPxL6T78S1AG/X0YUwLL4ML/Eagk/Kv1evoj60b/yV+k/V6BGv8LdhcBgm9a/5/scwNZ6D7/sQwy/UgR+P5tDA0CbRuq/VcD7P95ULsCK+f+/zcczvuibIb0Y++o/5lp+Px/VrT4PVbE+1+9vP2/uET+A8NC7pmwnwN6fDT+S0+K+IswKv9skcr/DXR+/Ji3uP9a+BsCxmi+/lw8IwFr7GkC3Zy8/K+ELP+wWt7/YtSi/CNeuv7RA/z8gZSu/4QLSv77Irb/tzNA+mDgZP3tYqj++vpk+5OfCP4xkZb7g5Xw/xHrDvh2p2T9pt+s+mr+wP1bZZr9OPhXAkC8mPcnzdr/J0gfAerDJPbySJMCpFsM/y86+vrglsj91oDG/vA/lP1cOpD5Z+s8/XeO0v5o6M7/K80S/WJkWQD5vUcCqMQVAqDa+P1pHCsBaxCXAIBXQvD7FCMDMQrC/TxmOQObXE8B7se6/OHYFwPhmD8B0GNO/GlPfvs5Jwj7+cxLABRorvwislD0GUfW9ZeTDP8p2IkCBtOk/zfZtQCcYmb8uQwNAf1zRv4DPFLvErko+8n3lPsK3+j/8s5bA3ZHJPg8mHcChp6C/AQTQvkilN8BkWQW/pa4HQPkFab4Ii6G/l5N6wAAA4L2iEU5AOl8kQFC9Wb19sQLANNesv27g779g40q9fy5dP0a1sj+iu2K/XmhDPwa9/L5ciwnAH5bTvcIFjr8UZOm+qQmRvwTavL8x25o/hNcNQEEQbUA26iVA69wiP0DYCEAQ5LU9uhb1PYamTkDgaUXAlGB0v4xbTsAUgIc/IohKP9jARL071z1A3CA0QIjbn79gmQrA1lm4P+X+M8CdLyw+Eh0fQOkOGsBgC+S9omiyvxK4mr53ABHAoAYNvDEwQz7j0Uw/QN8LPlF3yT+MzZc+ekzqPyROLj/ZGA3AJmn3vga8ED7emFFAHDuCvZi+mD8UlDA/CcQnQEC4fzzYAzw/m2sCQMyzUL9xjZU+0qMIv8SNS8CiABrARw7Vv0I0NECSMJI/x8wPwOXRA8Bu1Z+/EIjLvzAWQr5nmjtASCwnQDDHLsAYUdI/7mDmv6Y3N0BNtru/u/4mP0Ll2z6C5qc+s9kCvnIbC7+OP82/YgaNvzQ6iL8Ur/C/qp3nPyEnUz8R87W9hSlfv8SjVz8scYS/68XHv5xEoD9i5hO/9qGsPtJfDkBQ6EK8Xo0OP36Vvz8VvxpA+IbvP6hj+7/wKkw/opuLP1JdQEB6RYJAqlo8PjQ3N0A2EJ6/zRPBv7AEgD8SyrC9i5FXv4nYXb/4BSc/b41yv4SI4j84AwpAdv8Dv1zGWL7t2BnAkfgKv3Istb9n9RPAIPkev+6UuD8VNcu+W4wVQIRT4r57Aaq/AvdXP+FxrkB3Ase/IQH0v28ugUCMGsg/4bJRPw3gMj9gXkC/I8aHvkaVQT6WQWzApJRLwHZOSD+O/vg9oCu8P51BkT+g+s+/3hEpv6vZNL/oliU/LWRevpVLcT9l3ClA6SGHv/i3qb41OKw+kBOLv9Rs0j5WPD2/1iILv0raN8APaB8/9hYXP1aPwb8vBxdAPuXjv//+gkDXmy0/q3JNwBCyjD9UNtO/XnfFP7xxRb+z1tM/y1kRv+gvZr8nXak/NNokQGefKT9o7YG/MDS4P4RQCUCkrTg/sMexv4bDiECLxmVARM8RPx4tI0DDYu2/TJxzPtpQ9j+QcRq/+XHovyeYCL9JNw3AcNgbvUY0Tr90Q0g/rjyzPm8k0r6PFB/A2PqyvvRHaT8oX+Y9r/ufv5vHs74rCoRA3pu1P7hcB76DBYm/+DJaPpzN5T+R34++ZUyNv6Ty/r8EI7K+4DrDP+wXhb3MCCo/5PNBP7Sd6T8pPoO/XkYKQDr4Lz/S4cY/53MHv/iN1r96t4C/BAjTPdfKgr/aCFW+JW87wPsQCkA1in8+AKGau0q3778ACFrAfMq9voCOHkBtfBFA2YmnP7dZD8BIGsG+JDzjvoqcbj8WPyC/smH2vqbWhj8GOIBAVFVvv0cugb+0SXU/TvtnvpjQ371zT+K/Krn2P2x+YT8/19+/EnwIQH/0hT/2/xQ/GpyBv+TPRr/RB9W/qF38P3y5qb0khsW/5BVmP09UiUDDcgRAxhouv7hkcL9nvd6/HfsMwODgljx8dye+zDZKQJs7yb9P45a+zhoGQMpJLcB8u6g/TsjFv1ClLMAzBRdALlo5P0lklD98Zt0/bwojPm1b1D+OvQW//B+WPde6HsB67Rk/OtcpwAKITL/YT2M/PgpowEEFbsBOp8G/FJrkP+a4UUCVRSzAfJ6JP3AHNkDh/n2/fRqqPivgM8ADaoA+WrIOvng/dD1qExFAh6SLv7hpkr6Zh0E/2WN1QCfkikAEEpa/p1SlPwyb+L1+X848zLzuv9ewoD6wW6A9UXolQKTmq78pmxS/8vKDPzxHTL/EMiW/r253P7oXhr/yNwhAjI+6P3G/DD9CESk/fCoPQO5eLb5SZhjALog8vxoeKD8Q09M9S0dAQK+UFkCX8Ai/GMfxvXPev0DAT2lA0n78v7QfFMAN0vi+xmOJP9N9+j4APTy+/vFWvxVEXkCo2S4/YwWbP5R657+oKg2//i3kvv17BcBEpDrAjhf7PggGMMBJpjTAT6bnv8z7q73eK35AVH46v7BS8b9+1LM+3uQfvz/dnT92VMW/AIacuoBxOL1QflQ/8JCdPkAIOkAvAyVA87ucv7gMyD8svTPACNSUvTLAG7/Ybfk/gt9ev7BhDT9DqQVAsMBCvmIrAj8bHklAZqIMvvZeVL8Y2ac9gg8bwI0xLMDMG4C/7NFNv7g6BcCiaco/N1T8vlgcCsAKobM/cOvyvnwfur5SX6c/nP5tv3gavL/OclBAWZHuP0p2HkA6Rq6/nLgtvstZmL883Bs/AeKSv/zaeUBSiem+ZGDEP8ClScCHaFO/L1wawIPPaL9pAOy/OGISP0CEG8DOnytAFOlwP5fAhb2mt64/5MO4vkjXYD9C7Bo/cH2xv1sBAUCWnZ6+JMHgvpGhJD9GzhS/HD1JwNgqMr/DmBu/g+7Vv22rb8B4Gsu8wwRBPwaKP74cJrk+Y89uQNGvID+wK6c/YvWFv94s8b9OMjI/1KCDP57xFMCk7hM/Si/av/Kwg781USVAjIwpwIYVMT+3ioy/gJ6YP3x6N78AFJA/n88XP4DPDb408hjAKCSAP4vvBMCJkqw/Ld0GQEqJP76okgM948levgGkwz9yccQ+xrbtv3Rq9j1/kF+/sdqcv4hq57+Srqk/4mfIP9aqjr/fZK0+PxH3voJsTr/+aPq/SEIjPQPdCsB1sKU/4Jz6POwewL/4wQ3Aa7y1vnfD8j7o5+q//DyPPw18KcCgpgrAt8Vhv1R8iL+rhAHAWqSTv9hlRz/5+4C/MzupP4vzP8ASZAM/NR1Nv24eUr8FDJs/tAQmPUrK/D+Ntog+/DElwK/83r/1q9g/wjHmv5DXS0Dqbrm++3pjvxaZtD9QeFE/FnBoQAZOkr/QFSY9KEqDv4Rb8b9zvru/p4eBPtDO5r8Mn5U/UbhrQCCCPUDPAeQ/qcxJPwyIbL9IVJC9WFQ2vxghfz/j7qe/t70KQDMY5b8Qr8W+UvMiQCBlf7wU0o6+4g52P2TmuUA0/6C9QgFOQKdrZ8Bw7eC/mgmCv7SaeD+Ge+4/ANdbPvkc1D/4NeO/37O/v76UgT/8U1U+B4C0v1nAAL6gkxDAaOwBwIAurj+kOOc/bftUwDuNe78xX8o/QOKQvjnoa8DGeRBAQkglPjAQCD1Yowo+yEffv4AQX7/SHF4/5UM7wBSzmD+Nwnu+2B/YP905h74TVDVAavXBPyIshj9S+tI/yPfwv4ZAwD4m+AG/gwPWP3Onqb96MbI/WHieveI8Yj/1EZu/7cK4P/A9IT9AGiA/sPRZv5ACBr7AoGI/ys3aPWY1tb7bdE3ArLWyv0A1Y79ABMY9X8f+v9G48j+ocu8/TUMGv3TZQkCGFIo+UnSNP/nC27/0c58/"},{"catName": "Gita", "catImageNumber": 3, "nightVision": false, "outputTensor": "iu8FwE31oL0IFUO/6MRVv/GgEr42kfW+PgFwvwDvGb8sM7W+9yIfQA3tVr9oL/E/uN4dvhOhRsDAQ22/yIE5v8rHVMAf1zDAVGuEvoJo17+Xc8g/LjuyP5ghvj9gcBq/iq0WwByFFb8CWcE/+gogv4rGtz++z7O/et8wv0O4esCL1APAljNnPt8CYEDi8EI/CiydP5Gfb79oNK0+pCkNQPQLuj5L+Zi+v2H0vhsuNEAaxL+/cVPcvrw5lL4UVRC/0N1AQCtNsL46CVs+s5Cov7APzT+TCxa/NAjQPyjHMD4D3jJAg7mQv2D1Gb1da+c+BbMTvg6M9b/NTtg/AMdOvSnWNUAfiJw/d5bTP9yZoT/AWzZA1o0gv449+T7jtjC+D4rUv6JVy7zQEzjAAW3nv61cL7+3BqQ+FEcnQCDMyr9uiLQ+DD63PvW61j5UYWm+1M2Mv1Jg3b+SIti/WNR9vzQoir+5BVQ/8GWGP6CQX8AzShJAndhWQLykN77316G/IdEMQKZ40T1wFlW/4lTcP2gc27/wHvg+FvC/vyjUQT9mWzg/W8YyQMInvj9iZozAECqYv0PhU8DuWknAOdTwv8TLTj7zeArAkDGqP0y9Bj/Tou4+slmgvzeTGcBn7Yg/6PbKv/VoQ0DbRo6+j3g8P5F1RMBhLue/LJ+MP9rOTMBEedq/wmjpP3o36r9ltbm/5hf3P8SSFz+zLBNA7FDdP6C01j/KAvW981FawEJmZ0AD/JC/QRNSP8y6Mb9d8jW/4OxAvv0kbT8C2zLA3wLAPiKSSsBGxK6/AT2Hv3bl6L9MJrM/0nPSvdJhLUBctNw/9+dOwEqmq0Aawuc/mcquv/7A1j86GKe/NNizv4eAW8AwBIg9uad/P5ItMD9j4gY/z9fvP9Ikgr9V7IG/6Seiv584PcC4U8C++YxGvyo5/b40DcQ/o7kewOHoWL9WDLi/naVFvpAyAkAUXbs/NlgvQK51jUCPbBXAmc6Nv7BMtj9XO2K/2ZQbvxqWOr+lY/g/kgABwFFNY7/gRIO9vG51QLAjCj402Aq/1LAfQNtKuL5nP4M+pgtfP5xivz67Zd8/AJoIwH5LvD4EV64+9KQewEDUe7y6yRXAwLo5PT6UpL/WvbU/tSiuvxqO6b/Dkh9A9gVqv0AJaD4pfSA/+x0oP0zGGj8E6ty/kxtEP+xn/b+mWJ4+yLy3P+49gz+XkMo/9S8UQLvCEcCaAP++Pg0KwF4Z4D99nCs/wt8twFCuST1Ag1c9WGYLQPZxB8AEsV2//IcmwJh3h7+6PSZA/OTaP7Cfjr6/6Ds+0qvwP989Pz8mzpI/9Xl0QPGCgj+0D7U9L4eCwOuDur4o4Iy/IqZ8P1GrID22Yfg/9kz+vqddQz8YiVg/yLnFPmzOlr/B7M4/GAy1Pmwd5L/5tbY+VCR0vly8FcA6BxHANAolP7wljMBYGh29cOOavVnMU0DLj4nArPcHP8rQRUDaOek+6WAlQHyHaT+AdKq9nrM+QHTxsT7lhLjA9Lv8v483vL94tm0/oGBGvoiPA77I1Aq/MXcIQAhVIEAyOBC+DuxgwBjmaDyJ5Lo/Z3S4vguVn7+hXD9A3s3Hv7W0lT9SUhc/sKarvUY/CT8A5uq/UiY5vxiZqz32pABA0a3ZwNsefEBjqyY/z/MAv1Yapz4gtrg9A00HQGhokD9aTY0/ShKsP8DXmT9Uo4q/r+BnQGyN/L5IkXo/x6zhvjcLSz7OrT5APqArP9KjmEDQd9w/+pn3Pg1E4L8KLynACW7eP/JLBz+oysA+QiMmwBXiHT4/sh/ApIOZvua05j4wlxg+zcg8QIqnpT/fo5C/LY4lwESC7D0AE2y9I9VnvzCuF0BUZYM/rH/PP8mRWL8JN2zAAMfiuw256T4QKd88YLiLvldjUcAIl+W/hqNKQODStb39w2A/5sU5vlwRkr1ByM2/WQUcQEdHQMCjrJY/ja2Zvj8cSD+uTzE/aAB7v27EZ78+Txm/XCKnv2lM8j9ZKtm/MkWrPt7KjL8ekoq+5Nw5wNqmaUDMibu+Doi3vzy9JsDc7ARAYHJ/vdhrR0CAMU68ybwdwJveOj4wN5A/Vak+wLk6lz/Hh1+/JX/vv8W7dL9iwsy/ffXyvYjAVz8bHwQ/6eRGvr4oIz5cqZI/6rYDwJnem7/CH2i/NtiiQMqAm78n9zE/EkhcPzklS0CKZ4A/GddnvwF/hb/4lxm/URQHvmXFB7+k0+2/dMONP/zuY79XHaO+K3+IP0iWAcCvf4o+kADPv33XGsC2e3NAYEsqvSgsnb5D12u/mGPbP3Xo/z+Rnqa/8kndv9sqBkDKRfo/JcfpvuQ7Bz9WuEI+eVfwv2GPn8A3lHrA5kh8P8lYcT+eouW/Blq/PzDjmD99Nny+LNQWQJ6sGcCroMU/4HWGO8OTrL9TyrA/928ZPzm4XL/gYRW/Z+UIQOBrrECSjYi+Ulz2PxXDjUDZ6zzAKmlDwCCrED/VzJS/or+EP6pIG8D6VE4/I+bgP0DeTMCmzCBAcv3WPphUUr2r6+2//rzPPiMkD0BKJQm/g7jfvjciAMDl+/4/mva0vY2JLkCoErA+TZojQHhmIj8eiVC/Qi+FP86Z2j8PHgRA29JsPwicHcD4vTm/tO6fP9xihb+Q+iS/G7ohPzaXXj8rVLA+JCk0P2j5PMBHlys/8ejoP7GzH0DC2BbApSuEviq2C8D7j4nA0wNavxaGAr7M0L8/4NkiPxqWNcBzew0/AJkXO/rtIkAkigzA/IQvvoZTcMAIyAVAX8mTPqrbtT+8TMy/33egvzwNqT8QLlC/DEOFP9N6gr7D8BhA0Zh7v60wSMDuHQM/er7GvlvNhj+oagG/EXZGQE5jYsD0ZRe+ucg1wI1qD7+tiom9TWkuv25tkL+0UI++12n1v0I5s7/DQShAR0/8Pt57rj8elZA/2h4BwKxLvj8ImMC9WeWdPxxq0j9ideu/5DxBv6H9jb6p35Y/Ce5nvtsGIUCgEJ8/oD23vhB3iL2KhZO/o39vQMC+Vj4DUxDAWxAUwKdkRcCIegu+A0RNQLccKsCV5IZAmjR7v13Q6b8797k/gEjcv9AwBUCs9F4++JsHPwBzTT0qKCa/ZtLWvgDxjzrOM0c/ZxzvPttFzT6Squm+c5ABwKRGrj+9VYW/9QqDQD6Gx7/iJd+/Wpl2Pz6x67+pgdq+FB0JQGIUDcD7Kk6/OjW2v4rOlb7UUUtA8GB3wAuxuj5FZai/rry9v0SUOUCsB44/sRqCP+YhNL+S02rArCuqv++ClT8PGK8/AQs7vz+uvb7pdirAHWhAv+Bb9T++QA5AwESyv3FZy7932p6/QtOiv9nmA8CgFbU+ll3iPlTi978PS4G/6BG6P84QAcAK37u/CIlePYLs1j8jqCxA93zFv3psBsDSGhvAzV+vPhhxyj9S14w/71DXPlg0dT6uIpY/Y5UEQKsMsL4XywK/6NwcwN1SCEAindu/68+Lvvscub/oNKG9L6YPPwqEmb+Y9yG/ygLFPaDV+TxYbMU/kpYwwHvgQ0C2PCdA8tSTv+5KF75wsoy+qrW+vo9+0T4wVnI/z4edQDfbSj9E0U8/GvMPP4+ZDr8MoJM/RUOjvgy24D/eA62+TvkgQA9KBUCF/Ig/+xpvP1gvKUBwwEXAI2ENP2oB1D9zBPe/QW0SQPTcR7+/RgfAGrp5QBp6hT7Qzzy7fErmvkLJmUAEsYpATAveP5LgjD8ouZy/LuA5PvV12D8yMhZATlYKvzxwBUDlzPq/rBrevzznDj6CK46/+H0xv/A4+z+i2se/e92Xv0mzKMB6oMW+OROUv4J3zL9M1l9AUphGP2VyAsCBgbG/rmN+v9UTCsCk8hu/1MDAv5yAMr9xOBG/Th2YPtgnFDz1WhPARdwmQBoJ1L6XO66+fP6kPozQKz+zj04/WM2FP3ZOqr2W9bU/nlGYvlm4nb7tbyhAkDgSP2D3+r++8hi/QJf6POCwdj9Yt1k/L1jgP9Tphz7+EFy/8+jLP+FaOz6pTmm/wCSdvmRzLEARt7M/GU+jv1qtSUDCt54/EEwBPUZcVz8LwDlAsd8LQJRkob0ai7e/"},{"catName": "Gita", "catImageNumber": 4, "nightVision": false, "outputTensor": "21qZv3AyO8C6B0+/KsqwP8wsH0ClYDO/SgjyvxoM8z80xRw/Z8uPQI+XCL8dHVBARh3CvkSh4D/JCyZAiB0EvxIFBMB/4pi+0pm9vgOtyz9QQVK/l4N1P7lah7/kb9i/pz4YwDPd0b9G1SC/afJpPz5dnj8G30K/jTH1PyVdDsAfWSfAw/i/v2I99762Voo/KB5EP9FWTL9YP48+J8pCQOSUNL/bRds+jIUlwJ0rgb+x9Rm/CQahPahRYD4cNLS/z18/P/D9jr9MDIq+pOGivz4mS0BuwrC/DK+tPwZLCr9TA74/XqRrP34sRUCYYCw/Y/OKvuAlAj6J7Eq/4rDRv7a79j9EtPU/uWSfPxePH7/Opii/C+AIv+6ygz9dEcu/M7VmP7XS1r/QDKe/6o6PPwhkUb5+GIy+s6owQHIrHMCObAJAFVLbv8xuBj04enLAAI6Lv6dI4T+vHF1A4mOEP1AzKsDcx/2+HKoGPu75K8BzkK8/pF3MP3OiLMDKyDTA9n/ovzced7/OG7q/49p8QCEA0L+JJ/K/GoAAv32CWL9skEY+TL4dP96DY8CryJs+NyeRwD0MO8DBLiXAJI5oQBDIAL+UvhQ/kKeYP5HpB8C+8kZAFC9EwN4MBb9rtHc+bFu+vxD/+D9X9orACARrPYTJTD+Ro8m/7f+zvxcG9L+HBZQ/eHRQP8JUt74APvy8Fjqpv369OT8I+BK/eRSQQGzrmb6/ZxrAphFpwADxojuk9NW/hkbdv/iDP0AoL7g/HLkRwOjj/L3EMoy/N6DjP6BRNb6tQwzAZVlhwFG2J8CASb47vrVnv/iWbEB5Oj1AzdQTP5oIvj+W8UI/E0HvP6lV7j/TvzTA5aDsPnFiQr/OkuM/nWH5vfAutb5MeJdAiDNDPycguz+ypcy/UlkOwDhPq7/aBPo+jkAIP/zIcsBXtRg/EZwNv0j/rj/+lkPAsG+Pv+o75D5wsTi+VpzUPsextT8QRWm++K4Pv+ErS0AScp6+y6VvvqN0jD/+lQ5A18m5P1blKL/GE9u/v6ZAv60iCT/FO5Q+oDLCP6I0e75gL2q8wukUvyWfkT9w6hfAwOdgwPgRWkAu26k/OseEwIkazj5JA4s/JctCwOZpfz/wqxJAzFDfPya1ScDaqOy/vPObv1pP9D+XxvC/oIrVvvGesz+85aI/GF4+QD7ZDMAYXxC+FEOhPUTZqz/8EjPA26kJQDnpRj9CpGW/TYqrPYTSOz+4foO9nP7ePnhRHkB0Tng/vdM0vkScT788KQw/9FFHvyPFNT/UJeS/H/8JQDbg7b+6AKY/nNGyPyR5V0CBAglA883Pv3ngOb9/Xy+/X+kSwEo3Hb3EUGm/8iEtwDonbj/KCx+/OsozQLiLdr7AjxlA7chwv3qXiz5VsJG/ZfKWP4n6sr609zQ+wu7pvoYV8j8e2ny/EuexP0UXMj5+LI2/ViMLv+tQT0BsGALA+euHvxuAnUAUMuY/8k2XPz9oGkAzvZw/zmvAPoFhI0AJbyfAjk+wvxkJij9i1/E+Ult3QHhwoL57hoq/cDbvvQZ1Tb7y56u+vqQCwIhwcj/GOly/9iKHv9J8oz4L39y/EuL4v9AU975Z4/M/650Dvyj8O7+oMx4/GDIuwPQdRb4EW9y/wDGSP3RyEEDogLA/soyWv1puOr4kzQ7APFDgv3oSXb/XcoA/g75Rvw7UZ7/0cpA/WO8gQAdmcj/h34W/uGd1P1JiNz6P0ay+zmVMvzTwsb4styZAVIqGvwRvpz909Iy+gTvQP0ImXj6uBxNAGqhOv5yO8b8gQCS+2z+yvwvH9b65LC6/S4VrP+SYAT6dLPG/LxlEvnsPlL+p1T6/R0/gvykZfD0jA5u+2M5aPR9srb8M+Ro/CoGJPhf1GkASlhE/w421v0ZdJr8M+hy/RNhwP/qIsD8nuSa/TyiFPW/pSUDOhYM/ClcmP2Xpgj7/Dqs+juBwPnVaBMBvAF6/fPJDvltuIL8d2ERAqIicvUkTtT8lgJY/7yRGPyjWlr+PqqS/v8C3v64WDr98mx1ASjLhP5Bxv7+SvEM+NTtgPwa0M0AQRIg9rKlTvzDl7708eopAsjeIwLm12L4Iutk/NY6RPoKIOj8w9kk+kSUdQNo1aL+671TAM/0GQOVs8T4SGgo/gNiLv99opD7bz4S/cGTzPYmIfb+B6Uw/+lMJP/GfLkAsYIw/vegkvyCFc79mmNq+e7dUvwBaWjsxGM2/vHtUQI7OyT2SwJq/vFTlPzgpQr5aN7A+qKcGv4SuQMDolBtAGAlAvv5Dmz/r0WI/YUJJP5qHWz7VgdW/+5qmv1b6UsCSVHY/SoU0wPxihD9nIQVAmMfBvzzZGMBbmM2/LhFmP6QEeUB25Xa/Si50PqUWeEBUcxa9J+B3PyOPp7+XNM8/VFx9PT4lCb8h9RhABjP7v01sVL6vSnU+MHOAQK5Smj+ME4G/hnBFvoC8W78I/pi/tTgNwMi1mT8D5wDAD2IrQMopi78c2K+/FGD2vmK1CcCg4P8/ppxBv/Wr2D9gsjc/gW4EQMCIH719+Zo/DKQbQKKUU7/NtS3AETfBv7xcjT802do+VouJP5ojW71Gcq+/kdHyP0lbjUCSFvY/tok1wIvx7r8Re80+ba8oQD+8r7+hgcA/0NIKvajSdT+6fiZAH2NhP62PIT9gtrA/1Guwvzk3T75aaHXAGqKuPkV2IsAwVei9GiWtv88mVcCJYCZAzNwPQHpgab/V2mw/FEs9vxD4N789sce++SHmv1GDyr90r0Y+gR7svtznUj5iFXo/SpW8v1jsUT+HcTzAZwzAPkb8/r6odDdAuj7SvkWij7/4Xho/OASov8i0qTwwffc/P88Fv17uq7+4K0i/Y84jP9vzOsDGaYS/xkVdvX5TjL+QDdE/e/6wvyN9SMBAN64+fiUnP5pGTb+2VkFAlxKgvwx0ij/wwRhAZsp5QOZ1/T8Zukw/anizPulCvr8r4Nq+yj7IPrxl7D9+y/a/PKjYP4yGjr7GYei+OsACwNAmKb+qnhfAyJG+v1bI8b6YmKq+gczLP73jlL9iK3s/Y4mcvr1nGMBJ/t8+LawtvwPrTUAMmTQ+3JcrP/WPYr5ImOg/ZSliwApaNb8ipD+/Geuhv2xRU8BDlp0/6ZC5v0d5bD/s3Kg/9gmBP0y5kD9pyhC/Y3llwKZrIr/kBmE+LkRVvhAuYr8JkhTAMmbTv3g6C76i8uw+NuKJvzqXe79mPDI/OjwJvrOXOMDqly9A2H+zvybwZL8fHqy/Btt6v3SgTr9hiV1AFg3SP7TZML+a/gLAqo3Ev6JwGEAOOGQ/FpzHvxCHAsAx/GI/P00vPxLewr8r8Kk//cU7QGB0+rwwYwk/5h+NP/5m7z+MDu+/UCy+vtSiWL4RlbFAXHh7vzd6vD9fqly/Hpi4v0aRfj+2U/A/EDaxPxhue8BkfvC/5PzbPyfeI8Cdwfy/EsY9v4Y7KED7lVA+3UzOP+VCDb5HvlpAP4EHwNptEr/EVNq+MDiZP7ywDD+H6NC/qrOrPg/49D+PuaM/yCwWP5T8Fr+IGhC++Al7v/wj1j+ysa6/RHb7Pz80aj9ZK44/ea66P1YXZr8cCQ3A0xlDP9itLcApw4A+Vr1kQIOgQEACFck/zt8hP4b42r+IG5E/LlRzvw9HNcBYC3O+OCufP8i90D7Z1se/6iR7P37Rvr5lyD6+9fnQP7pMFkBv8wM/xpM0QHRja8AesJ2/xuWMvmJryD5/Jg2/WdpjP+uT+D8E1dO/s5/vvy9bsT+CHkW+ErRyv17HrL/QXPy/IpBEv2Iw2z/SUmY/XYk6vzC4i8DcaHo/ZJztviEbWsD80pW+hH6kPVrZij/ijc6/sovPvmOlF8AO3gW/2ftZwLfL1z74jVm/TiMAQMD6YDzwhxs/UHptP/DyYj7nEZE+kjCCv0EO8b4jtoG+bKxJP7c4G7+/9Uc/oDVIP+2fsD8me3q/0ZUkQORcZb8VphBAybGnvstp4T8TFL6+BqAoQAH4xD8F7DTAID9OvpoVE8BbOOA/WNeuP3PWjD9lqBBApAx7v04rYz/6/4E/IjDePwemlD6d3idA"},{"catName": "Kocour", "catImageNumber": 1, "nightVision": false, "outputTensor": "zxQnwAiXcz+SljhAeBvEPysKur+3vyO/AalMwEs+lr9DtUVAQ9/Qv169iL/LgJrA2EVdvk3Y1L/q/RJA0HZjv5RycsA40RdAGKKjvx5mfT+9PD7A1h4FQENJbj+2x4m/2mihvyE7NT/gcM8/EIVmPsyKnj4MFRE+vAcVvsMSocBQYVA/aB04PdGlhD/A0vO+Wt8awL+CYb9sIa8+nI6NvzS6KsDe2DA/2/egP4p6J7+uUy9A7+uiPhheUz4SbvG/hBmZP8wvHb8zj4A+wBUhQOHB0T++fk+/1FYmQLSx8L9Bvvw/v38mwGpOIb9DZeW/oJMMv/WQYj9VHxPAThasv7IfUT6GAbW/vb/cv8JKIsAcsidAZtZZPz+6Hj7xeps/00Wnv6LRMj6eEXW/ZI9VP+PFTL8AiQjAku5rQPvhj8B0MTS/PS2JwLkddD8g800/Hpj+Ppa6nT+kIpO9TDNWvvsQMz+XIZi/ma2WP/GG2r+6F1A/bK3UP1+bZL+AHkc8xygNP5/aDz5iFaM+3dnTPx8RGsDiLry+VLgnwIxoXL00FJ2/LUTUPqKuHL+IfPe/WtnwvkI7Ub96E0ZASOFXvxH3mb8GU9A/dekpv5TKkL9MSjI+tmqjPsrQxL+NPsm/fhe4PzRyA8Cma7C/LzUEwHwagj6Cvz+/oi0dv2w2icDPfDjA4s2RvxrrNkBurjzAwvKuP03rkb/w/h9AOQpCP+vwDkAxS1y8RuGSPi4D2j+4KkG9dckZQNoJU8Ddl86/+AkmvzSOCT45tgbAGB4MwEfNnUDugIy/NhSpP0BDKzzs8yu+EGvEPrjHE7+WaF2+hCtFv+Cu6D+yseK+tg3Pv1TADb8i0L+/Lcjqvx3rFcC+OtW+c0acv9oDDb/4gbk/0+urP/hfFsAedM2+ilPHv/Tn8L8mPZm/6vq/Pge/5D80AWpA6A6pv9n0HUBP8tm/MkUUP5NhUkCD0yQ/NMKnPzr5HUCIESrAVaDAvuVWuj/7q20/Pb0PwJMo078dncs/uLSJPnbOrL7Iif2/gNqcvXADdb9a7wFAdT/cP7hixT+GGFw/Qd+JvtrVLz8ufqG/E0lAwNYdnb1+LAhA4SPVv2Qmg78Z3Lo/A08awBrs5L5zaPc/ru2KvsHWML+CmwXAL8HoP7pL7z9wmixAR0NEv8It17+AMao9v1aAP2HYi79YmwS/S7GLvVxq9T9kcA/AwM5wQElJCj8Ncr2/NDcAQP4Yjb/uFrg+5rgkwDTNnj/0ouk/Z4RaPymWxz8+W8i/1tTqPm44az+0IxJA+GasPzXtmL74PFc9jgCxPxhqgj+NVJu/NsNnwPjEKz8I7D1Al/+nPu90McBIlyy9X8uNP/1JM8BiA8o/Xv7LP1CzK0AgcYo8WPg0v8TezL8+rWXA5iIhQICArL8nwgbAoSDkPxG+mb+s1ew/NopHQF24hz/69gK/nqgxwB3lGkCuDZ6/+DmOP7PThEDKCpQ+dPjUvnBRLUAkgHTAUDIIPm8IJj/cjC3Axv+Wv/BVxz5OpDe/SZ98QLClLb+ApO480x/nvhq16D/ssQw/J+d3wEDJ0r5Dq4i/bWOIPy6ALr/Kdbc/FeImQL4c1D7daTBArrQIv+ZJC8CM4oy+RZ2bPy4HvD5/L9++PJ4lwP4dgT7XQ1c/oKLMPt7mnb9RyHg/xr7dv9l8Qr6OzVLARJixvvDBzb4SskI/O8hLQDTITD4zEvq+glHgP/quakDEKMY/tJ0tvygZHz0c9Bw/XAgkv22d9j9gCYm/XvU1vl9xHECHOeU/DsYwwOn5sz9dcEhAmdP8v0a3kEAakFvAMIGVP76e/z5MS5k/39GIwEzIa78KL+c/gdESwEvGmD21XCTAEaFQwAe1Tr/tZTXAJNy+P7VJbUAUP4w/RlBQP0EOyL+wnNI+iKDHvjLU7T/ttuk+qDgpv/t4YD44PCxAdrNEQFmsFr8gJTFA2mghP+RsdL+Exdo/vRKAPpDqOz6vyoFAUuzXP7AeeD3fUAS/yookv55xtT/xmyS+eIqAwJB+O0AmNpW+J8IbwCyWRz/VZaA/2lZzvsIDAT8srdK+dIqqv+yLqz9kCec/ANTnv2BrQ7ytso0/gp5Zv3UFQD5fuhG/jWqyv3DhDMBzGfW/PowBvzaNsr7m2Vc/vlTzPrZeJb9NKSBA7t3DPyy6yj8n+CzArCT2vZr8QUBs8fO/2IRZvsDjsL+ArIa/m1wIwDsAfD9MSiw/PMRgQJuQmD9KOktAmlsxQMF64D4ESos98gkQP4HgC8AGGYg/QOt0v/uzVT8TLqi/s+hhP1ZtFUCQkUXAXglKv9oomD4A2UU8YIZNPet2T76GFzC/eOEWvgqxfr85ZuK/wpqgvsrR3b9u/+g+LE42QKy16j6CwWw//nmRvmyRLUDQHvA8Xms2QEocMT9bfOM/xE8+wPD+F79FG8Y/h6FUQME+SD/RrAk/gB7xvxRWS73Ct0rA1EnNP4IpBEAef66/PB1LQF4AmT7XOoI/ade5v5F/uL+mqzw/ZqiIP52+Jj9f1PG+nlq+PuCb079uXqe/FJWPvP2xM8CqEGi+9aomvxuJS0BQc6S9AkDQP81rc8DU0za/epGHwLg5gbvb5ja+NFgyvy6zaD8wFLy/ErC2P441lD7wC1c/4LFZv6Xhlb8QXVW/lS5kvuNXCUCW8CS+4imFQDDDij/grFa/imsxvxQ5g77dCN6/VTZHv0du478DbWRAZY9dv8aNAsBGR4G/DK8qwLmoaEA4jgy/vupwPweL5L+UUzq/fUvuv5v/JT8sXLi/yq+Lv3uSXb0Il66/rMUdQJPL0z9wDrs/2mTkv8a1PMApn62/8zc0Pzsg3j5dIQtA4/U/QGkDMcDnJ+q/4vjavyw4wD8u/Lk+602bP2KHYj5fwyxAnp0Kvt2WmT0hgTFA7MALP9fKLr+YyRG997M9wJDLHkDzMdS+5/w0vxyhFkDPO6+/Ivt7QPuFmr/Q+7A/gE4vPE7MJ0ATYNE/6IbyPVYvJr+Wz9k/dAb2viGimD8jcri/vBs9wCltX8D8USC/CRWJP/8LyD6z9aRANCqtv4YLYL8sDcI/wkqzvm6TaUD/fZQ/Hj6+Pwwvxr+KRko/obPDPukORUC4qeA/rhG5v1IuIsA+czRAGMzhvhEuTD8f1mDA9vphP7yBwD/JUznApN83PXZ4xr9yyoK+iikCP7lli8ANCoa/NCiTvyxfAj/NOGs/AHiNwPxQqL0ptZm/MelcwAnhRsBLHvm/IsQ4QFzGOT9z8zU/NQoAwDBC076LFzK/NxCiv1+xDz/GBF/AS+D4P75Bkb6/w0hAW7Envxxp9r4efC5Aam9hPzcTxL/Csk2/4tPzPlBCwT0StAS/No4uP0QHZT80wkc+Yzq1PyiHA0D4Bg1AON6xP0C2C8AxC2O/XT31PwkViD90vLQ/BT49v0oEEMCkIuO/VqazvkZOuL9k2ca/75aGv/P8MD92oT1A2tmcv6mIJ75sdQfAqSySP6hmFz/ERCNA3SWWPkinID+8NFi/0nXRPwvPZkDhwt8/4ByAPo6+o78eKXw/tN8xvwAr1j8GZOO/CHxAvovsUD+DvZw/P/UuPgzKML+4jzDAZ1JzP6xSm75+ljw/pYgSQKttU0DzV6e/wBoUP7qDxb+Goo0/0GPoP5EVKkCVIUE/Tq49P1NOqz8QTr6+NRaDQFtDKL+MaEu+VzGBP8MT4T/w2S2/YnhBQAzmZj5XtHK/uuv1PtP2GsA6DK+/AFfhvyZZfj+mhHo/1e7dv0ig8j8OHw2/NtWJP3PkXUAoji0/B+4bwEzZ8r8pZSU/AQfWPsNHab+DIDJAxIGNv3yXAr92rhvAY1bJv7aNE8Bgqdc8uvI+PznBxb/8wRhAlccFP0BbRLzZACRAGUnbvdIbR8DEE0K//HWivxJoQz+clds/ynsHP75KVD8AHsq7N5LwvyZMGr/AlMU/4q/HP24fu7/8Q8S/b5rUPlRdtb/KE8Q//pUrP3e0uD+AJ0i+IrKVPjpYaL8KIIy/1IYuQKJ+5T6KIwG/VBGxPviDZj8gRaI/2830vhgZs7/DzJk/4ohwP/dOxz/uXlM/"},{"catName": "Kocour", "catImageNumber": 2, "nightVision": false, "outputTensor": "4hDgv8hS0b0uesA/wHAJPTOJjr8wEq49NIIIwAfVVT8kNzNAzFckv5OZmL8ttUjANNoAvj5Jar/yRnVAvAVOPrCsdMBl7F9AHpyTv4cpiT+HyjnAGu0RQDc6lT4L9e++tvzrv03qb75Dmo4+qcpAPzKjkL/L1qM+XtOJP6qgbMA61Gs/7HJiv4Pwtz8gM9u9MRHPvyiMpL8vDqE+f4wJwIVpVMAoCg4+lMcUP7kL078RJ2VApS63vtQHrT6UZ/C+B6snv8Bt3Dt6xAfADdeTPuhzqj9yjps+THcaQMaRjb+XVy9AV9nBv8BKFD455Mi/3MUWvWKegL0pQQDAdlDbv4h7Mz+kXxHAvkRUvz8uIr94VHpAlpQSvlg5IL1A4aW96oGavyzhCr9TsK2/qHuVP9CNM75uSeu/J9QvQKdAH8CpnRfAYBwrwN1JOD/Yw4c/4YaAP5r5mD+MkiC/iCn6vqokDr4IyBy/o3pCP8o+/r6H0QpAj30tQEDYvD4zDGi/y5apP0WCub+RtnC/3gguQCrfB8AeAII+J8Tivi4y9r7KMQa/uYwOvoJ/Wr/VXA3AXbyTvkCp7b0M9wc/IKx9vuO9o78EmjhA8BXfv9a4hb8q7I8/QCf0PUgQpL/Mwwy/vrDMvsufOMDKDQbA27gjwPQC+T+ic6s+gtN+PtuaOsDLYBu/nEI/vlrlOkC+oAXA2uKoPxAQJT62mWc/cJDLPvoLBD9w4eQ8bROfP+BOlz+ciG+/KpgtQLYrF8B/SZy/GD2xvgO2nL9wl1K/tyWFv8TSkUAKh3S/GNZaP3AeXz7sXTc/fRAAv3AwN78g9jA/mNzuvpDj3T/yFSfA2zg/v82tPr8eeaO/DCUlwLbDlD6G0WC+xHLdvxotd79KhNY/T9nAP1y5+794+vK9fAOHv7jZ/r9A0bK/hr3fvvoxOT+9IYFAuC6dvwvhDkCn362/Go8BQJoFEEDUFwBAJJ8GQJ8brT+sejjAvoa3v6T6xT/IPGo/dkwewKWkEcC/rIk/ZAtvPs6Znj/csNu/XWcBwB5XDb94q6O9So8pQDLXIT9sLqQ+HL+vv61MVL8RXKS/yWhZwK2Ja79ujgBAtEIxwOnNl78Las8/0ek7wOxK5r0mrBBA5E4KwM16HMA6dgbA5c/6P887uD8fd1BA4fnBv6yReL/iioI/O1vBPyRv4b+/hbU+vH1cv324FECN0KW/XA9rQFhX0T9MA5m/cXdXQPbrfD4OPIM+ui6Wv6rOAUBeoc8/osfWP/pOAUBwz32/KhRsPqzZoT4nXiY/9U+SPzEjDL/WCPc+gsIIQAaFXb+d5Ne+QBmBwG6lkz9OpA1Aov8iwC5Njr+B6Ms+sTWkvy+Ptr/t3D2+oMU6QCSBHEBws2I/bDYXv6Lxtr9y2Z7ApRJuP4oKGL/mwq2/EPtUQEaFO8CqIypAU1I9QGdH9T8erZa/xL8twCd2MkDK1BnAzskKvzWs+z/2z4M/c44GP8mSB0D6VpnACLqevjKA3j9InlDAJ5suwCZarT7FZ8q/nHdnQApCJT+QrrS/7sFHPwwm5j9YL1I/LrtmwAzyAsBkjVO/KP1cvikLD7/RiSE/XgTVP5Mh+j+e6IVAqAClvVhqzL9sjAA+6Y0wP5514L+PbyQ/F3YOwDKOvL4WWSW/ClXIv+NDir+a2I4+0/jIv0xcvb85ohPAiMtPv85ywr5BPPU+2UIOQC5xuj7RwZe/SSqYP00sPED1zvk/MClIvT//DD+6B5C+GgTIv0b/C0A7eQDA9n93P+oKPEAflDpATFALPlAOXT/eYSdAkEVjwMQ3bUCBfZDA5Qjxv6zj/z/eDns/Y1xDwLJXGL47yzdAURiCv1jBCD86sFfAicBawP58275nsQfAlJQEQDwnQUAGGgg/DL0cP+v13b9FXYO/HbU0vnSqVEAiAhW993jbv+0aNz0bp78/t3xQQL//67/FKEFAuA5kPkbpur9PmH4/uDfKvkYrtz4pIY5AYHouQIKiuz/gm9S/sqvIvzALj7xXJM4/QzJBwLpxA0A2qz8+flgtwJhxIT8js4w/uHCrv7ELsj/alrK+kWyuv24CET+Aqds/2dwIwNrJ6z6K4tk/RGUBwChZdT+2nKy/wMXpPtzzxb1z/wLAvzxrPwrCPT+OEQ8/UeJ9PxT9ND+qfMo/4mqVP1pspz82/hPAVf9ZP3Tg2T9NFr+/oHGYvTQJBsAoEi2/MBKyv40rgz/Kuo6/3cE0QN3tMz7cpgZAZYQQQEz4dD+8pL4+KGdaPvUdnD48jBE/ILGcvl31Aj8pwcO/neYdP8nce0D2AyzAmoAsv1L1uj4SfTE/iAeJvfi/GD3KL7o9+FcvPzN+8b/O67a/ABeCvWYcgL8Tov8/o2q6P0ASrT8NdKM/00pBP6v2JUCF67s+mTT0P0KhFUCGIQpAxkoHwM4pHcBp+vM/Zuj5P4xm3z40Kuw/Xl71v51eG79Da0DA3Nw2vyKjQEDmFBDAQxyFQKnHyz8oyAM/8JkswGut0b/NnG0/5MkIvhnoIT+S9yi/08dcP8wrLcA1fgQ/cN+NO0zI87/ECBa93EkUwPzf+j9gbgE94Jb0P+giecBnXBy/GmcawO/Abj4mFUc+Stipv+2q5z+uXcO/ZRsDQM8J1j1I8lk/DMhEvlv+IsBciwjA4mhovi9lWECHFdm/4MiQQMA2mrvWcII+PjuCP3q7G76OpTm/KMfXvjjN+7+kFyRAsjKtv+Udjr6/zpO/VWfXv99LK0D6o34/hkY9v6BiH77ZNJE+VlIOwCGlTz+WMdG+kzuxvzVLs7/vbVi/ML9IQMRTJT3oym094C+Au2qN6L8Ksiu/jm8jPfjUbj8J9B5Ah0gdQNPnxr9ihyXAsrvLvybJdT696B8/a9ILP7OHsT+01B9A0Fy4OjLUAT+rmJ1AWppVP/Pfj790zIQ/zCXVv+CxvT8NdDW/1AwZvp8FC0BX2yvAchKVQNP0jr/0BVQ/ME2MP/oKI0COsqU/6EbCP7Xqsr+mItc/Xxykv1yOAkBzW6W/LgLFv/HRfMBcPmO/CW3wPxAGmD2bOohAa+9CvyavRcDYZf8/3CvGv+UmNUD6whpAMKcQQPDfsr9AVwZA4Kshv+uliz8gdydA+mZRv19C+b8acUJAmDj+vOGJDb6GlW3A30oaQEB5FkBEdSbADsTGPXWN7b+9Y/C/J/DMP2eSEsDv6hA+vvUsv1zsBz+s0bE/mPt/wJxnCEC0Eau+yCVcwO0wr7+Wpu2/o00CQLYzZj/uBjW9R9LZv5DAgr/SKZW/RRwDv6qA5T8AVw7A1ndQP7ABKD8BhCpAx0AYwNGjq78So4RAtjs4P+mpvL+8/QJAQGH5Pegx6j/SuFA+9Y33vpikeb5Q8F6+h4LpP6Ast75sErE/QhllPz4l479KPaC+6t0NQKYQwT8IgfM/vCaTvuUoYsAWIfK/rKA2Puqw57+F9uK/DRyKv3lRCz9+bcQ/q/eKv0D42b+T9RK/FPV+PSS/PT8ckv4/SiJyPuAveL7F45m/kooYQNWWjEAaNkBAoKatP+Um4r8+VeY/szkgwGT/lD+3FDW/xiOrv3t5bj+k4+s+GFzAvqTJaT1uXGPAmMaRPqmopr/P8Wy/C3WePwjAkT9w+VG/0NrFPpun878jNMc/fpJGQOzV4D+lf6E/AEq7P4i6AT+D05+/UmyBQAXra7+NC4S9zIFKP4DYpz92Oy+/CNxhQIy6nD/6b7Q9iQTaPunDScDhAna/MWcNwLssxT8U/S6/GWwHwEQMuz/ODqg+II+FP9SxC0DUrDu+iSIbwFLpj7/QLw5APEtxP0IRm77BDABA44s6wLCTlb/iaUzAZUoKwHi83L+Ufsm+7NyRPl7xS7/IczI/fpKTve5FiD+1a+0/co5+Px7GtL9qVWHAb0i+v8pcrL5CO7U/IoTKP5gT0r6kNFc/2WbAvx38RD8wIKc/LtYpv92GU7+CTe+/mLA3P7f+M8ATFEdAcNxWPIi0ej9o33k9yePrPl8LNT+wjM+/GsiDP6SzAD+iemw+BiPSP++A0D9WKb8+k6Y1PzYuPr9ln2Q/gPVaPLKCCEAqKBg/"},{"catName": "Kocour", "catImageNumber": 3, "nightVision": false, "outputTensor": "1sEpwD0ZOj/AfxxALJKmP20ERb+ZFmK/4Q4nwDjoJr8DnWZAPpsLwDWbl79G44rAfd6BPvZRoL8QvURAzvtSvr5je8B7cwtAhC68v5Pogz9aQlLACTMuQK9WuT4h9KW/ngjIv9Ufpz6+4c0/p7kcPxcBDz8lM6g+Hw03v9ScosBbVDc/uvANP6yWKD+w3FG/KCkLwEuZfr+wqKw+yi+Hv/88I8DcVVG/YmwaP5l8oL8WTTlAaYucPma2iz44Ppi/Wt/NP8BY8b24f4q+FGEHQB3XxT8K/IS//NEuQPqK4L/BIABAeIMmwAZ4KL+mppS/xB47v65Jsz6pmFXASW8gwPVWLj8MGYy/97kjwOv9CcD+7DpA0USdPlJTxb1LTNU/jyG2v29HMb+KkbG/2g1GP/kUZr/B5grAH+5QQDDaY8DwRcC91K2PwAQDxj8PukM+rxVgP43o+D/g+9O7sGgkvfrmij8xPY6/y8GuPtVupb+upmo/zJDTPyJ1cL8fT52+cE9bP0OJJD88VWg+e2BOP9wVJ8DYSrk9pfcVwN4hrj6Gmda/3+pXPzxpH79A6uq/zp88vpCEkL/9BUhAoBhTv7ORwL/AT78/zJMbvhL/iz7cnjo+LFYpPhfljb+GA5O/q15YP3xf4r8MVre/3+AJwPoLWj+1RpK/ECk+v9N6esCXq2HAxnGiv394KEByRCHAHnCvP332mb/acQlAB82QP22sPUBgUsY+FqIcP3KxbD8JcRk+LeTxP3BqhMB/bqm/gLbVPdQMSr62xa+/7zzhv/NLlECI5oK+lE0eP/5Flb5oVYI99TBJv67uWL9i8QM9pHtcv1qdxj8eW4q/wjACwDthJL+6P/6/n8MCwNdoCsDfa4C+y08BwNCFQT2cca8/Hj1wP9meCsBE0ym/CSNMv6AOCcDGo7a/Lh7oPqkv/D+Yw15Ahs/Bv0O0E0AI2qS/eMlkP8heVEDv1zo/PbWzP13DHkAVAyrA8paNv0W1AEDtlIs/lHsNwFp8lb91zLY/qu2BP5rr8r1GifC/nrQdv7gVfb++sANAJqCbP21pA0DbvA4/GMs6PuOcHz9faa+/v5YawFwLJz6JU/E/6L3Mv7vbGL/APc4/mpgRwKwMoD4Ces8/oixFv76uzL82izfA9+jsP7e/qz87OHVAFJgDPsgDz784a5G+fXNcP7s+779KVS6/4rEdP+juD0BtTiXAOXhHQDi3Fz4P5o+/V3QFQBGOT7+g5TI9wrAEwEBJoj9Jvcs/dnSdP8YTlj/u9nq/0RwvPxLKqz9Axeo/x++0PzL9B77Qh2O8wBW4PxZJkz+tfPu+APJDwML1SD9a00dACj8Kvda8NcBecjQ+k4HOPq3oXsDiOApAHobJP3R1GkA1One/wA6UvM7Q3r9xtn3A+iHsP1wK2L/0/03AlOCeP5bLEcBEZB1A0rcPQMC5tT/gTpS/iC5HwC6LQED0kpy/o6uVP+o8V0AQ+Lq9xYaXv/0FG0A4S3HAlVQpv/wsuz9hLx7AinuOvySVJ75ZahO/LD4+QEa8G78wkSE+2PmBvsPTHUC4kzM8oOVkwGe9Wr8M6Fi+VRm2P2C+E7yoxQBAlJPKPzy3AT8N3hlA7LjJv7kIDMA8V+Y+CdqKP87i1j4l9qg9j6AbwAmvij8Asty7AuhlP+J6mL8AvIQ/4nW2v6Z9HL+orSrA00xcv45gFb+oJ58/xPszQNj3Bz9Hm5w+DNTFPyIZakDZSZQ/kGYbv10LIT+fST0/R4/9voMxA0AKiLC/uOB9PoP4CUCYWaQ/lcPmvySiRz91VVNAlvkNwPN/m0AuCGjAIEPnu8ssED8lXpM/utqRwDfIhL92oLU/XzA8wMAUcz/mTfe/fHxJwHRL1r74cCrAPOm0P94EQ0CaExQ/BrJCP6hrHsCwVXQ/PHchv8oasD9d3LY/Vmp0vyMMPb7Ocg9A+1NjQJBWX79KpVNAFoMPPp4KXb/xHwxA9t1XPxrl373XMoxAmJ63P80qwD7dYRq/GJZev7uH1T7grGq/A9RYwL/lUUCi04q+nVY0wNSkBj+TBuk/LCQ1PhkllD9QbTs9ITTev7mHBkDcyLk/2w7gvx47ST8GOvI/YWyNvqmO8z6wQkS/yeizv9MWy7966+i/HbcOv3Q6kr48KnQ/MKcXPzhL2L+QNytAUlOhP6Ajjz+MNCLAvHu2Ps4mc0AyLaC/8E9Zv1UZu7/59NW+Wkqpv/qIXT92FE4/hbZ7QPWGPT+2EWdAI59AQEpGoT/F8yg/aCANvs4nw7/gdu4+vH9cv71Duz+l6zzAbIhdP+lJGkBOPU3AqmwJPqIKj76gbum+cMrvPtyEET5AoIy/AKLNPap9qr9fOtS/XIzIvnVnAcAormc/l7oDQMVfLz91gbw/EKKZvfZeD0B2RFE+OI4iQMo71j7IO/I/yEkZwMlFNr+WIO4/1HBWQFU0Zz+nD6E+lJvzv+5XCL+nXkfABB65P7E9AECKnEa/kuo6QEDrxT4qdT8/RLjqv+FJ9L9Ui7I9PPi9Pnyo+T42Rkq/AHfjOxGU6L8r7D+/ZLEeP1vcE8CU2Tw+g94nv4GlMUAKbu0+T5UvQN8ZccBcLka/Mg1rwA6crD6UoQI/6IIzvwCgWT9KIZa/SFLRP5ajNj8uU6A/Mu7mvxEAlr/ghFu/Fzf9vr3fK0CSuLW/2KB3QPrJuj+g0Ym9Ah2VvbVZwr4cGcS/Y9ZvvwLPx7918R9A6Z3WvuYFtr+Yrc2/hsMpwHYXZkDdmgG/zNoBP9z2JMC4twA9+Sj2v66P+D5OsEO/hsZiv11Qjj5zPArAYIX+Py4OnD/miTc/ive4v8W9LcDn/M2+cCSMP44bVT4VvhFABz81QIN/McCIXve/QIHnv3blsD/aouc+SmR7P23ezD4QzzxAvTIcPsYfhj6jLCVA/fGqPpDfOT7A77Q+240kwHJUCUBKxVO+HNJgv3MLLkCqLI2/n8OJQO6KgL8zuJI/Ba8ov9m9NUDMhro//lmyP9C4Eb+epPQ/EduBv1kiuD94Gbe/hVk5wGE0ccB8ie2+b/m1P8plf758urhAv4Hvv1G63r4VZoA/iAo0v7rZhECWwoE/tqxRP/pKjb9DFsc/1nK1vAjNAUCmJpQ/MGaDv+uVP8CCmhFABvlTvmPwKj8XdkjAaSCAP9iR6T/GC0zAWvUnvz7GI8C4986+wDKnPtgyeMC5/Am/QIzNv0T0RD7OZqw/2s6HwMSkCr7LuKC/eltJwD6EDsC/g8q/4L9QQOhodj49FYs9ld3Dv1Zn5L6n302/WnMxv4YASz+rEE3AKwjLP3IbF76ql0RALvpDv+LNJ7/GRRxADPVsvpOdAMAohgm/xS2PvrBVdT/8vne/yM+CPiw4qj/As5G9mXLhP5wZuj+0bAFAVrTHPz0OJ8DtDIq/F3MfQH6QSD9ld6A/0P41vb7kEMBTpRjAMBUpv/YLCL9WJ5C/JQG7v8IZfT8rvRFAGdLlv1d2Vj7/7BvA0e8gP5979T7aryVAW5P0PRn4Oz/gbI+/qPcsQIuAeUA60h1AT2UGP55BEcD7D3w/J9vPvrBdzD8ai7+/eK5Rvgk0PD/D75g/WoTTPk8lnL+ifQXAotyMP1Y2Ar+Ip/u8V8MGQDXjT0Bijh6/HNwjPoXjAsBj/G4/tM4bQL8hAUCgPoI9lFJmP+IwoT/8QaG/4QaRQADUK752v9m+dxCNPy36AkAEfyQ+rt5AQDb2CD66eIi/udUwPsKAI8AbewG/DF/4v+ERij84kpE/S0sOwILbLkDONIu+cKBqPxIrQ0DNiDo/Evf5v67Ay7/a5g2+EweiPizhyr6h5kRA5yTbvxIKJb8k/jbA5EXkv/4FEcD4FFA+4NibP9x4xLsnXwlAIr5aP5X7c7/obD1Az8bcvVaJJsCQ/2u/ni7EvwxwUj9YUow/6uMAP8FJ7z4Zf5g+lqQnwFusgr+S98I/4YuUPkqw5L8uca+/uq4ZPxol/r+ZGYg/9RwdPgUPmT/CDQY+FOCevbWx6DxGd76/17kDQGZ7cj82phO/oHJcPxevpT+wwx8+4ICAvVAwor9O6fs+owCjP+72hz+oC60/"},{"catName": "Kocour", "catImageNumber": 4, "nightVision": false, "outputTensor": "ShkAwC5zgL9y0Ok+SZUsv55Aob95BkjAqI9XvtNGxD9ZzpE/5akHQMbI7r8xQwPA0azVP7/B6j4kb74+6BH6vyB8kTyZ8uC/ZXsGwNa8t77V8ae+3kr6P06V4b8+Ucu/uE6mvzZWAMD4GhlAZAMbvt0Cu77DxhtAs9kZQGWYY8Cgfay8udOBv1byEkCQ2/q+gLXOvqTTl768yr0+wVqqP2kQz74z/yJAFIm9vs6z/79ofDVAO0XYPqzjzb8Vp82/csL3PhjcxD8KWWq/3pl9v9agWUBcD1q/0h8cQKpSej6URAZAp7+rvwbwXz99qpu+PUnGv5oZrD+v8F0/sadeP2m7AL6FnvO/ZqM6PpI2rT/c0Ta/rG9DP8QNsD5x4fs/VXtzv4GnJcAWezPAGGeqvtC1XT/fBVa//LjTP9ytEsDp+bm/5NxBwJDC8L5sq9W/vuSUPfkuq75vFP8+kAocvgNRCT9njZG/DSsAP97FSMAg91M8qE/Av1VpH8AZ5c6/1PmCvUt1ur9wO/K/Fgi8QKv/k8DkrIW/o+GwvnLD8r4GSTW/ofqxv6KSVcB4AcE/wk8/vk+6Fr+kEY09jSTAP7j6Ob7u6Tc/iU9MvwfoPL/IphxAmke+v34fKsDpwck/UWsIPyFVT7/V4YzAJUoXv7nDKL/wph49lKAHwLOlPMC+0nU/OFTZPxzD9D/e/nS/7qaFP1CmQsDifDI/VmUoP3rygD+3g+s/EFr8P+CKxrwHsnU/nL41v3OSHcBnI8i/RWrMv1xssb89f+W/MUczQEp5WUCEbF6/x/lyv5fbF8Dq3Ra+JXoGwK/krj9ZwI5AqHcgPtTOrT9S4yE/VamQvzXXFECtC1zAWLRgvyHAd7/v3CG/j/WyPjrUsj/AS1FA/mViQPBXqz/Dxsy/Cq9aP1aulr+0+I0/uIEawGxErj+LjxNABgdTv5gU979MvQw/U2HIv9aa4z7gNIQ+1kl2PwFvgb9MU/6/en10PwB1pz0QGcS+zFmyvw1pp7/SnjQ/lXrMPhpV+r416yPAEx0FQNnWYcBvCEu/YXxzP9bUtr99KHtAudeNv0q/QT3B+xfAMRpqwElMVD+BHZA/JXABwEo8fT56I+M//jrHv+JeOr+GZ6g/Y3O4v7o4v78DMx/AHn9lPxo/CED9d1u+drfBPjs/179VvRq/oUgFQPr1ub7iZJG+ENCRviLCOj9ed5G/x/C0QJ711T95lIzAopYzwE21NT+MGRG/x3whv7pb+j+bxuu+ArvCv9mkdz6SjUQ+bEVXQHmyjUAUO92/9tjjP6hhD8AoDLi/Gpb4PrDvRD+dDFw/y2yOv+RNhMB6UIw/5MAOwCpP/D//hYY/Xw0PP1O5HD912c4+Eog/P4h1+70wPu29E5Uxv1oO174JsoW/q2JAQPGHcD+FmBzAOw7kv3F5r7+myQI/vtA1PyWNMUC6cFG/tKaOPjCQXUA0UB/ATImmvs5t1j92wgQ/Zhfqv6W4BkA+L4W+CtafPgG6C0C2S72/ECPLPmzVJUD4nqq/gnNPPwC0Gr8CfsS/si3NPuI9Dr/Q7Bg/sDi5v86IpD9SzRDAzNIgwPdO9b9FOyA/nq8GwBuTrr/dxLA/vbpTPyACL7+urfW/DBJbPxYa9z9U/F6/nblRwDWXbz+UMzK/sTt5vygaM8BFHkK/Gjebv4rBoj6NRYw/ppDXvircaL+CSH2/SOj4P9ZMo7+s5yi/hmhtv4J1UEARBec+6kI4v3WXI75/OS1AXBMSP0KOHEBfQRU//VDYP7oLhkCbZP2+OHUhQCat5j92Mfo/5uY/wJVuIUBeCkXAKjmvvxj2kT5qbtu/g2bevwbRZr8krgZAkSJmvkpjHD8sq1y/1HGNv1bqQL8PqBTAcIwdvStgSkCJ0eg+C/2+viIzRb8rYxlA2DtKwD0mSD8jv4S/4tVvv5FM2L/wHLG+ZYEmQK/0AECvFe0+6W+eP4GuDcBuYo6/MOphvwBgO0Cai5NAyz+DPo9jxz+KlYA+ipeVP8OlAcBIOji/z0sFwKNW+T/nXt0+ZQgWvwx5Wz/AmN8/FwYSQHHfxz9V16a/fHJvwCuPR7/A5UZAnBtKv3NL4L8Ancg/hDGfvxxdlj8Safw+WCw/PI3AGMBnh0zAxlq8Py4oM7/70XxA+XIFPwKZl79U0ypAfEBpP/pGvL/+A1U/cJx3v8O0ikCpt1PAMjN/P3YUqL5yPxTAHkEjv24R0D/fRSRAuBIYQFv8pr8mylA/GqhwPyX1db+iFNi/KaEMQKqW/7+ERTY/KM+EPfMUhz/dNpM/CXEmvx6bsb0FZs2/cSZGwPrqyL8M7GPAaPbNPfoh5j+Lvpa+iedsP/gJgr+d4jS/Ess3v7FkPj+z1La/liSQPnFiIkC8Jpc+yhygv7wCpT1lsytAvjy9PgsEWz+kEkRAT+9Tv3aSSkAF9ANAlAZuQJj3IED2yrW/6V6MvxDgTL/M7X6/4simvjyToT4mSHbAuUd/P+7/+T1ApBq+TZuLv1C+U8AHaVFAsDoRwBId6D249t8/PLMNQIJb3D8PySU/HqJOvpYWzr5XhwbARNksPBBRoT0Sry4/f4diPwTFJMA7PM0/XMlTwDN8DEB9okhALjEgwHQUDkC8UNy/c+02v5OBGb93YIw/3BPhvjTJ5D+Q03o/XTPFv2TfKD78Dtq9Cg0AwMJCz78NiZC+uXXUPxzTbz7ICtk+9Ou8PqJGKsBdogxAEKaGvvIr6L+e8z2/VtNlwKGytb9a0SI/ZFBav0qNnb+AkBw+b1c5P1XcNkD5H4O/8lXiv37CZz2a9CXAZ+PXP+zGq77X+Ni/KDIFO5JAlT8VZRtAPFpKwOD237zM76Y/QGzAPb6gMz8mOIe/sEnrPVJ6tz6aE8c/Ws8lPbfCEb+wjcY/rEJrPzH1DsDUOm9AeOxcPUZ2wz4uQDtAY1SOvydFFEDtJ09AuVeuPzJysj9uUae/Bv4XQOYwDMD29LE/dO6+vw8RxT/9Pak+yIeXPwbDUL9/gEI/sOQNv3ghEEAgtJ8/ZnCwvzPm1T4EWWQ/aNGQP6YYjb7KkVJAJ3f5v5E9VL4Ou/4/C8hHvixhikDiZ1I/yOTqvqHAer8iKjlAjpULwGroMz+8cL4++HbMPe8xaMBSAyRA+h8Bvm5voEDyHmm/zGxNv/yp9z8nhMY/JcYwv6X+GD/fOAVALkEnQAnOIMCkZZs/uK6TvzhdtbxUAxk+gBdsv2BKyD0swyW/luKWvxoXR8BiEhdA+NA/PtYPJj5qoyjAya62v5QLDT0IPWxAjxhQwBILkj/gyns8BHwOQLrPhb/yWRI/wFdIvUiYkr92I7Q/c+89Pt0LFMAOMgM+YqPgP8m3KL/NRwXAShGvvGzMkL+YqgLAa9zXvopP+T8twylA793VPkaTNz/5ewhASYOevrCGDkDp8M8/zwcEQEBpV8C8Ev6+lO+APXyEIsCANAfAaiobP/l2iECp5Bs+7GI+vq6z4b8OT9A/5T9Ov9+WEsCkL0Y/1XVCP6zrnL9j+vw/Wi02vlZXCcDYsxU/GyPjPxaooT5UHAZAfE4iwF5FF0BAj+48dp0sQL65JsA+9ps+/JUoQBvwGr/E7S/AOkQSP2IhE78Q9/o8AyLfP0xX4j+GnQDAEG7/P+BdH8BmRghAIKaevvwGQT9Ux4o+9kcPP2alN75FewzAp5i6P1Jejr+u5iLA3TM8P1KpXUBQ1BLAXBxtQCVwcz2U55S/+pCXvqSu/7+sg+G/Sn2ovrEZ7j+hB28/tVypwA+aKD8lkC6/q3ybv5iLYLyTVWK/8o7Pv2CbOT9QfxC/PKTqv68ME8B3T0JA2VBlvq2g/b+x6NK/UdrivxqY+L8AQpe7hjXAPTzVrL4SB7E/o5GAPz6Dxb5cYA8/7+94P24EZr/oJ+M/wC74vXEKxj+c1kO+GkL1PmlYkL6Fx82+pCbtv6quFEDWQeM/b4ZZPypTnz6/VIK/rNgFvq2ORT/KmXM+iV+ePutd6z8k1RjAiYFYQLN4Kr9e38i/ks7LP0yZUL91z/I+T8YCQObByD8YpAg+6pm4v7i7DD+qsOY/4HGePdYKnT/6Yvo/"},{"catName": "Maugli", "catImageNumber": 1, "nightVision": false, "outputTensor": "ENj9vbqbhr96ifC+5qyFv+BGGkCNeSI/jPMYwLxXGUCzNui/iogHv/or/r8wg7I/Wmo2QCC+uTwgLaW+JXIPP3k4ur9emvE/pKd7P+hLGj9ewOa+rl6QPxVsOL/vRLE/1ZsdwPnMRL8UVDpALpfLPwKhAcA8qz9A9CZKP/sVsr+hpvE/goEsPqbrTz7C+4K+IAwBQNewEcA4L1A+OVISwB6NEL/QG01AVaK+vgxrOj+m9LO+POMDP+Ms+b5vREPA3EZIvnsIFMBeCA+/pXqPPlcrqD764RHAYZRhQHvVHz9K2GM/iFCMv2IDuD/bMQPAwHTdPySAar9l7EG+vOWKv1Uy2784OVq/jA9NP8Sq+r7qETi/KgK0P4gBSkCDCY2/OJ6SPiy58b/Q5QbAQH4EPHJDZD/6Qpe/symiPx/sH78Mfli+ZCUVwMc7qz9kNZ2/3qJ/P1V4vD6rxME/ABqovoTZvL+wcEbApWFcv8BWBcBwQRhA+FrZP6yaNz9GkEU/qbWzP7Vuxz9wE3nAqCwUQMXw/D9irGy/70k5wJ/HBL5kQYa+RtRhv/I7zz+wqwC/6qNYv0iNuz8cmYE/M0miPvDz1j5vQ76/F9aGP51q/z/Wm4e/xrAqvn3PHsDWSL6/nhervyHqC8DpmO+/sgshwBbKnr/XU7y/7700v2VKzr/EihS/glupPx7LAsCY+gbAJxUSP6Hyoz+AtFW8YJYXQDSCMj9IGxK+GXfNv/yIVD8gzADAhPULQDwKDr+iKmC/AAw4u/WEAT+5ubO/ePcZvABqwb7L3a+/4n0EQBz69L9KyxW+KSmJP5hgBj36I+g/pmN4Py5fD0Dh/GRAszs3vzDpnT5GZOy+Tlalv1793r7oSAQ+qNYTQMLt3D6xJhI/bXKrP4nOPb9vQ1q/pIw1QMQ+nb7F7H5AjPJ+PqZFQsBsPFY/8BoBPvwryb/W0hy/d4iAPtm1XL/OErE/AHfFPd/Z6r69FNe/ynlwP5ZxAUCNpZS/03ravz2OlD6Ai/s8Fh8CQIPpm7/QTwbAwTwAQCdCFT9QmgvAqYqbv46xqj525vo9XJ98P1ZqOcDwnAq/p7B+v2EXAL5WoNY/zsmjwPj87j3y/qc/zPpVv4sXVz4dsa4//ucxvioT7r9g9Eq+e47kPz1agj8Uz7q/86DGP7iOAb/wZpq/MU6IPwlqLD4Itra/FVdmvzlIFj9HJxVAugo0QPXyfz/wdhjA+xmuP11Spj+tGUs/oCuPPZCwQL6iOkLAQsAkP7J1rb+xxpK/HM5XPnrkYz5cFKY/qpb8v3BR+b5kJdQ/80IMP1WNBT9hOeQ/ZvolPxD86D9pjTS/1ptXwCyEYD1NPQe/jgs5v6O0v7+Gj4NA/D4gQFaFwz/4qDLAeSMfwMKxvb+k8aM/0K38PzCxmb3wUM69BCZFQHOMlr+doS5AJbfOPpQc3z+unqK/ANbSPFD0XUBs+pK/HzWWv7QxbD8Co2S/QCcrP7/APj+CDifAg2ZRPjEcjj9mEKC/vraHv6QzBkCliqq/PEFbQJJvW8D/7jm/Ye6svvJpG7/qaJe+8nw9wPpHW0DBVFy+HK1EwCSIbb+hwtg/1kGCvolB8z9GPMw/Hi3hPrw/g8DIZNA+vNm9v1wlwb9x1xG/QpeVvyOenT8cHNY/t2AHv1Hxsr5q8K8/gfkEPwWeVj9Kx0A/0HIfPlYI8z+JyYk/UvkoQP5khb58fv6/PtonP/MAZcATX+Q/9YHnPzhU7L9QiP+8Xof3P1BXKb7ulrq/yHGRv1WgI0AzH/O/HB9JvYAkZz3ct4S/yTumv+zxAj+YHfq/ZFwtwBDqsD9cJD2/LLSZPnxggz62dNA/bq07v1iIt7/4ABRAOvNGP8Vn4L8wnFm/D8M1P4XmoL/MRvK/zGH4vumIjj89DAE/7h49v4tCBz9iuvq/fPysvrWFBkDmPRdANA6aP6YXYr/6EBdAcPAhwHC62r+M8LG+xIRFP5XEAD5tTJ4/UIW4P/lNiT6dWYW/xofHPgnoncCgyHe8rX0oPzOy+j9FoIG/U2R9v7Izlr5Qa1K/pL6jPx/Z3j/FZ8c/HMYSP4Y47r+V0QFAEqeGvsG7EsBci8c/zU1owKUhNkC3RqK/TrsfP0jaSz9S61jAgrRXQKtSJEA6PgLA2mTCP1v/3L+/T/W/JbhrQHIt+L9xXy9Av0eSP3aOIL9hIT0/dfHvP3LYIMBMUj/AwTuWv6gz1b+8jkY+IsYnP7WmJT8vHy8//rL2PkgRwz+zMSxAMKY9Pp7kQL8/aTdAKy2fv8QdvD7DvhNARoPZP4C3I0BewDHA1SJuv17Qob/yWPc/UFk7PSy2Mz9ANifAzWTbPzXQ+b9qSSC/xA6+Pu6hTkDUjk4/TsUcvo5njj8g8A8+dsuBPwPsC0AdI1e/qwdqvx7LXD9/enM/BOGhv2Kzg78LqrC9MfNzv1KIXUDauv6+EJcbvi19YT9mfMM90//pvR4f6T+mI9m/8FBMQACe679ONNk/m42lv8QHvr7jaGRAyZjQvgn9nb/TRXu/Qo18voDmHz9y7YU/iEeGP6KMer80E5M/wI1aP8YIGr+Q2Xu+dRFOP7ycLkBIvk49rF4kwOQEer8suhFAruLrvlzetr88IEc/ou6PP+F0iT2xd8i/Ts23v5Bc6jzkC7K+4Zbnv/bvWb/BNIPAhdAvQNjZscBS9wPA8LqQPeyK/L+wGDe/W+vLvcuW574H8BhArASCwER8/b4Ug2A+8HYNQN01IUDNQxU/yAAPwCxJn780iRHA68ntPTroIkAjH5O//3uVPmP2dz9A+Pc9sJGVvv7jI8BU4Z++BsEFwGBHSr8w7gI/sqMVQBhVJT1GRDZAyf5HQAnRBsAQoYC/Upm3vqnBNT+/Ziq+2/q8P7gYTr8OF8g+x+VCQDixnz9YZpo/DgViv+muxr/gjrY9Wnb2vkzRmr5e8sM/zEiiPxvkjz9rmDnAzuDrPx1gNsA2V/q/yrRwP3vsG793Vv8/SPxSviRiqz2DxBRAqhBMv2Ml5z+/uwvAR0JowE9LNcAU3Du/yjZiP/5rmD9k3TM+5aahP1YxPz+s4789VpzJP5l7BEDX4UNAiQ3DP7QW3T/+/ws/PMfhvwH0kj/6LTlAE9+7v6iQdr8Yrq8/wR4+P4HoXj+rYU3A9FMgQFgOyj9i2oQ/qAebP6jeoL8Agqc9BiUtvw5Ygz8hPIG/nJdOwP17XsARj30/ZFsdwAe7GcBZkfM/KRBUwGGkSj+vTFc/pkcFP62ltD+lk0NA190JQC1PI0BVE2O/Q1d9P6WzZUAdsRHAIpQpP1IaTr+U46U/qrcMv5Z0gT7lTWFAGt7WPjHzH8AaswfAlJHLPy47rj8Jy5w/tgsgv1phxr9YOsu9uKQHQInkFsBuFZJAiI4APzQSWMDwb9a9sX0PP1l+3j/icVC+sdgGQEDzXr/dVDfAHI3hP2OPqb6Q8sa+9Q7Ev8A9sL/D+LQ/ptwKv8HANb4AfUS+ISMhP0BYJD7J0Ou/6GwUwKav5T+DghG/32VkPn7MPj+t6YU/nuXBPYU+vr4f5ABAQznJv4UIZb+2pOc/enSOv1Biqj3BkQi/ZUg3P1mjkEBpDEU/Eqa7P58zlsA5dWlAUhW7P2Oaej96FzE/1M4hQDeOrz90ncO//KUtP0NcVL/q7zhAezgoQGl42L8dANo+Gf+rPyyKnz1Hs7u/sG/fvvP4iD9AJpi730/tPyw0A0DSK66/qWIEQKpZwj4o2gfAQU5WP8y81j7Ftna/UwzFPiQfH8BKYxG+yc/jvw67aD6mDrW/WBMMv03kKb/mYxFAToNZwCcaHMA9Jx4/9JZDwFbWnb9iCEPAwRjgPtrX5D+iAYU/9NBcv64DYL9KXJK/77Nyvzteob6+kixA6CyxPmuIOj9HAJS+tqgrP/KOQ8BugL0/mFzrP+eH678yMY8/5/YAP0LAUcDyXcA/12Ygvpcq7D4XZ8i+iWx5QFyWsL+Z7iNAPwIJwD36s77PUwXAPE0uv2V0mL9SZI6/fyU2QNCMM76O10g/0oQiwKGNBL9WD9M/EN92v31WQsC38Lw/pSmFvnLPtr8Hqgw/"},{"catName": "Maugli", "catImageNumber": 2, "nightVision": false, "outputTensor": "aiYdwP/dSMAD3UI/jOrxv0rZSz50Z6Q/0MP1vgakN0C30Wq+Ej8qQO3vAcCDRHc/wh50QHVRBkBugoe/J9MIPyBXyD6UXM8+2vitv8IHHT+1142/mHjiPYKvHT+N0re/0MzFvyVNIr/2fQ6+3obAP2hEBcAqZT5A4mDbP9DNmMAzVgQ+6qQCv+T4Zj6oeLG/kU1TQOovtL/exaw+LsaBvzgzwb30tKc93EhRv2m6g7598Di/X6SiP7ZTVMD5IZfAQg+Hvybxd7/0UW6/eIMtv9ePzz44LTG/HvMeP7RC9j8Tc6K+rkGAvxIn4j+n2Zu+VwFlPwYTET+ulZa+UrrvvwvjZMC3koC+oKAPvYxCpr4mYfi/2s7lvrFDpUCwLk/AMRPzPy7Mxr8gOoW/KIMuPnZZ5D9g06O/otUEQPrvxr5DXeC/ie72vw2lTD/iAQDAdAcSPnbQO0Cu2gvAvGzUPqhpy7/KYfe/WjQbv9arPsAVALk/rJabPyDjvT88+I6+gCw3O+CS4z98awrAsRL8P0YysT9YZb6/4jsewN6r5L+2yLa/3bO7v2jkij58eADAbJMxP66bBEDc3XA/dH5Sv553uj8UAdU+3ZgFvy34vT9yRQA/Cl44P4JZwb84pKO/koquv+iOvr+f9g/Aboyvv0MUyL9awIs+BQvWv4RNLsDffKY/T3BTPxQm7D4dnoq/pEk9vypH6L8H/aO/XlX0Ps9JAkDz1QG/KYnfvgCltD3SdLy/okAIQIbqoT9wjQvAbH87viYe8j7zi1LA1PxPP0z9lj+fYh3AY18tQID4h7/M2vw+xHGCP8ApNz+ltAA/ACPhO3PEo76ExDRAVxK1v8otJUC59RLADs2Hv8AR5D/54iFA2pvrPsCzV77snq0/MktPQNosMD+PKR3AmKR+P8BGRj8tcmxAEkvpv5LwCcBIU44/2GGcvhXKIcBSVxfA4BN6PySELr67WUc/tpVrv/yDJz/8Q1HA0o0dP8bGEEDmCNC+Gu73v1yhg70oOWM+M1PfP4mg+7846cW/fSxUQH1iw77CPy2/ruauvjw/hT5oXX8/uCI4PvqEdb/a4l6/OHDsvdzs9j/wDS6/OQ+LwNkG5z+o7c0/BGbiPo6IKz+kBQBAEolcvp4KBb+TjEU/9VeQP3oyH0Cok4q+LOcpP7x/EUDQofk+bWXRP7bRfT/CZ2u/tPCzv0h0lj2qzSs+DMP1P2saKD/0BgPAwQiuP77Zfz9ypxLAOpmlPpQ0dD4o/x/AK65EP4wbhD3+/pu+plJSv9ZgkD6YSqI+SM5LwFa5VcAskVxA6Ec8vh4VtD+cYzw+teWZPjsznL9isNe/PbmQwEg/zj95jak/+nZjvmFKmj1ovfQ8o8whQCTfmT/MtEO/EKtHP8c1Ir/l1KM/Ymv8vQZWfr+kCDu/sgKJQGxSz75qISJAybOFPkvbeT4IGxY9yhz0P774M0CgUYA++QORP96AEsARq17AlDbrv9ApI0BqEc++diNsv0UJvL54PcC/0snCvzOa3z+KT2TAPNqCv+/6sb9j7zu/9NinP1k3fb+H4aI/M0muv5vZB79YFZC/dWKDwG1SkL855gtA4PO+P6g0/T/caMI/1Jm1P0m+ZsDYZlw/AAZUP8v2jL/k8C9AZEduvmgf8j0w65M/aGILwGIOXMBts05A9PITwG0iDUDJqINAjGyTP2tzUUD2dIc/IvcJQNFLKUAuUES/TqeDv/263L9x0xdAW3QnQK/HTb/8GaI/9qVHP2Hozz8yK/O/cnIewHtFFD8qHJ0/scLRP5rztz8ihtC/vW+kv6Y1Qb+4MTjASwpCwEDvxr5ZHZS9bq+JPobmSz+e8CJAx8L3P5BR2rvq6Lo/RNJHv6SoCMB5g8c+/NszQLnnUb/kBpa+9IDhvqHkxT4p0bK+xB5+v3jNxD4HpNs+ZJfJvqAALT/rBte/GxMsQCh4VL+8nx1AIBNJwEK0yr+Zgwa/qhUAQAdcC0B6/KE/2M2SvXC8dz+Hwmi+zG5dQH/zS8CAyby/Rq3nPcsfJ0DKapK/PjPwv0Q0CMCdi/A/0JwVQK+q6z65vui/NpXQv9OIP78JthQ/+Otov/s6JcCYDQtAfupLwJQRiD9u8pe/oXciQDjqvj3SjMq/f51pQEu5tL+0NKy/HqUQQJycbL9u4Oa+G3sVQAQPG8CSWGJAziqAvYOkTUD8OIo/gGAYQO/PSr8wKv0+Zd2Uv9yIxL84IjU/JTn/P7BvWMDMa26/EOqXPzXTLL9DlDhAlGXrv0miD0ABQ9k/KV+Kv1oJwL+wlgY+qBhRvzCEqrwnjI3AAX91v2Smgz4Iv28/dHGqvtAOP78vbBk+j7B+P2UQ2D/rtRQ+QGDjvMg37D8CZtq/VMFLvgIoJkAel1w/gJA8P2FQnT7QYh49yoqdv7wMAkCpo84+wO/Qv+ZSzr51MSY+VikXvu8Wgj8+krG+JxPYP1Wgtz8W2xi/xEDlv4KPb0Br8+K/NCRgQP8hwL+GMeq/iiutvraQWD9RNX1AVDhivlzC/76EemI/LBqZPnjLMEARjb0/Sfu3PmB7hj/Cu8A/NEo1PhI0hD+mvCbANiz9P3we/r7oXE4/hGIJwNSMsD4U+Ek/24AJv52rnT8Ztw1A95yPP+9vzz+i1e8+RaE3P2wUTb6tLvo+acASvyCYkj7YoS2/7rdaQIOcUcBpIxjAWUQ6QPqfGb+ksXk/elH5Pp6bLz63SVg/ashNwJwkFr/LWFu/kTM5P115kT90WNc/keErP/0U77/i27K+FVKHv5Bvqj/PbDRA7fmgv4QUDT4mcfq+nNUIQKh1fcDQO0Y9rNgFwGc/HD+Z8jlAJYwSQMZTTz438rW/k7Z5vzaDtr9hKx/A1PakP48CBUCx9IS+1Ak+P0vkvb7UhmQ/kTvbP/Jamj++Jqc/tFeOv9L3gL5IlFe/gPWmPHqIXz+I51E/MdMNv/Igej4vWybAABasQNm2l79ElII+ktb8P0ezi73iP5i9brswP+jNTz2Q4eE/MEhlP9yhQ0AAtl69ScI/wD5yzL8Cdsi/KjZeQDWX7z4GGg0/imiuPqwUlrzJVc8+dskPQFrEVL0YLiVAE5rJvjANBT69KT9AVLygPxhdMkAr3vk/xin3PrCTNz5r6eU+sjRfPgu6zD+b02jA2vzMP2oxMT9A6gxAl//GPzw2dD5Zmp8/Tx+Dvhn+B78BSaw/plEbv5vcOsAAe62/wofrv0AXcsAI/hHAfgA9wGarob9Gq0C/VMwzvphdQ0Cwz7g/DektQDhlCkAmHLa/RMbmvryfN0AHnSbAFoMZQEb8m79ADpI8fumpPwS9mr46wZo/SjVTv3Tq0r9ecXo/XeNLQBDJ8L+Pl+w/4vW+v4IiCMCUo/k9TmKqPmz7Lz4A2XNAvGSuP6m1o7/2o5Y/zHJaPimX8T+Ndac+x/aCQPIPwz1Y7O2/nEPuP8Tu0r/wVpU/RukFwGpi2r7SEQ9A7LVDviPaB75ADpe+mEiYPU/KF8B+dELAukFSv+qpIj8IvRu/xbgAwIozl7+u1x9AQKcVQAbU6r/Cqk4+Vevfv6jvjD9tzhJA/7IBwG4X8z7Un+e+azFgv3a1Mj88/lG/QFSYv91VpsC7tXlAHMDivo2VCED6r7W+63bsP+0QOD+wYOy9aFejP9zud8DqCCRAaOfrPmWVu7+daOq/MGE4P1u+Zz+YmxK/ah6jv1scpz8OFAC/xQL6PwlJjT/INca/8phoPzx9YT9Ugac/cq2Yvvwu3j6hr6O/yySFv0CEBL26hfe/OTkxwI6+nj60tay/NUG9v8BqoDyG8gpAUVaOvzxNyb8MlKc//IIgwAACOcCYYkLARRsawIivAkCMmxW/5varv6VC5r+72wHA8Frxv4OnHECaqaY/TbCrv1CmUj4Ga6Y/yRoWP9oVqr/kP7k/ZP3YP8h6qr9wpv6+rvdSv1wUO750rqQ/8CkBv1h00z9AqHm/XzZpQOkkZL5wkCI/Plbiv5jXvT5gU0LAXqUzwHLdFsBlhCq/5i8aQPkekD/hxM4+3SJhv61rfz60meM/JH5AwKzuZr/+FRjA1HYkwCSeEMBCNJA/"},{"catName": "Maugli", "catImageNumber": 3, "nightVision": false, "outputTensor": "fn7bv1HKbMAxY5A/lpvMv+PkLj8p58k+9bV/PrKlMEDkn6a//BnjPys6H7+gHSe+r3EEQNIkmD94meu/BELLPrgG1z4GahpA/EfEvr5fxj6uEl6/YKzMP2UYLL+89ra9WrBLwDnscb9CqLg/0NhYPerg9b9C1kxADIc8QJ0XI8BaGpI/v+6Rvhw8Xj445em++XkTQHQjob5oU5U+YRztvwHavr9dT4Y/g/ryv0ZavD8zni0+s1wUPjvtp7/JVZrABNldPnnngr9vI9u+hNzlvWhelD8okue/u781QBqFJ0Co+lM/yVWYP9iqpD9e3WW+eq3wPk/RIT9Ew+y/nNMYwCdXHsDGGga/H1javwwIPb+NUd6/sFfrv+VRf0D4MDPAmIiSvjJdGsBaNrG/lo+1vx5dBD9GjyvAs+8jQK6BhL63sh/ACRdZwIKq3j9DdZq/Hu+fv75/S0A+OWu/zltJP9jdvr8TS2nA+FcCv0CLSsC6Ats99nfFP+ZU6D8U+gnAuvLaP7iZHECeAK+/LBIEQHr02z8w85G/p5zivxSQCMCAk+48WQUTwEK7oz+rxeS/IYEwP+oD5T8MA3A/lyvYPsRuRz4wCV0/uvK5vs9iEL9k+9c+7NYXP2uCvb8lZZ2/cIJevRM56b8dt3zAbq5JwDdLzL+kSOu+VgJRwPn1O8AsZDG/mKI7P3lKlj/Dv5y/Qs3uPhyaAMCUph0/fsyNP54jBkAxVw4/V3Xmv+oQ8L5AF9S/hg3LP5DdKb9C3bu+sGEGPc+Qcz8lEOG/AYmrP3c6hj93aLG/nXb3P059br8MA4U/f9ZAP47/Dz4ZgXQ/ANWNvSDugj44EIo/qNyQv89oxz/amwDAqPHwv/jM7z+5fg9AKlsWPw+54r4s+mk+hAksQMR4sz1h5jLAHyIdQBEviD4gSylAuiQjv3+f+r+6cYs/GGL3PkqrTcBOQQ/An0K3P6hQoD9y2KE/ApwYv0ahFD8ZjYDAC1TdvhyB5D9pi8S/fc0FwCJBBT6YEt0+wrA7QK+uFcCu5i/AJJY6QHSQ8r/l/lu/WBd4v4l5rb84tS+9JV2NPiX3ID/kKo2/Uoohvy8iSUDbHNk+cJ+MwAu92T8XNao/m2xOP18Z9D+C4QRAvHjqvzLBBj7QuBq+dvx9Pywxvj9l5dw/7+6fPzJidj+b+xM/Z1QSQCYgpz92EWq/ofeYvyPu1D+l8iK/qH/tP4Bzuj9RtlTAnf+wP5JmhT+NhJC/QpQgPwDAszkFK5O/Zs1Bv5weR7/+tbG+b+eWv8fFEz/4vmI+TzYRwJtbE8CkaPA/6IJyPpBFBD8wsPA/Z/3mviXk279ItAW/6oKPwLW4Sj88f6K9yU2yv5RnMb1s9yJA9jlUQPud1D+aozPAPAC+vxCTDcDYNqM/6vGEP+RQ1L+YcMC/9pJ/QJRG8r5c+yNAJBxfP9aUOD8BiPG+8JG1Pi03QUCkWr69VRsMP3QpYb7wssy/Ck4Vv5ohOD+LWYi/ngWnv2O7zDx+4GC/wFxPwJQIbUBYG4rAtFy2PyFk+L+VjD+/OU5HQGif4Lu1/AdAhqJWvxKpWz0nn66+f+CUwDFLn7+RRRNAm7QlPdygqT/eN0k/sBuxPxK7UcCsQh6/WHgXP4jUCb99x9M/PYQWv5YoFz/YdnG+dEPnv2Rn1r9VjzdAaFKZvxJqqj+yRBlAwOFxPolLlD/U8XQ/I6Q2QBgSQT6+GwbAAE7pOwS4rr/BIaY/OyzQPtNJir/cqs0/ZnWZPh8EUj+qIGHA2SfHv+cwAz/XgSVA/MV3P9VXbj8quLa+fBp8v4Qupb1UrWbAz6Y/wDk/Aj+Aip6/QvSEvhbxUD9cJUZA4V4oP3Cc/bxPHic/Quwuv6hc479LHBW/mq4zQIysUT14PJK/7IIlvQozFD9Mx9s/Qkg2PtZZsz9mMnY+Z0+3vnf5wT8Gfbo+q8EhQD2SFMAbcjRA3ZYwwLBckr825dk9O8MvQFz8HkAVtSA/NnwJQPZ+cT5CRJS/PtIjQKXBIMD+8X+/fFkNP0sQGUA8CMO925NTwNMzDcAwSfs/1lbyP3YAVT+ZX4a/evodwGQn+T7g41k/D2HJvyYYNsAClxdAh2pPwPznzT8mvpe/HtKvP3oEIT7wcRjA3oRjQLD2qryPCJC/pijfP1eDwr+kLNG+1/4TQFfybb87nRNA+2N+P93g/T/1rrG+fuIWQGC+or+M1RG/B4wbwMossr/So2c/EllFP01Xn7/ZNbc/7oodvh8lwj4qTRpA9Ns+wL7Zdj9bzxxAVDsCv4Ek97+aWRK/JcWnvgnqfT8ccHrAnOpUv/zae77K3iU/WHXbPYNZjL9vU9++mPepPqy5sj8ne3y+iAy8PqZsLECuBKu/go4hPzCogkCAvI0/Bls5PxbYgD+yHkU/lHqhv49oxz+Z87s+GmCHv8R8mD7cvO6+ApzZv0rSqz8x9Qu/4F5lP+qM2z9o/oC/aG8Av8o7HkAaraC//BGPQCEsNb/s3cm/7k96PUUrzr82VZVAOg4sv7588r44Asg+edZPP8LMNEBETARALg0xP3CJaT9xqg5A+eYKPlId1j5HwsC/t6kaQJZ3hT9QXBQ/GlJOwJqKgj/rNV1AnBSKv3D8MT6S9l6+ZWkDQB+lWz9aL0s/0s8svwAEBz9KdXk/795Av2jFrj37B8y+7sPfP4lrW8BXfVPA3ButP700B780v2M/0aFcv/skpb9+4wNAJSN+wDCNjL1dZO++2CDzPitSAUAiets/SkB/v6K+6L/2nUa/LsGpvUFmaT9SbrA/xRDTvtKBKj0zJTu/gql2P2FRJsDJOpC+StVIv1h0BD9QSTtA9ej0P1D6jD0hgYe/HEqNP2hsLcC1teq/MKixP90Syz8xX2I/QnRnP5oujb40kxM/xqwiQMoJBECY+No/1J1hvuzMOb+Et6q+rG1Iv9z62D+bjJY/8FJrPnBuKz/gIe6/zECaQELvnb8UGqu+i7+uPzmVCz80ULo/PX6XPx3v1L5u2xNA69kwP2rfLEAwp5u+hn6LwLodO8AIhoS/HgBdQGJKlj4HvpE/AH8hPxvJSL+o/B49HFOsP4JPiz+59ilAiGy4vSe/GD/O+nJApw0UvmmWU0C3OzBAInApvyj6Hr9D878+L05gPpGdsT6biVLAQqoeQMI1sT/aCVY/+bEvQLDh77+unytApgiIv7Jwl7+CftI+FY5+vwXpGsCkeY8/955fwHrvd8BiSwjA1yxhwM0KC76tJ0o+jl2FPxiqEkB3juU/dSQXP++6ej9cG9m/GAoUP0dwBkDjbzDAU1UwQJvhC78YQJ+9bTFtPyVQEz+QptA/Q7OSPnFyEsC5CCK/vS80QJJp9b4NXB5AvbuYvyIyI8DAVVM/TJwBQEbyoL5varNAqFftP2jn87/S99s/ai9vP5y/oT+lmlY/icM1QHdJnr98uMS/c8qEPz1Ffb9uVaK+tr02wNSZbL7SzWE/+K4FP9whPb3ekZO/rBguPlCbT7/QxxfA8QK0v+Cf6j3Pz1e/2oiIP1AiBT2wfy9AyiAqQDRK8L8g9AE/w7VNwI7FeD5b26o/R/Yev7V/DECY146+NufMvrkQiz7TDOa//DAjv26we8BEGilASELJvrpKkj8Ipo49+VELQKqgZj+AlXE/bcZ7Pyx2zb88oxVAGiayP0lbiL+WtDS/cP6EP+wFRz8pdDq+BtIhv/fFVD+HW/u+RG0JQFzWUD4eIe6+xHSHvuNRkT6X0g2/oKdUPRFmhj9+w5u/jh1Mv7gFaz7pElS+WoQzwLAbbzyyyt+/gMGrv5gOOj6+qT1AT2EYwDSjx7+oM6c+2qQMwEFMAsAm+lXAOdm7vx+oAEAkfoE/063Dv+vBnL8teAbASFDrvq0w1D9r/A5A7iI+v3lwDz+cjVg9gIQlvXx9dr/O27k/bMzIPx4Ngb8XXfA+KKJQP7iUHb/qhNA/9spRvzkYbD8qwPS/ZbNXQIBenr6wu+q8GIS3v4AobT/7JkrAJVJMwHoQkb9UlYm/ahMoQJOhGD8ykui/pmKIvm7cZL9kib0/aPvov7RIhL+R9RvAP3fmv2+Dl7/g7Be9"},{"catName": "Maugli", "catImageNumber": 4, "nightVision": false, "outputTensor": "noyjv9w1d8C2xG0+wHY1wK8VjUB7Q2S/+BOivXbvMj+zVVbAX1hKQKXk7D7pOFA/fkGRPzLFvT/YXOA+7VgSPyTPDsAA2OU66qIRQMF3lz8nGyc/HSAQQBkhur8AZuI7a8gGwG0NC7/ihWq/BIsAv/QnK78kdKs/Doc7QD+AHsDnvam+/D8cvytawr/WmM8+VgHIPnZ5iL8Kr80+KjNPPr0Ah7/4cne/ZvhYvyoqXj6kUVU/KDcjv7KvoL/CZAU/4t9+v0rxZL9UOg2/KN0pP1Eutr3RECLAp7qUQNkMG0BoCoA/TSazP5AdX0BUhF2/h5AHv0wBlD+z3pW98mxfP8GBDcBM4tq9buoIvmUGMz63oH2/aDtpv243GT6bTai/kXmUv6IWF8Aqc62/vCssQEC74r1a8J2/2VOhP81Leb8YIuC/TKx7wPghEb93IJ3A8vLNv30J4j572CBAfARjv5VAbsAkAXO+/RUGQHqgZ8BwipQ/l1shP2aHCb+cEALAORQxP0Yjnj8IPQnAxH5RQOhvej96n96+2IChvz/qAcBoHXc/giPav9keAcCFY7Q/f6sEQNvdPT+6CxPAwyaYP4I1XEC5FLM+AAu5O4Q4DUAqawHAeZ1ZvyWw6r4bbag/NaQIwL0+kL3zp7DAskIrwDd84781oYG//y4BwBcYC8CxrY0/U2UMQNTGlr+7tx4+abMOP3Wc6L9Hjrm/abd9QNAGG71GrUM/MON6PCj3jb/Mmhm/65DrPyTFBb1Mxau/NJyUPloRnz8lyDDAMEAnQJgf1L2HCqO/vw/0P8bQCcChaC2/3G29PmzN6z3Jg2O/cIvDvQ5UO0BYDI6/tLcrP/YAvT9e6o6/5kD2vbxTJr8YFc0/GXO5vq+5Cb90kVxA6ebEP3gFIr4Ut4i/pOlYQBhBcT/KMP8/NDdoPoB+0b0jy/g+AOJEv67UJsBDCY2/2Wcyv9OllD/njXk/qvAvPw+Cir9zW4S/6KCGPhJJFEDEFKC/QhMkv6TitD1vOb4/26YHQHRt5L5A1KE8aH9Qvej1rj7Oor6/mIZjP6Pqrr/Tb/w/S7qGv1Ngur8BeU7AvZ/kv86LD7+kWZQ/2O2mwFnQFkDr3z8/hMy1Prfl4b85Cik/otVOv45vCsAqvkm/RgqJv+52rj7q4PC/EgfoP8DbHkBHy32/aZrPP/1TwL+0SR+/KE8APLpAEUDLAtO/xh/0P4y5tz8AyCPACwyyPdnTDT/xExk/vBwPP2RKXb7VmsW/JBOCv5HZGb/XHxhA5Pj7vsDe9b4rcC7ABlrivoTOr79iC/y+INdXvQLPtT+6hMA/y/Hjv1KBC8AMzyXAeBjqvylMJkDgDLa8x3A2wEYmvD9kQOm9aiiXQIBD3jyk8v4/VCbHvmlBbr/CgDw/KB2sP1FkDD/yfne/HCDiP8hfLT9OslVAbauEP2HKIUBwxsK/kjj+P2S0XUDtFWy/uk4rP1U9JD+UAec+024pwHy6vj9oQ58/0r7wPlIp0z+SpwM/C5Ufv2aHFEDMgQ7A79sTQELIA7/WhqU/RmlwPygUrb4dn4E/MJElvw0AV0A2IB8+sb0zwAIL+z4yUSq+qpMVwCp/iD+mzAQ/aoMRPkw8EsBLSBs/UToiwGh/bb+cLTs+T9t8v5Jh3T8e2Uu+rKK2vz1kl79UfFQ/Z+0YwCNOmL5Jlm5AaAICwNBoWb2f8PY+IRCmP8YH+j8EhnLAubHlPkK1ML8e9W0+RCo1vuiLdz9dXTe/TOLdPzfOnr92Hnu/LVT4v50WBEB3oem/eLCdPz02fj9m86i+NBNZvwVTAD/TSAfAX1EkwHKjFMCu+YzAOvyAPkL8M78afhxAMdYUv6r0Wb91unQ/RxOnPrKYS7+nxLa/0iUnP/ezqr4SxBi/PHtkv1JUnD+7g+K9vKPGvzRxmz/qbCs+ZcqQwFw8uz/BHz4/EAavP9WC5L7o/u0/1zciwDyBrb/gUbS+GYAZQMofekAjLjI+8ACBvVf3pz4tC5U/Y2VgP8OZCL9qRpa/7SmBPyJRFkCVJpc/qJtbPo6iEcAwkPY/WCOIP2kn1T+IrMg/gq3RvgYDrb9mcF4/DR/ovjTYj8D17Ke+ZDEDwEqcRj7sPcY+JwU2P6TcEb90GTDAVPkVQOwVYj+oaLo/tgrgP0IQBj8BFh09NCCKP0zoWr5QYYo/LBOqPeVnLkBe+K2/Au0bP9u1i76YvOe+fktgv4KdMsAesja/Q2qDP+d+9L1ln7I9sjohv1BjgD1Z+gtADorzv56hGD9EdPi+3pguv+vTtT0eJQ4/PsgPPYbFZT5A9iG/KASUvYGHBMB+4T+/4Ff2vmJtBz6vOsu/IMIIPS0n6r8qjHG/0CsNPZZUmEAIbqw/qDILvwy9D0CzdQC+piAVwJyWG791HSNAl1sEP9+WWD/g8G9AhJ4XPpy67j9R/de/aLQtQI+4iUBKYte/90CTv9+QBEBu5h6+8p/uvzgfJUCw2gPAOmbxPxfWFcDljDW/rK5/PjgE5j7XwzFA7KdEPntsDsB8vwW/9dMeP1K4Az8YhWA/66mZP7RM5D8t354/ToeBvy7sVED/wAI/lz+PPpK+qj/y6g6+Lg3zvhvt8z+qT5NAug7bvnSvUD5XiIm/Sgbuv8dyH8D48fa9cChJvwZiIkCGCeW+PasUwIQb/L7Sac8+btMMwEC4C8BW7jjASJC+vgeQHsCYrQ6+/0KAv7Ja579CsBVAm3IcP8THTD9kYLk/HCE9v6CAkruI9yM/2nqavt8Hhz9Nyj6/lMA3v6xpij8cER4/1bMvwGjn8z8qbrC/uPWVv4Oh678OA3m/Dq4sv2JCwT7+bTC/oT5Xv76flL/SDL0/Z3qKv1qHpj6P1y+/fti9P/xx870qOqG/Uo3xP1i01z4Urfc+NjHvvW9NA8CAEJI/Jolgv0qd2T7eEqm/TjZYPxEEgT7+WmtARu4TQCSLxD0AU3q7oNooPaAubD2hDwrA2TWUv8AjoT+XvyHAhLYpP/zeeT+j3XQ/jy0vPxlAyz9ArOg9v5lYv/fWg768SVu/HL4sP7z6ZL8vcYg/OOMbQNk1NsBCszI/N0F7P0U6pUCAqSpAsEG3v8pqLL/vBopAuqBfwEq+fj+3P7s/vavHvuOESsCEacw/Esc/v82xoz/NJBy/Wxr2P0eY0z40rwPAcobmv3plYT8TUcm+/A05QN0G0T9QXM2+05zkvnPRtL9E348/BsSfvu8YND80CdQ/ImRbvpAUkr45SgxAyAVNv6oRUT+7ljJAc5Z5P8TwJ0C4od8/afy4P7izKr+1eHa/45HfPpqZq7/p6D+/Chr2P2Bks73oaxNAloYrQOmmMcCuNKs/7KalP0R5F77qJB4/9yqHPTv3E0Cnuw3AbOBCPxxktT/2rZBAMriBPvtYcb+0fgxAaaCav8jsHkCDY4O/HyqDQFIhEcCkLka/vFywvVhbzr8zhPa/gDNpv+gAKUBKbN++7J4KQKg/Pj2wX0xAhtulPsttsb9cuhbAF4AeQLvMET80fka9kJyxv/6z1T9tKku+SylcQHu5MUCQCQO9YsPxv4aMEj5q49e/DPKWv6hVE8CQ2y4/kl4eQNl2QL/aBXi/4XXqvp/uZMAbyBNA302FQFV6fT/oHTS/1FQbQAEg4L8cWAq+QCc6vNwBv78XssU/o0BRQCDrAr4Ikue9AN93Pz4kmr4/Ijm/cNoUPw0OEECun62/peawP55Mt78fky3AHCm4v0iHAD96pOK+srm2Pxes6D8jZ7+/xfSwwBJBjz++ZFO/0ViNwP7mbT860MC/u3zWv5JzfcDEnZw+53x+v1xhwb/sneM+J9W0viPT2r/p5di/2V8JwL4T5j/4jGo+GDw4wAL9Ab+b6oU/Aa0JPyWIsT9bySZAkyPnviSpsr1E8rq+pkEnP1wQmr8ofDg92KI1wJbE278ONn2/SanoP2c7t79Mioc/k7KCP+6L5T9+NAk/mInHP9aSnr8c706/AnYtvz4zhj9+Cfe/sGHkP/I2Iz72F/W/AGOdvUjxR8BLpZY+l+q1v3jJyz883xBAREPAv/pOhT8pSLS/Q4e0v2/prL+pEhNA"},{"catName": "Maugli", "catImageNumber": 5, "nightVision": false, "outputTensor": "kOfwvsF3OsC2zMy/At5WwOyXWECIFYm/PleOPnwbKEByvn/AYvJ+QGQZbb/JbQg/rFXJP8LMJUC3DbE/plDjvppTPr8tvKU//4qBvtTGjb+0dws/06BqQP5QHL+uAg7A1Naqv6qrAsBFrIE/qASDP8L/FL7QBNM9tXWJQCWzEcAH9sE/aXmuvx7ey78Q8y1A3jolv2YEyr5bcnY+Ln2DvhgXgr+NGvw+QNPTv+X4sj7BhCQ/wVWcP5Uz6r+IDf2/KL1Kv+Dylz7xa4C/9IRZvyw5zr0cIATAiRo7QAGWSEBvpxc+PcKnPwC55T/RqO2/q59FPkac776DIRC/+L2/vwYfYsA8+mm/xFEsv21KYT9UXfM9Ld0tv5b8wj8nVRa/mLMLwPcKer879Ui/tow9P9S6UD9ivae/M9IZQAgifr6bqtq+VeiVwMjcd78LSyzAjZ94v6cD0j8FNe8/9BEUv25iVb8cngvAeGGSPKbIQsAoWEk/oqrIPwbiUD8ioGDAK8+7voYfC7+xFGbAfnGBQHZTSz7h+9m/l9CovlW5gMA+1sQ/k2LKv0LJ2L9wLGM8Q8GGPwNWXD85Kom/pBWfP10rTUAAGmS/w7oZv42N6j94Qtg9dhYLvwtnqL/k9aE+5MpCwJ/2CL8q3qnAvu7Uv8MEnr+eW+y/FN8ZwH6HLcCQDKS9bpnKP86Aoj30bwXAmWxvP57dgL/YPvS+jZ6TQDQZBD+tG7M/NKupv9D9tj6AggG/zJM3QPlHgj/M5wFAzODXPjMNRj/FKNy/M7rbP2B6lj9P7yfAbkFuPo08DMAwO229qtMmP8z3WL9DDtQ/AJXMva8LBkDnKRe/hk01PyvWWUDrEAbAAntgv/AjnL/oHag/QLqHPcCvJD9eI+E+UDwvQI1i2D5fdcA+/+VXQI8bbD/fcS1AlX4dP5AKLcCk+IE/AEYFPkySWcAnsrO+UAOtv6jysL4Sq2A+gv0GQCNosb8FYb4/VbquP4xWMD/m+g3AGt3VvlxDsj9eFoe+RT1DQP6T8b6UcpK+kkToP+zRoj6lU2W+UjrTPxDHjr9QugRAmOJNvyBEFz+9jo/Aic3dv82Pfz+Md8g//ut+wG5INr/N0Wy+15d8PxYWcL87QQk/Ln+Pvi/NN8C0TKy/q3O2vii+WD9u7oa/w5byP1agHUCoAuk/0/YoQOJXtb8AEpE6F0cpP4Jz0j6EqBU+qtG5P7Qj4D/7Bj/AUbUzv0+LH0DokZA/ALcrP2q6u75Crnu/Zzlbvhpg0L+Y9htA/g3sPkGIrT9A1ts8hnbqvzYNQ7/6Zee+/NeCP3iXwz/PPy1AnF8FwKLdM8BAOfe+GsEswHA7dj9o55G/4NzlvtoOQD7wotq+fcYnQD/8s7//iIc/hOgIwAhehD3edaY/bQTlPxI3hj8RUQLAzXD5P9ImYr8fwgBA+XWXP7BUBkCGtUS/IEgWP2E/M0DbSAXASgQ1P0MB/D+QFxY/sBh2vuKDkT8oU4o9adQHPnOXTkBHloy/UWkrP/YPW0BlcwbAIsz4PyhOfb6g07i8nWsCP7VQnb8r1WK+A/cIwHfIokD8LWY/CEefwAYbND8zRp6+XCQfwMCIDj9AQWy/XEUjv4TUP8A64Iq/udcTv+qf1b8qZBk/2mWsv8Kj3D8yw6i/F2gpwH3Pt79qVJW+2Z2tv4DIQz1/MFhA87fUv0JySD/vTuC91uUDvwA+szv3WgXAuDVTP3ufk7/wkiq/ypeVPmHJQj8hyWY/EokBQKAUQb+cQs+/Pn5Iv7MVcEARCNU+yQm6PzQw2T+iYAG/3E4OwOSYNEDRXofAJ5q3v+IBmb950YG+2bARwDMnjj8zjQhArVwivzQSjr685ME/HjmivQ64v7/P4B/A0v9BPyJ3SD8aXv09bLZBv5osDj+8+pc/M9r/v5S49j5AyUO/g7RRwOEhJ78GHUk+BY1xP/BWbr2tKQFAwE5mv4+nScDEHLa++Vkkv/73PkBlMK8/cE3lvUq04b4x0oi+IiasPzm/U8Cv6kDAmoUlv3A1I0AVQco+cSEKwHLLtr+RYsc/Y31PPzzFZT/AoaS8LnESP5L0BcAoM1tAIOE7wJCRL8A1Ip8/CgEdwOV3bj/ytyk/KWfRPUIaQz4lIbe/3OobQHf1qT5oHgy/YDalP+L5R7/CcLQ/avu0P6YVyL5XO7M/AEUqvtnf2T+WB++/boNLP7JWZ7/LQXq+Yv95v5+ycr+AS7s/cLgHP+YeJL9IfT2//852v9SdDT/WqllA3Oufvzavfb6ABSA+rOuqvipUmz4fWpC9DPhQv9AdP0DNuKC/f8LYv5l6Nb+Q/cC/wAD7vf5MGD9E/lzALIfuP1g0Zb99S6C/OJ6zvYnmp0Dl1bs/580xPxjnDEDsWQU+0FqMvTLpbb8ndcM/LkX4vUIXmz6ECDFAvI0CPk0BL0AdsQq+xJsUQN4qcUAoC92/jO8Tvsq26j+Aggi9cBlJvzwC6T/ZDu2/eOKtP83rHMAeFpO/ack9P00ELsCqIWJAXN+Ev1eDJMCAfI07apbvPs0OgT+eZOo/Ct8QQNywpr6fhpQ9iiWpPwP2aj5Jkdg/DMyDPww34z6dQIa/pDzxvhHrhT9qtzJAeN1iv1/E5L+WJPS+Yybuvnh2WjwiSIk+srBhvrA2/j8F/SW/DhcxwBj0aL9L+O++XtjxvlF4H8AsSti/pevTPwJTDMAI/sA+uBIHwILdPr9xmdA/FGtVPiQ3vL5IsRNAF6iuv5nZ9T6iolBAwsaiPhBspT4eeBo/zOnJPxj6uj8u4xc/x1X5vwLICz9hx4C/P1ChPvn91L+E6bq/Q1Itvolqmz8ht6i+Fm9Tv9Qbkr2YsSA/HDuzP0CmK7xubfy9gX05PyrjPr7S6/m/Kreqvg4rMb9UGOs+v7WuPwrckj87HkRAL3eTPq6JgT8oe5e+fGPFP1o9wb4wgyNAIZXHPwQy2r1Sjzm+tuSbP5twDcBu5Hy/oQaiv6UdN0Cs37w/QG9UPvgPeT8Zrhs/JJJtv1TjGj8mkt6++D+rv/NI7b94XRO/xGilP/pLEb8Wje8/2YucP9zw4L+kBDs/3q29PjPplkApJso/HH4nwEDE/7/woUxAbrDiv0bXFr7KKFw/1BDEv3FHBMAQEIA+6QZ4PiDoDUBwb5w+6Ps8QEcAyj5airO/01cBwBwEk790ijo+FuEDQOlzl76ZW8A+WDkUwEaMMz4kj5k/74j6v4yuCb/Kw0I/JMZivxjcIT83v2xAXO0Svna1Pj+S72G/ClwkQItNtj94inI/p1eWP/L4qj+RxNu/bN4dQD5r1r4WhLq+5uj8PyBqYT5pJO8/YxGvPi/RUsCKV0o/eJU9vkKPXD9eDjU/zihXPzSOwD4WHSjA6DW4P3BGhb1xhINAuM1HPhOEFcBTGRhAcFtsvzYLTj/Ilk2/U2sbQBT9L8AqYOy/tIjAvldhzL+hP4m/w06Qvpv6P0DpyD+/fUSlPyy8gb/IG+0/lpy8v0qiEb8AXEHASYK7P4iLgz8B+oU+mGfyvwTWy77gofm+WnFHQNKTRj8LUG2/DUWrvv9+cD/gDjG+prr3v2Qv0j4Y3fS9ebfhP8wLZD/80KC+xMx9P6vYl8DwzaU/pambP+4M+D/KQm2/cCw9QKZkM8Dw15o+C3OmvyKNfD8jMMs/bOz3P0Ow2D9++kW/6toVPzDww7/Zb2i/yVgrvzxHE0BSWJG/st9rQM3SQL8YoYrAaWa7Ps4nyT+07J2/AK1tPYJwFkBfzKa+ElO/wHQX4773wF4/JhqIwGyS4j4pynS/EMKdv3R9QsCRvIq/f8iCvwANHMDsEApA4XxtPp0Yw7+JMPS/LcTbPz/9A0Bd0mQ/1jsmwLHm8L4RbO8+mhRWv/RgpD5Q9AtAy9Qyv966G75a+j6/YFlVvK0f1T8BEk0/uHbRv+jpB8DUyBq/vIstQBcjx7/muN0/SlWSvhPIQEDGLAvAegZVQP40FMCXpNG/Au9bv6s66T9EzEbAJkzdPpDDXb/zmkjAJBWgPzSiwL6vqYi/Pvy3v4fELb+2eJI+MpFgwGr3AEDdd1A/1gQRwFLVQr8aiPQ/"},{"catName": "Maugli", "catImageNumber": 6, "nightVision": false, "outputTensor": "60JRPz7L9L/i+gm/Yj21v+7sDkBxygU/MNouvla0uj82thW/pw4bv4qS3L/Sa7g/ELHfPxuVgj883Zw9QCrPPsvE3b9KeB5AIiq2PmK5hb+yFAW/ygmZP8AQFL/NuJE/Ht9jwCZzj790WCdAmHfKP6KnMMDAMKQ/Ef6LP0dQfb7+ZGQ/ASFJv8CF0D14wle/Gj2tPx6spb9XmDo+bdNXwHRUzL8Nu+E/elEiv2EpiT+qc+a9DoUbv2PaBb8tnU7A7eSJv9BSTL+Opma/FnMGv1aH1D2awZ6/ovV7QB5cVz+/I50/KiKFv3oE6T8Zvde/uJQGQJCo3DzcWFE+KgHyvmqfzr+cdzi/PPpFP2+yyL+BUPK/jWTKPtT5D0DiLgDAtvAxPXl597+er7a/wIkgvBDYEz+QpRfAbIsBQN/9Hr/5wai/Vdw7wCbkxj/U5v++qAyRvTBAdj+uQS4/tqsiv1bJyr9IbSXAkx3yvj6oJMBK9GQ/IUoRQJiUjD+qOUo/Ix2NP/V/aj82zorAqwBGQHg62j+4B8u/9q/Nv5+3nr4E1AI+xQkqwMyXVj585u2/NF7/PjL7wz+TZ62+Oo0zPv7axT+S7ww/3F3ePy37dD/cwAjAKJifPa43/r8dwrS/fvqav1Pz/r5kPw/AT+dcwAcUkL8EFMq/hKKfv7bRK8DIoIe/DMQ6QILhX7+mUIe/OEf9PZCFeD80GkQ/QDZhPw0dhD8jOIq/Iu8OwJIJZz4RUxrA+1D3Pycd775GgpC/4ptXP3pIrj+ZKf6/So45vjcrRz/shZK+gwf+P6g2hb8oFDm+rrXHvcq9Pb93A/U/e44OP7ZE3T+TIDhA/dVGPqWtRD/aBM6++ppcv6pLWD7qsu0+XW7uP0iYjj6sU88/lmJkP/Q9Pj43gS6/UzFaQE4/ib8ik15AtWw2P+cqmcA1BiS/0Mj/PYA7or+jFRrAZaq3P29DhD+esII/ePxwPeqi6b7VQQa/3KksP7JhF0A7Bee/lirxv0QnCj+MO/8++jE5QADhEDzygvm/XwE1QCLKkT84iVDA3vI+v96tGr6EeQU/MxGFP2TK+L+AT6u/exoev2AYmz9DfMQ/XkGNwMYweD986gVArB3BPsS1iD84aTdA1Ek3PmIPFcCVLXs/E7elPyJxNj+QQdw+iSY1P4s0IT82RZO+Qa1vP1lkgz9gDgjA0x2/vwfFlT8AP+I/IVMHQE5lGEBz9hLAXV0BP2BFGkBM7YE/XMgzv4iYl79NMg3AMeu5PzOzlL8Kx1e/82Gsv2IHp7+hYTM/VFlywPQAmb9avaQ/B/ohP/DoMD8taDM/lEybPfFajD8ccqu/epFPwIw8Ib/Ee7S/093nv/38jL+U+HZAAZZlQGLXHD92FR/AujLnvxQpmb86LTw/sVihPwQ1Uz7CSI89Dh10QLZwFb9lAgdAYuYWP7GqGEAoNxLAgJoDPtSaPUDots++R5qdv7Syp73aJbm/+iCnP3Qxnz+g1yvAKTc7PtE4eT6Ldhm/X0Bpvw+SYkDr0t+/8wQJQNj6H8Dwjzg+ApI3P3w1yL/meUI/i2EdwP6/NEBIUQG+CIQtwPbhsb+hGEw/vTTUvupXA0C5yIM+elKFP3kJXMBQxI0/cl6Nv3dTlb9go3i+Thnxv+O1CkDs5pY/sCZKPRq15r+YJ2E/bMUIvy5+uD9Ll4o/0nKeP2Bx4T+45XA+bXcfQEDTHT5hhLW/VownPvb317+W/hFAPixpPywdGb9mv+S++EPLP25OQL8A6QbAt5jmv9eBCT9LHTQ/nZIXv3kPaj/GKKm/wq87v3iCzT+Ei2DAJXEbwOlHDkA+yCO/yC3DvsbDuz7SIfM/X98Uv46JD78mas4/aCv2P3Fb+r/h5M2/ap2lP+2Arr86V9W/YaiWPnDJuz81aW2+qoNwv/L31j+3FpS+UPjjOyvt+T85N9Y+CkCcPyBz0L8qGPU/DPA6wO298r7KcLa/hQPAP+lHYT8lWDtAGAGAP4H7nz4mQD6/UG2hvvIKgcDc8Zw/4h8NP2QVUkBOVLa/Fjanv9Chnb+APCW8otnhP+0MT0DzQoI/9NIev+ABIMCqcKQ/UVcJwKKwA8Ae7Ls/WLomwHrv2z8KRKU+oFO/PxIhOz/4zTvAR7qjQHHlNUCmfWrAwoSEP5/khb+P+c2/Gz43QFrD1r901zBAEO2xPkOTK78YtBi/3qklQExrGsBGZxbAFrXJv5h58r81pYQ/5t6cPzWyRL/2R4Q/x2VIPzD9sj9UbQVAkLC4vyHImL8MIVhAzNQkv9BY5b+nvJw/TQWKP85RC0D7+4TAsgZ/vpOcc7+0rPQ/wNboPBn+iz4WYBy/8wvFP9nQM75YFvi+SJ2rPxj9d0DmKgY/f7vyPptyXT8OYhO+YLiKPeCEKkBlSla/CUlnvwQGDEBR/HY/4koZwEdfir+E0JW/PiGRv2zwa0DIDMS9etmoP8mmKj9L1F6/NuHIvzqdbT8U+I6/7NWBQJndq78OnaY/gYL9vsZRhD9AWydAJgS8vz8/GL9rMI+/eLSlP4e0zj8goYQ+ES6jP25I2r7RhQZAQ+1kv4Drtr1CzCW/6iXMPxqtIEDm32C/pQ8VwHovl76u9hBAyoYbv6z+NsBlIZi+vNeZP0Sriz4GlVy/Ts1tv16ob78K8eG+FckbwEhU/T4rdR/AoGF3QD2FusCzixDAKIlJP9prj799frS/Vm5av842wr9rLyxAPt9twAjB477dDCI/EurmPxpzkz/3jjI/qU+yvz46s788ebu/Wt+avcZ2BUBIlbY+9EvOPVwKaz1ijDq+EAo1v+ZOM8B1NmK+XXpdv+TRE78MtGQ/HBMvQMxvPb/3Zy9AfjpLQIgySsDq4SG/8MvXvVKIxL5Q34o/Lc+xP2ONwr9WSiI/d6vtP/i41T/SFQRAr7zav9CBjL1nbVk+zPxZv05uyr7g9dE//x7yP25Ftz/yj5a/d16CQOdD4b8QZgjALffUP0A2tT3KWog/QKKfvlIPrL6oG2Y/pBlRvkcq4j/ogMW/QAlqwFaKEMDUgzq/uYJ7P7MgJD/M8bC+EKoCP/RrX79RxqU+PojxP5YWvD/EFlNAO0n9P6ZOjD+EzJM/kzLDv7vbKEA/VPg/c3Twvw4h3b362hQ/8ttnPrtNBz/XAjTAe6Q/QB7Wvz8WI/a+SKJ0v0VSyL80GVc/wFn9vSrC0L6k9C/AkOkmwJxzJ8DIxNY/wbpswPbU6r8+I2s/bVQwwCe6gj5gnDq/OPDfvoY9bj82bQRAzdoXQH+H2T910Ts///OWP34fGUC8Q0vAOM9vPrxfm7/QhBa9WJOLPzhaJ76qPoZA/HzwP6YZ078ng0q/1NdTQDxKib6Ighu9oMdIPRhbu7+4HPK9tuQRQFxGDsCWpIlAi99vPzGkCsAYVd8/8qAxP55aoz+8C+i/8BbhP89q1b5wrT3AIFqkP45Oo7/KDhc/iWfPvyT3hb+ahj8/oFegPPbheT+4Vya9mObIPj+cob04vxzAG+Ngv05cXD+X1t6/mEqsPhCfgz+9FOE/bzQCQJTmCj5hOAVAS8F0v1GxND88V5g/lEJOvjb1K78Y9qS/DoICQOPkA0Dk2Bc+cwuBvk+wT8C7aj9ALWxQP8mLlT8o0NA9aikuQIz9ij76sQs/OBISvvEKBMC0hWNAzRc6QOUdvr/5EbQ/rOgZQC5yID7o4a+/SGKQvmsJtj9eEtU+uPeOP2FYST8DyRLA+DFyP/rirL6KPJS/2GHFPXZdVT9+qoq/mhqbP0hXGMDktpm/8HlIwP6fuT4igL2/9v2Uvd9oWb9XH+Y/6UBjwCiYO74YFz8+UA9OwO+PBsAzR9C/elh0Pyqojj8FN1c/NjI3v3yQ2b/UwoQ+rlkiPiJgpz9dNzxA+UKUP66I7z5LI6U+2mjrP5ZNBcBAJds/5tzYP0joJMCca2c/5Y6LP1Nxyr/AYtQ/in/Cvo+Pfr9ofFW/zvBdQFB+279z2EFAftu9v4DTgr2FM56/Ll1ovzXNxr8X5QrATD7rPyDK8b3c6RC9Usyov6J3AcAVAkk/kLi2v9qZar+6cKY+/MkVP3oXH7+sMHs+"},{"catName": "Amalka", "catImageNumber": 1, "nightVision": true, "outputTensor": "RrHJv1yAF8ByqjY/QBicvgQkSL/stALAdIgMwO7jjj+zqVhApX3gviPu4z6M52DAvyYvPz714T+Aw989MJKoPecuej9EpH6//tQFv/xCFsARH6m/9vVvQC1K5L/R8VDAbCD4vrOOVL84OYU/2JwxPpTmYL80IUK/kYrAP5xon8BNVq4//KgKQABklr90aee+1E4bvg8pfb8+xqA+132dP+VRSMAbaeW/svJLPzKkPT8+miJA6jdnPfrcL8DOaLQ+/qELQEaR6T68TBq+RgnOP4vYrD9Xxk4/4uiQQGECHUDO5qE/0c4DP/aUmj8C5Tu/iDGHvhgj5T58y+u/sjqGv0EBMj/0M2U/d8/cv+7XoD/ADPm/0qO/v87HzL7NflS/S2pov2pNSMDIqek+ukkHwAwd5b5hmEm/gpTAPszjZcCC1Zw9emKAvyLOV79CM2Y/hv42wFXx2T9OKpW/ioiVvsZQdD49aS1Ate0CPrBPLcAqVZs/WhcXQFx9Ib8IUwHAmhh2QAYPgT+Il0E+bVwSQBIkaL+KZDK/TnB4v2WaTb++oCnAGGISwIwcxL8Xn8o+y0tAv3j3wT+rPdw//tQfPpkLKz+z3+8/+tX6PqrIE0BwLS89WndIQCExBsA81hNANt++v1MJWz/ZMC7A/vayv/umD8Dzyh6/QM/iv587JsBCqQo/kKTnP/L06j5apX+/mmTDPtb0NMAgrsG9lT+FviQk7D+jYve/9Qdtv304SECklk2+7XjlPzXSMsCOiaY+Wsr7v2N7WD9DN2rAGVszP0A6HkDstIy/QhRpvzyDhj+QIsC/pHEPvx9uzr8prKW+oMmkv53eDz/3x1G/XeiWv4TzyD7kuNg/m4jiv3CB2r8+mQVAUbpavwydET6wNoo9EvBBPwKRGEDLgQG/7ET5vkgKD8AA7+4/jqSlv3tQ2z8eIeW/RGAKwKjyRMBncKc/i0CoP2GreT9ihd+/jGJlP67JhT+toIzAyBAavz/6pD99yHI/XcJUv37h1r+PH60/QySXv5WFCcAHAwnAAPSjP7oA/b/suiRAQpyaP0PoQ8D44tw/wDzXv4WQ+L3fyIa/ETc8wFHzL0DpXvQ+kNprwC0ViD/Biuk/KH3/P++HzT8uVzK+HLWOv5vghD+LFx/ANuzDvuAwhj/qrSc/eLzBP2+0tr8oyu0+E8CKP1Wrgz8dxx3Asrybvpvft7/QUh6/MaJ5P5RSgj9afzm+zzMTvuiV1b8SyAG/FpMJwNOfQb+BgAI/lpUlP9SY/D681inAoYJxP/UtGkClNB2/SHvAPcbX/L5cDUQ9LBiVPsMopz9SYi7AmscEv0wEkb6WDag+/h9GwA0hD8B/+IU+Ep3GPxSeJj4RWrs+Ggh6P2HXfD+I/i89jLvPPs6uP8CVK7u/kXzCP1Bkw73Q+dS/INoNPq5WVb9Vxq6/jkqJP7c/EcAduGc/oP85PrJXAr7CF3g/4AxhQAoVWECE5iy+rsFcv3ZiNL8gnVrAjQHDP7Ljqr7rAx7ARLD5PcMJpz+qF3zAumnbP0xh6r7CFANAAQRBQHmMVMDAHng+THcNwHgyUr2Iop8/tHkLvuwvx79P3ERA3taav8CiI7zkPz7A5MicPqN6ib8JoCHAuu8WP7x8Jj6yTPa/DKwywB9HN0ACIna/sfJkvwcxecBw21+9w7f5v+YzlD/FvYS/uNaCP7KbbL8L6Su+0vTWP8Z7pL9XjbE/mT+Nvh4fmb7zYus/mjwvQAKZEj9QwLK/Bj3SvSAgHb3nk6e/S0AMwNJDNUANF6c/SbUWwGixAL/UjXe+SBQqwNN9D0CUaFrAx56kvlw0L8A8eRI+kKFIwBq2Mr4A5KC6CptEv3LJIL++epW/gsC8P1EYIcDicgLAQIaUP3vPGUDiB70/8Z4vv2Ve3r+RVSO/hhH0vob0yT+p2oNAwaXJvwCRDL+6fhE/P/UsQIluNkC0Xgw+zUnFPWugQb895Ik/sUhMQDw4nz/FJZg/iN1BPoBdJsAr2w2/kHaKP9T4pj8wpoDAFBbPv1Baxz8p2IO/luYTwBZ29z80KaQ/UuKBP5NVIb6SvQbAVtFBv/gygb6IUnY/WLd+Pmum+j4idqE/HTmkvhgP9z+UbwY+YG0gP04UjcAlZxvAoe5cPHCA/L9ooOU/QpT2vvtYwD5j3B9ARjLGP9QQ/r7WdQ1ApjwYQMI4WED0GQvAKimNvypHyL+Wmb+/JuWwvxJMNj8Pe6w/2U8NP1Kmvr/6jh5AVlliPhAsB73iW6e+4gXWv55k8j9ARKU+qpEPv79lpL+FdB3AHVn0v1HFtD8VDuK/2olGPhLoGUCy/3G/RgY4P/ZKCEAQEIs/bxzHv3j7F8AfeQ3AU1GMv8as7j79YLO/H2S9P68XY0Aw/YJAaBAdPwjzGUB6BxpAxo1RP7o2yz/0vIY++ztgP/6Ikz/0Q1Q/WlrjP6cWC7/aGqk/unkSQAd5Tz8ywG49edFEvvu7F0BTKwnAHGpfQMs8/D6Xsm6/XYciwGEBC8D6PH0/OpBmQHhFIL8c26u/UUAvQLqrZkBb6f4/NY+pP7TLYb6v7WpAJ7SKP6xmdUDanQhAICTKPp02a8DEl5K9GpQOP6jXrr1yvT1AP0Zov6DYmL/LAb6+SFr3veFsuD8aIBe/W28NP+BJ1T8Y1xu9KHw4v+p/tj+EVJQ/8EAGQISdrz+8NyY/OdjeP6gAwz14kUK+dzw8v/Memj/3WZ49b9U1v6QZ3L9y2Ei/xn+bwAxNiz8I62FAnEd6P7MyhL+RMCRAiExkvxQsqb7Q8qG/q6U+v+DNMUAxIE/A8l0eQFCiX76+4Xo+xlaNPuYBAMDMK9o/7yAmvxsHAEA2eeC/ere/vGDMPL/JuhJAPbchvyj8AUCXVxO/MYJVP7t6Wr+c/78+T3XsPvGfjz+ou6Y/Okt+v9GpNUCt4+S/BLWLPS/IJT/RFJo/FYzSP83Vkb7Cu/O/Zmt8QJKPDz8YrD4/BrHVv4ncWEDIGAJArJb8P1dcBsAS0HM/mzkLQPRyDUCsZrY/J2Lzvw5unr/opLe/9ugOQGidqL+S5XxAKAoEwE3zEMB74gPA5edQwKl8AEATUAxAlkR2P27J9b/dtFpAVKErv6u8jEBZ9Ii/jpV4v65leT/ICuU/ESfTPV/bAEDSm+e/bgLrP4I4ub8vWhJAPhXLP1gWBcCSSew/qDVTP411kcA/efo+yBcmPsvi6r8oUv6/IWvwvzRzQb4Ih2PAj0EcwD0Nl8Bzkva/w18YwM2DfL53lMe+xRghwD5nB0Cmfoq/aQZHvw49fkD8PoK/FedhQMhMv70ICuM9oDawP8YJQj4xTXE/t4kKv1hDqr9CiHs/HABlv4B5j7tYhLQ9nzLcP7RdFsAaw6y/Ot55v77E6z84q/4/NEmpPxZZmr+DrZY/TXCQPyjyKD/VUjxAkGisPxk9mr5D/zDAAFSjPzkkFcCphSw/tFdvvphMnL9p8/I/LMb6Pnjgrz5UbNc/8CNkPp5CiD7UFze+bymWvyRQsj+mCFZAI0ALwLKkw7750KE/aLF/QEYu478b0jc/HvlPwPrw5L77jmC/9vAVQA4A1D5i5S+/Zpqdv6P8QD6hNLC/982NP+Cpn79E4Ky+Bc63PzU1mj9Mly2+H26IQOxEs77AFS1AEMqhPW0OVr/zxBRAq6qav9yMIkBnQeu/+BIiQIT+mr/hlwbAjHvmv7wxe0A87vI+UDAoPmd+xb+/dGW/0DOtP9jsCL8oazS+Rp8MwID9kz2rUCm/CSaHwADORbwILQm94+1yvtRjgr6G5IO/iwY4wJBz3r+jzNO/WC1tP3kPUb8gbTRAjqTFvug4Mr/EHWO/Kothv2b26b7CULM/AJjsOvq98b7YQqo+JGQeQIdABj/HuYg/OaB0P1hhrr2mMWRAPDPyvx4wYkBUhJO9UFl9vUXKkT+QoKi+xqiCv3vuPD5y/Zs/WPkSQPDxy788ruk/LMJvvpRHtL+WOjC+DnIJQKhX2T79xlC/ws5qvkMllD4M4Ki/0UISQLLsP78ufEI+hvjzP/Jd2j8w7Qe9nHsVwJ/HLz+E7oY/bKiDPnLK5z+04sy/"},{"catName": "Amalka", "catImageNumber": 3, "nightVision": true, "outputTensor": "mjwWwI6yK8AEjmO/4SMAwLp3QT8UG/K/1iBUvtpaCkAsT6E9fmVrP8nVEECgBOm/cMGaPp00BL/rJwS/7GLmPsqPVEBCegm+q8C3Pv6Dbz9plydA/l9qQIarBsBLLwvArICwvwNKo7/WDSNA2LeYPsI/177m4mi/uPAMQIApicDk8Lc/ecebP/x4DcC+mmm/rjEEPwBBNbx/nmM+duiZP19ez7/O1j2/bjYmP9RkIT8BGw1ApIsNvynVmsD9S9a9XEqaPzvvnL7dgKm/X3PvPwHiDT9ANPM8F91lQEn75T9rLqM+qIUIP7RizD5Exaq9fupUv1xgIEDsUqI/yBMMvmLsCb6r5cw+iB50PzzYvj/WjSHAKzGdv+w+Qb8SlSfAhEV7Posc0b+tHku/spYbwAfkmD7IVzo/gd2DPx7kH8C4iXE/h5vsvo8eNT/3zII/Hgvmv0CnYz8AO2m+lKx1P+5yxL+aoiI/tNopvfCzNcAqk/M+hUAiQEhQoL9mfXHANJfeP30Tsz8Zrve/DNYBQHgqdr4/JivAOG1vv9Dxnb8AOo2/UfhxwA5wnD/pBq2/7wwsvlj6hT82EC2/iSOcv1qDMkCW1T3AXXoCQAXADEDgt5M+bG5yPz7GXD7spOc/E5k4v1jcrb8voiDAEst+wDpJhL0Xl3k+bFJBwDm+DMAP/3C+E+awP69rMcDyR7m+eJXTvgAMV8Cgjbg91rbqPk5Coj9B2yfAu3nuv1P/Qr86+0S/O4QhQLi1pD6EPYM+Khg5wFyGmr+R5m8+LlwkQOk59z9WLy+/4q5Ev/1Kn7/oR90+q1xHPg9D0r/x+wVA5P1HP+zAAr+EJwi+65ydvjFYYT/TONg/xUcwwMTaib9ZL0k/X9Gzvian579ekNI/bpF3PwJPvD8iPp0/trLZP2TJO8BMYRxASQ+BPoM3/T/qgoy+lFj5vsFx/b+7EqI/aN9Mv8mfW7+8EDa/fDHyPpDdyb9axWfA4zr2vqMcjD5dQF+/TbAAwBhfZT2TZo4/RAYUwGFFTD8kIPW/nWwiQLj+9r/NFQhAxgDpP1AXOLxWk1m/Lm8fwKzBGb5uoom/dM78v7oi1T+ltom/X6hLwM0W2T4CFsY/etGmPwCSZrx4MWU/qL4XwJiXRT94vNK/o1QVv1e80z+gKAZA5qeyPwtfHb9cWXu+Bm+nP9wSxL1eaFPAynk3v+yl9r93n+O+PPmxP0Hjbz/ur4u/1uvgvw/O3r4C07K+IkoPwF5vtb94u729OY8/v0ffg74q30vA5yQZP1vqm7/4usq/sO10Pn7X5L62T4g/6p+KP9S9WT8k054+rRG5v0Qntz3sY9W+CMymv6aMr7+MSaC/QQ5fP2Hpjj/EHmO/8zMrv8lPsb/rzjE/IFGkP+IEj788sIG93MoGvlV4BECm1EnADEyqvlSEBMAPg8S/LaHNP0CLmb/++6q+VvRKP0s7yj+QBru+i/uTQFA+tz7A3BTAqelYPv7Ghz/+Z5+/8KnWvTUD0T8645G/+t2WPw56oj4PTsO/HB4pQPpuBb96bxhAZJcYQADVaL+3N26+kobTvySQL0CuQRFA1EZHwFxstr77OS4+ObJJv6ZoEsAYSvm/oh8yQBiLqT8ftpW/jEhov4KLD7/OwzPAP3JvvzXWVEDg2P6+Ku8cwFeU7r/hVaE/miaCv/g7+T9E4nY/oKEaPn5XEr8+rUe+KrcoQFV8or++NDS/wv2BvyTBI8BbKcE/qP7XP3YhxT+yRcQ+EpSJv6Zr6T9m9jrAFa3fv8gN2j83KhZAxquzP5GsSD91UGvAjkQGwCVHiT/sKiS+I3t7v2K3nsBXcmq/EzIUP8u3pr9MTam/nFTtvW5nCsD3SS9A1yFHQMZ1fL9yW22/nKfhvlvQhj8yna8/vGr+v2p+dj78Nug/CdgFwH5YA7+QWMe+TawPwHyICUAYsPg9KB0gQC71BEAObPK+oMaoPlDxCMCW8fO/HGTNP5BlbL/Km6w/kKtdwNwPSsDrg8G/aLbJP1Kpy78GNKi/RKubP+SzIUAkmSW/3O4BwNxURj9SGh0/QtnnPwRwwz9kYkG+tKCyviTuIL4YiQFAGejjviD8IMAe1HM/Axenv0joUECYkwpAJvAiQF5bOsD1A9C/mUw1QIJjI8Bsmms/brE7v374GL6Bunw/Y5ZGQN4KVL+E+M6+TlEPQKZk4TzzqdS/I3Hxv+KrB8ByfnG/OI6pP/TMhr+0HtI//pt1v+EXOcDc5me/BWM+QNBOqz/2qGe/nt33v4X/CsDETCi/tSnPv8/Uk7+RU2M/Wm6Jv6Q1hL65AN+/2yG6vzQmHT/QKlbA7CbNveJ9TkA+dJNAEcDAv1xRScBSxsi/JyRBvyC9YUBaTEa/Y18EP7J7lUAa/S9AnlWjPzhRf7/ktSE/ZGanP6Kpnz/zQKg9kDzJP5BWwD8Dklu+O6wwvyf/Sz8Zx88/O8TtPz0PZD+3NJm/nA8gPu7XCT8rXGfAdVtuQIlLSb+YbYM+nIVhwAw6k79uE1s/qSRAQKwZPMCYcJW9lI+qQH4Okz8WaSdAJ6ZdQDxkoD6RESQ+DuuxPno7oz8K3mFA71Ffv6wgd79wy1q+IoaIP9vdOT/qMQRAWKKCv3BdYMDfYs0/ePIQPv8Qpz/My3W/SkKlP61NGL80ram/PutmvxA2vz+m0lM/ZmfJPyaKbD+VxMA/ccY3PwxN4D/313m/+Hrrv0lwoz8szOg/epO9PsvKej5WUAi/na/sv78O2b8hEoRAghHWP2iWBb+yAyI/aBLfvjWzRb/ogOg/MyWcvuDYbj8xYwbAYAVCP+kZkj9ZtAvAtQhOvqrZfb/jziZAE5EQwHEvyz9iUwjACR/EPkzkDL/GdkJA/4Eyv7PMJ0DPDlk/AIUiQDo2Bb82LPU/trVbPtoXtz9woqA+cjRWPgEODcDE1wdAXEzrvjzCn7++33E/XPwMQEvyhL+qP4W/bMEQQNisfL+cAmI/SNZPwJtkDkD+1jo/rE1cQHwH6L8mr6O+vdkOQCzjXz8oOR5AExuOP+fioD8zdxDAb3JCQG3vK8Aa3BJAU0iNwL1sAMBkzAzAgnsTPhdu1j5kWQZAruRLP/ZPnz/XPcI/m9XAv06sXkDCt68+cfepvtygUb9g3D49HfoEv8FXDkCmzZe/gJm3vuAtvz3JfqM/Sqs2P5q3F8Consk/uthmP+AQfb5Tama/Jl5WPzGnHMDigEvAByO3vt+eIcBCjXHAtnYVPpBNpMAARUU9FSWFvyAwQr6gUyy+YAFLu85HMEBWjuS/6au8vwz8qkDjQqo/DFJbQAh3+z0A81Y734xaP3/Voz/lV1M/lw+2v4ygcr+Nxs4/TUoXP1RH2T/e1gK/CYfkPp3Hir5S1i3Aa2pDvzXMMD5XahdAb3EAP2dMK8Bc+S8/jkCnPjvG6z/lRxJAHpoqPt4tyj8lRwrAT9MdP4QTqr8oDKS/saagP4/cB78Z5ea/mROLvrW5hT+66pFALrn7PpARPb+8yUnA79ITwFGGRj8eBZK9OQgcwLybnb8WI4s/Bm9pQMj1Eb/yJChARL8awB55U7/m1/++5jlKQATQer/SMgHA10CWvxP3MUB4kWY/e+8vQHKahb+0o92+h6MmQMbZY78KnFG/xn/tP0dvmr523z9AicSwv4cCCj+2JUBA+EGyP5EOpr7Y9bS/MGBLQHYdCsBMThTA7psPwLuxbkAMwuM/eMgPwArOGL66QPq9ZPemP8znmb6IUlbAjFvAv3yG3T6fC6i//hWIwIZJQMDCuIW/OY3mPqarTz/mjta+bDoVwGI4qL9hW86/upOPP/x3pb/y3DxA1wPivzyz3j0wotO9wESDviBR6L5IFqg/HimAvwZLhz4U7qO9dGcjP8IiC7+lUcQ+YDBuvl+WCUA9akpANttvv2oljz9Swo2/vJa5vzSatT/etqm/ytJMvs80UT4Kx9U/GKXsvZmhFT9IeCVAXU6PP1YVK7+mp/4+bemiPxBxe72itIG/gnpXP9GD4j9gVik/5KOGPjkow78KVX0/GXX8vwcSO0DSize/N4mVvkb7Sj+lXFo/QISdPn7DJ0DDmEK/"},{"catName": "Amalka", "catImageNumber": 4, "nightVision": true, "outputTensor": "rzwdP0yEE8AnZwlAhUFhP2PYOMC4trO/ugfWv/gmDb8SR55AI0vIP7WaiT8aNem/cgaIvtIo2j/0sxi+zrlev3jkkj4Q+9U+aLHYv2b8B8AzMRRAEvGhQC3AN79r2TXAWTiXvxbr0794elxAeFodvpw68r8zB6e/gtqGvkybw8A/sNA/u9UTQAaBJb/QEMo93eCUv1H5R79S02o+rUTGP1VAgsCMdh6/4AAFP7vloz6lbOw/PvfAP/X/v7/je1G/uITEPhYYXj8erQ2/EBXaP7q0BEDhHrq/Qy8PQDgAyD7L0uE/zHTdP7ALIj9brem/VC/aP92yOj8vmiq+inHTvw3BHr5PDDw+WHsCv0hnz73Bueq/iDXMvcjQF78uXSS/OEp7wNBSjb9E75C+SscYPzll4D54yoK+q4HjPw4Vt790DE0/JMbnv3ISn77rm4M/PCbiv8HiyT52u0q/sud8v9MRFD9kj2A/dQIaQJp+ZcDmQKU+T1pWQA4wV7/iHSzAhss6QK0a6T/M92e/qSi2PwV4LsBwKFG+AEkxv0ZZoz+OKoi/1h8rwIrb5r/+nQM/Sl6ivzLE2z+bfNk/uPiMvljqlT2jdGw+pJhgPg6rsD7ESgvATd36P1/h4b4ktDM/ziGtv50u+j/5WTHAuoxswCEJtL8yP0+/UPm3v/8vD8DecRY/ah4FQEWumL5OtlY/yovCP5aaVMAerR8/uXwwP4B0fjyUm5g+HgD/v0NABECUiAs/gHxCQHHbUcBNS78/cVyYv5xkzz8Lk0bAdMhRPmTXOEAzyIi/Fod/vx1aIL/Yjcu/MiWaPqSNBMDd9rI/LK/Yvh/TCD5Vik+/dJKYvmPGEj+wIdA/dLHcv/cYDMDQwgm+/60kwEgIar0sFtA/z3XOPwKYvT49v+e/jIPNPzidTcCuWThAp5kwv2UVG0DqbRY/FNCEPl7p8b4JO8w/u1HqP0xRBEBEOGS/Rs4SQHqLhj+h5nzAih+rv62s7z9cl3k/BdnNv4pVnb/sz8I+U3SYvlgW972ogpe/TD+6Pqy2cr+mqQ0/rRfJP/RVsr/f4AZAuOLJvu7O+T6lXpm/3ZFtv/pv9j8RA4Y/3mqFwBbxLT+NUxlAwJ/mO9RX3T8yFBO/ZJDtv4G7Hj+JBiXASql1vgLVFUA1vk1AYTYCvweTKT8Wl0k/Ttm8PyhZgT8MdHHAPomfvw2vqT8mwMq/it3yPyrYSkCkIfK/h0I7v7jGML4AANg80Er1vzajS79fgXQ+U3F3vggGaD0rBGvAuW4WPmPDjD9KDtW/oin+P4zu674ukxw/NVYMPwK4/z7hxU/AppIKwHf9f7+Gj4M+/XYCwH63xr8s2Fu/VQXcPyuQ3j8mFo4/TsECQKQvI79Mkpu/3lRrP/xEI8Ck3hm/BPu6P96iar/Wcba/rFHBPptxqb8cX8q/T3erPyxNbL8I4IQ9GBF2vrReMr/a9Cc/dFcBQABeBT/XP1+/7sX2v3Dxt79oxGXA8EujP1JrIUDm6o2/KLizP64R2j/S6GfAPDAKQDxE4r6FCQtApWADQP6WIsBTxBO/qJYVwNi69T9qYeK+3Cb6vxNFi78w5mg/23iSvtqwKL+PQhbAE/15P0eblL+rzh/ADR0EwK61jz9ijRLAgpzEv4ZXmT9QTJI94NxlP1LoOsA8O/2/r4UEwEOuKEDKqIe/HBT/PiTYA8BoE9++CGfsPyd3FsBFJaw/vjEUP18HML+8WhZA7s4iQBju3r+AyAXA4Ejmvq7qqz4apxq/WNRowKfjbEA0U0e/LzMCwEAwEz9pEf2+iE8XwFD64z80J0XAdd1ZPyR6h7+f+CG/cjxOwFggX7+jKhG/X7KpP+fZrL/LqSm/eGbhP8YgEMA89Ou/wgyePybFcj6npQBAqElivu6Lmb8kw5o/qmNev9mGHj9jSStAWPUBwP/PlL5osf89xTYIQK0B+T+bdtm+oPxOP1DXEMB824c9hBKFP5Xo6D9SrY9A2DDBPydWe8A6CMO+im7ZP/eKnD4o+1rApYfcvkg4hz8Y5Gm/7hTwv8DznT+KH7o/daawv1WF8r7lLtC/MNc6v/tyR78P9CE/qWWLv0E07L6YTrk9VGuzv2Q4FEDQNBJAHg7HPsHRMMCjupm/XSIRQDzL5T1afmI+uWcBwLXFxD4er0VAzINhP8bsl7/iaYa/MGQyvNX8MkCFqnvALNgPP9ojr79iFQm/yH1avtC1fj/qJgdASjT4PhOfyb8u0rE/RhJmP4ZcVD9o916+APmcv/XMob6QdaQ+6Ak8v1SUFcDgADC/GIwVv3r0jz8OJBzAFrgyPxDxBEBoKqu+4IibPHzjLUB/f8g/Z4Xkv3vBFsCyH7C/gom5v4ddD0Aln5y//icAQA64IEC14ytA1k0GwDx/sT1SJTc/HH8wQNH5D0DM/Y4/BrbnPgBHlD9gWU+/yDjLPzqihL8ipqE/N4urviCZKz8O3GS/L8Qnv+L2NT8wekbA2xKRP8pzHkBsIra/pnsiwJoBWsDCH9U/KmalPtgSWz8UAly//QtCQHIlIUB2pyFAWfAMQKZGBMAeE0hAyf1uPqumMUAaHJ4/cNcgv3IjIsD5aYQ+0JCHPqRk576AIJ8/QCFRv2sRnL+AbUm/a8mBvzmInb4lFPe/PeotvxADFD+zc4M/8Mmfv6qF8z/PRS9A3WwpQNg6kz8+QvU/2AbSP+zPDT5i8UY/Rphcv6YVfr7339Q/ZPVMPqpZWcBTlG+/y6CbwD3epL5wrJw/VHoQvtg8aD5e/fU/FUEHwACqSLz6BWY/ONnzPdbKOkD6nU6/8C7OvMbgcj8sNsG/79UEv+UDAsDlBwtAnIWrv/5BML/2FQK/tBDZP0TbIT75/QpAFKDDv+pG5T/4/Uy+yKRqPwZqXr5ifA1AiakbwAz6hj8WU7O+pqIwvujg3T24l4bAgKsrwC7VTD+wXHM/7k5cP2g0mL52uMU+bruiQBdgoL8yyqg/YlVGwPK5QkA3/URAbpFOQHbCBL7Ez2a+ofoqQP+Qoj+WYqE/JPoswBpL8b+ypui/v7m1P2qn6b96ITFAtLdJwIOoQ790B/6/2TslwBzTPUBmpcI/Kx+sP6Ywyr/YRIVANlvBv2OzCkDFUuO/EUqDvyj+2r9Y74c/AjOWvlAoFkCIuYW/VzlJP9+zIr9YNr0918GNP2Z8SMDU9wg+hvEwQL1tVb9Ncpo+OlsBv+vIOMAYstS/EAIhwIbx4b5B1/m/MN3AvDDnNsBkNJa//W8kwMgNIj2jWau/cvgkwCNKgT/reCa/wsXNv+hhXEBHX+6+fWr6P87nHT/c+Fe+/mjwPp5WRr/zid0//ws/P8//kL9MBvS+6qjUP5ZaKz8O1mg+kHc/QD4ImL8BVz+/3+A/v3SkFUBl9BZA3KPTP29h+L+qmNo/A43/PpZGlD8EgyhAlkCRPwLDMb8e+fS/VB6NvkS1+b+jNRK/9FVKP5hj5D0iLIY/sBpsPkNhC0DLVg9ALRVIPjB9fD9eqxC/ZbN4P3a2FUAaCW5AidRoP5qaxD5c9SM/qs2AQDwdVT+F1K4/OaMwwPh8Xj8OXPS+yetgQObgEb/fM4i/Ob6Rvw04sT4YOju+4u/QP5yoST9mSuy/BkcpQGDkeb5YUibA8p9KQBCHnz7a8jxAC2yuP5T6xL0a3ipALgRjP+bdKEDRtxzAsEwOQDULXMBwGwHAhpf2Ph1/LkA3FNk/yfs4vxUdzb6E2Si/2EK+PnkDLsDORte/6hs4v+S+lj7reve/pOWIwPX7rL/KAY2+67i6Pod+sz/cX7M+Dl83wIiDo78NgjS/ewR3Px/gCL/rjAVARSNnv94Vmr9r19O/dN+YvfSFpr+O6pQ/oo2Dvy9XhL1Ca4Q/sZsdQJrNKD0+lwNAvxS7PmDU3DzGGxdAaIoPwIqVZkBtfe6+9+sBv4ylxr8IVgC+5lJGvzx/gb8geuM/3HMBQGCJ4r8AI7k/CMyLvqZwlj7fOj8/TPPdP7iDML9yo+q+OrC4P7aCy74ECn2+4GrFPwJ+Nz9sEwQ/Zy+CP/rkHL9Udvi/WuuOP8pAeT+s/kRAUDbSPrZHJEAwZP2/"},{"catName": "Gita", "catImageNumber": 1, "nightVision": true, "outputTensor": "AC5av0hoL8AFYM8/JSDavpYvH0AULZK/KsjAvmDvZL6fIzW/WofgP/yMxr48KYFAWEcEPrjzmb1bhQFAau8UvpjyH8AwmPA8mm7wPlwkCcDpBC8/8s1uP5mmhT3ePnLAiAGhv5Sr2b9+e8Y/7wT/v5todj/mMXW+82GUvxcuLMDAMDU/bHHbv9CeGz94sTJACHhxQBirvr7lh5w+fsFrPwKzob/S9ca/IWDYvwPprz+wfIG/ty2ev7B2tL5e4iLAzJVMQB5ehb8xea+/Tiduv3XpCUAOiq+/+tAWQJBH0j8JDi1AXm0Uv8U7CEAbcpC+abUvvyy/3L/4K6U/oHkFvvKa2z94P1G9/TKTvviHyD8M9L2/FQPMvycYE0Bcqfq/Xg2UP8B0Y7+SX7K/IQOKvlDM8z2Yre+//tSCQMAHB76Gxgs/VIPDv8RWNj8bSCTAnITFvkA6vr0RnJs/BoEbwGA9pr82J0C/VzQAP7K4I8D19YJABIVPQLo/qD8Cze+9S9TLP7Ssjj9StWW/XPn9P4olNsCwg0y/nYqRvnS1gb/QZOA/iMkTwEhue77qtQDA2BeCv5ps4r/1rinAyCTav+okpj+5Baq+yqRwP7hTQj86CYu/Ok4mwNw9gL/SwwbAWGmQvxt/4T8ubES/r1iGwOxeP8C+mte+lJikPy2yFcC9b7Y+Mb9TQKuFBMBkYGq/8fStvsch0T/qfak/M+yrvqz3ZL7P2gm/CAACwCx5zj9KN/C/RGt6P5i5Gr3MKeA91hoTP17W7j6uH1PAQpKjvyBZ377FJAjAlsGZvml2yL+0VEo/XR7CP0fUzT8Y7y9AGA2Lvh8cFkBIcjtALlWyvsKSPkC8Hn4/Sv53Ptww2r99KkY/m+1+P9hpvr0mrji+HGNLv6bJCcALhk+/kvqoP9eOocDWEa89V2s9PwY3NMAGLBQ/h6mov0606j5TH66/UQCgP6HjSz+X1QVAhxCsPyspvz+jhyLALwuFv2TGjj106ua/24jWP857Oz5raP8/U9IkwIRzVD8qe8U+Oh5CQIjH2b+s0ZK9YjQAQI+smr+IxHw+eCooPgyvVcD2fx2+4Bv8v9iARD/ImaG+lReQwN18HECFrjG/G8sdP+jg4z+3cTpAdgErPwhQXb96/6S/HK+VviSOQkCWQQ6/o5mfP/xO978a/Zy/gOc3u/X3nL/AEaW/eHQCP9zlJ7/7c5i/VrRBQPj/Db98Zr4/mSvFPQhlRT8gJcM/bVblP8+tu796cY6/EJk7QIvAmz+CEjfAcpNIvtqOAj/FzGQ/BewlQKLUyL8Q3oM/K1EuQBCiyL1eO9s/u37GPxv3tD9ZqBy/T7xBwDloGUDyk++/FwgTwPUTVUCqy5i/DlxwQLr3vz7KzYK+LMT2Phh34b8avty+RlVEwJIhM78+X4u/3sNAPiOlmr+GgNu/PK8gQIkb179ReA7AvI2oPs7cfUDi2oi/rzjoPkeM3j+wBSpA0qycPjo6XkBA/VQ/0oqOP3dgxz5QrJHALGONv5z2J0CymO4+ED+Vvn/BnT8IlTE+MvEcQJBZJLvedCm9BHnrv11ZN0CErCRAVqPev6v437/aWw4/Io9sP7vgAD/qjra/+RU8P2UWo77VM4W/dgTMv9ndYL8f4u6/GdZwwCLJhkAUPHA+yX4tvx3IxD+2zOG/AWO+P95ojD7KPVO+FMDKPu6OcL87Aoq/RJgbQPFWBD8Kg6a/64WxPm8NAMB4+zVA+IlRPw57RD9EX9s/cEzqvxIRuL7w4UnAfOiPP2a+Pj6kPSQ/CaoCwPLLo7940QbA8EeYvuLuWz5MonG+fesTQLRmFUAa70LAzysCvzlitD+xLy+/1yklwEk6iT+k8dY+KWeGP7Uad77Tam6+MKQGPzxcJsCUXcM+46bKPpEWg8AUBM+/4C4rP1WWnj6uywG+aBQDv5BuFD9Rbe+/n5FgP2Ntlb8hJdS/GVtDwGC/fD3AaOS+szzvv3sH9r+K03w/EG7JPsjDPj9E3v2+UtTsv1Fkyz6/oq6/LEjmPVWv1T/A+447yKz5vXyY3b8T3CQ/sIxiPiTjeD+XSIG/4j2rv9GgV8D0kBNAbGJ/wKBCQj/E7AdAu8T4vzmsc8BQRQrAsXFAv/hSKr8PPZK+xYyWv5w1lL1DmU6//38XwJSnUr8nNSrAIDiVQKIwvb+cPINAv6lTv3TSMkAuVf8/BF7/PrSEbb9MVvi/PGeHv2or9b49nNG/sW3vP/Y9gT8q9J2+dKKGP5Cdo7/GIW5ASImSwFG3HcAjXZVAI6yBP7Ga8D99f0xA7jclP+oLDEDvwYbAnpzxv4CA2j6BJTlAYGJuPpxAEb97nQo+UlsOwN4itcDvjzjAITAhQGg/4j+we5m/1qLIPwjxjT+c7aI/QIdQPM99g8DZ0+Q/IG4Nvw6A/L5BQvu+HguTvyfkWcA4yJ2/YEfaPwNJZ0De66q+egujP9xXekDLt2m+HExzwAR1qT4u2gi/XNIfQAPdpT53m7k+oNbwvdbxUD/CrBE/nFmxP5pOlb+leRm/iN7cPhSviUCj0pS/ThTKP5pfh78BiQBAkV5KvwVPmD7AKri8jx1gQJ4NzT8cF98/OqlSP+vbNr2OVpBAfTw5P5lmyr/G07y9F32Tv+ENUb9AMIE/OocYvpLMF76I2oi//T2VPwDL/jy8WCC/UxGAPjpW5j85jHbABzMHwCCgVj02x5q/8t82P9L4lb7giv4+zuPFv6VxkT9jnYS+JJmZP2g1V74DwEs/RRfNv9zc3L/MV34/iJOUPxrh1T/gABU9dmdGwJqBTEBROpm/2midv7QifL9kg5k/xt8IwKcCDMD3zDNA4TjrPhLDM74k67s+Jcenv2FBGcAizXQ/SGvuv6sdar86r+y+ugAGQCwfA8AuoHu/TCORPpYC/r6KbVxAQFUTQHhLl7+5ja0/WjPwvyF6ib+MuDa+dsAMQEX0fr76n5e/jOzCP1n/7r/bmqc+9GmNveYxH0DHoNA9pOlwQLdK/L9AKqg/whKLPxQ7Kb/quB/AjF6Rv57bHcDAn5u/8D6FP24JisBUGHRAvgN1v8z6+L/8az8/YD30u6vq3T9TaKM/EFDDP8+oHD/IFxs+K7yEP3diy78qPOw95twmP0l1v7+e2te+eMR+P9wIb0B1Vh0/BGlhQIoFHb2nb/c+WJTHPy3wXL/cQ/I+VqJtP5S9QD/JQ8c/NJ7Tvqn9eMCkNw5AegQ/v4IhQD/g3xc+Pt4VP1gGE0Cb/po/eU2+P0j+V7/mo0zAWDATP4eVIr+X8SW/gI6+v2uTS0DDcGu/23uiPvSdaEAE4na+jNaNv3b+ZL/pr8q91nj4vziB6T2/7SFAH9AuQI0ZGUBOOTg/9mZDPtkDPsB/i0e/+AooPjheqL3o02lAS1ylv/Tueb/sm04+lAHcPrUY5T+dias+TrIBQP2gV8D/IYm/4apyQDTsJ7+XMai/07O1v1g7Fj6ssti+GqpxP/gWS7+TAI4++hUpQFxKlT3Ym5I+ctkTP+cKIUC+cAxATKlePSjPSUCZLxy/L7gvPBza3z/pUy2/83PBv5LJJ78Veia/Y21kQGYUrj8PzXm/1LdkP7xTwL/VDM+/ZDYOPiRs5b5UnC4+uFoRP5DUE0AdG0JA/CJBQBp+CEAcYoq//MjnPwz5mL9WtRK/XQohQHBpRL92QUO/D0aAQDc+kj5bXse/8BuHP5JPiUDIz6k86RqNv8X19z32Cf6/uB92virOKkDiGbQ/RvGQP76DAkBT7yHAtpxvv4QG/D/upbm/iHpmv9txC0BKOJm/0HhNv+lqQj845WFA55urv2o05b4agXk/0khTv3okCcAophPA9SD4v7DELT4F+0u/Ql9DwHhZlr43BAfAg8Bpv8P5Mr+tgZ2+bxsEQHb5m78GQSc+0VsnQLWVlz8c0cE/KtO/v4NkecCYkQhALzbSP69sSb9O9BZA5gLNP0KS8L8q+y2/km+9P+TlBr9I8P8/BsbnP/bl9L9w3ne9ecvLP0W0jr8A7ny8/CSVvwS3HT90MEu/W6FBv2Ci776nWhM/qOQjvlfPpb6a2k0//GnwPwnOpr9oNue/"},{"catName": "Gita", "catImageNumber": 2, "nightVision": true, "outputTensor": "In4Ev+QP2L+zO8s/VpzDPkNdpz+9VBO/bje2PkKk7T9FWri+t5OHQO/+Nz85jAVABEqfv9pOYj+v1gM/5Cd9vs5MGr/aCBBAfdpTQH9w4D9ajmM/GtC4vpw4rD9YUOi/iD9ewGTdAD8ttbA/VEgzwFwm+T+4igG/oepnv44YIcCNNRLAnWE0vsBNRj8A4WVAJg0Iv+ccIcCJOdI+yz0FQLAulD1I7aq/LvVPwMCCGT97QAy+wo/hvw4IBT/bxQhA0JduQAPWqj+LV52/sr1Cv1+Ktj8WkJU/iALUPvKVOD82siI/iMDWP9R7Aj/SR4s+aPzlPvxPuz3FCYq/u24jv/I73z9Oq+w+5HsnQGRCjj82vyhA8CcVv6H1gb/o9IG9A5BVP3qTn74sMzPAWHcOQDvCKr/t3We/8r9cQJi3vb7cBM4/rPO0v4Vq6T4LoPy/xl2kvsiTb7/4ock+dJydP+bblL9OTdi/xrGFQIgzWMDIZGO/B8dkQAb+tz5hHqG/Ipt9P/hwgT+KkRXAnuIbQCIJYMAQNfo97pOVP20ZO73CXAlA4K2Wv6+P876UvdK/F0m5vzGCM78NNJPA7rrKvxfRd7/KP5A/GfkJQGkFfz9mU78+8MsewIlGSUDkaGy/mPSCP0yI6D/pQJ6/mMb3v5GQJb8sZgdAR60fvyxTP8Btq4y/oAZeQAlaGMD1m6Q+aiqWv/go2L5xcB8/sZP5P2DCQL4WuVM/JYM5wH9zSL/8FcS/ZA0uwLnPZr5tP7G/rJZKvyTB37/aPm/A0UwPP3qEFz+9NTfAXwAFwKBfQ8BCmCO/xPB9v1mBQUDpyyhAXJv+vpgtmj8wgFI9LoaOP1+jWkCwHni9nLUQP9Ck1L5h1Ia+jPVcP9zNu78YfoU/Cvmlv7F7CcAvMTTAitWnv8U4jcCwSae/OKXwvRN/3L+2EEJAvk+HvpgVCkCyVCzAZSnRPie+uz9Acsw/EDZMP1TVDkBBaAfAKm5Gvl8uIkBKOde97uq3P0utUkCHeqk/RdIuwHZ+kb6owti/2+1KP9T1M78Q/Fu9ao4dQLktpr+GCqQ/GpiqPwlzAj+aAQTAsdxOwN6K/T9r1JS/1tSFwCSOLT6EWWO/kBIuv7nE9D9Jk3lAbLzzPtWRY78TnUXAIDgKvsNTZz+0ea+/8H0YP0gCWj/V4QW/M5cCQGD4Uj5ADrC+mKXSP/34F0A1doO/RBCoP2sZv79E2nq+RCcaPuZHrj4WPKI/+t6av66V7T6QksK/6vyWPTTY1j6Ehq8/D8CMv38Dqj+nIV8/L9yLQJTNfr9tY3I+SBekP1h9/r2MngZA7ezLv7pcAT+OOaq/19QawN6J4z+lfKe+ZF5ZwH44uT8MuC7AnMAbQMN03T5AUea8iLSCPwFPLD/go1G/Gb/av67I0b/TxOe+8p5wv4mayD+67qG/wOtVP8Jc/r+A2mg9PIPcPls5LUDKfaG/ZsQ6v5ieg0C82JE/rJWIPxKObz8uJvK+5MuTP6iyNj/4kiHALncGPlbbV76oJ4U+LDkQvmxuZED+ICg/UZXWP+/b9j+sCxi/S3Uhv9k9CUBEDia/bqXtv5ePrj/uFzE+DQc/PtxYCj7n4xfA6lGMP2q0vj8IDh3AZ1fJv03Ui7/NvOK+CgzLv35OY0CKnqC/IJyDvTIeZkCM8cu/KlQ+vui++75oXwtADmf0vqHGmD5itjDABpNDQOZ34T/c24jAjSK/P6C8gL7g+g68oppkv7q//j+z7nRArsulwKkN1D84P2DAmthVP3RAkL724Q1AUBESv5b1K8AdQpO+Ev5av6c34z/x0gw/WumuP00cF0CM7vi/YHMaPTbrGUAogMG/h5XXv75LKD9OFcw+WP3xPaYTWr65esK/tC1HPsoXSL7EHRtA85D4P91HU8AL+6S/ULgbPxkPTUAdoA1AeNaQvpEOZj7AHGW/PPScvyWq0r98cMY/FqzBPryIp7/E5L2/U4XVPoZE1z8NWwBAApDavmkTDr+QiPs+YEshQBwtdz74IN6/jteiPiSarz8UIDo/tLmaP1rZJD7Xbv2/Tf85v0/bvj+qJh2/CEumv2at7b6LNxJAIV7xv3uzOkAzxwtARbvlv75/zr8D0dK/pws0v3VbCUB76si/FePNP3Lc2T920Mm+7B5Gv1YpSsDHCxPAzvkgQCoCC8CG/yXAN31sPh4/sD8iRPI+Axwlv9j2Bb/Y5QvA1Ds2wES6V776CPW/4firPzE05T8ee/Y++sMjvtsncb9Zsio/TDz8v0jFW8CYuEBAlEQZPxBtcL0AiQlA1a2aP3JYgz+sBNa+LT/avspPp78BImhAHMmev9LCA0DA/3Y/ktsUwFqmQsDzoWq/MN4RvsTWxz+s8rO/Og2nPteW+D+EnOe9vn++vwPE7L8Vx1BAlO2VP6ziuT/nCbc+1AKuPjYNfr/200TAm9GeQGqHOEC6FPM/lbIYwIwLdr6/iTG/dGhKPUokBkDgTMi/BpHSP4PfY79e+Nc/bWicvko2gsB7rJ8+YMTGP0URkb/+gya/Ev09QD2xuj+b0aG/Zg6hP6/FMT9igi7A+w5fPyxZDT9G1uU/CQwYQF6bob6rdRU/IkUevwzOK0BMx9c/ZAInP9Zf8b9rGdu+iFEbwEp5LsAW1ms+bFW2v5SRXED1d9Q/4Xv0P4yciz+9I6a+kJ11PyiMoT/f+0/ASTuwvtwBbD7Zg5O/lAB/wI7Gfr50SNY/5taIv7Iz7z7K5Y+/Ro0/vwFvob8xFUu/8jWXPkBfqLxqUUS/TRtiv0N+lb84wkFAEKVAwFu7vD5LHgnA+6/XvzoBkj9IUGBATGsEv7hThr90kwxAfopbPxMlKsDoQ3o+kCCUPxB1VL9rZKm+X1Nav8xTI7+lUos/wpYBQI2pFr/NYbI/2QzCv0KtI8CCHwFAk50QQKvI4r9Cesg/RXnxv8+Yqb8VEi9AJg3yPqbZAkDwJpw+APUsvrpEUb8hh7S+Utyfv+AVuL5GQP8+wDZFPRpOEL8/5wO/8jM8Pob8A78g65y/ZE7Uv9MwnL+stx6/NmHrP/f7hcAmq11A6vaLv3jUMMC1cy5AAAojvFkLLr/i3ko/5lYev/gq+D1UqE8/lpgqv29VL8D8S42/PywawAaYXcAyGRA+0/ytvxzviz8OyIFAQH7/PlEzqL4QmG4/7dsGP5822j9EsTfAMdPZP6AkYjvYh8I9LdcHwO8HrD7GB8Q+WJqUvzwYXz/5+I0/UbnkPiY9ub6RpQU/dQuSPrEvScBoKSa/dvrEv5O2eD5cS8w/W0QMQO/rAUAI6ZS+HqaavpJGjz/UsjY/uq4HwJRJ9b6sCYc+4llEP7Lgxb1pZVe/xnNJQPMkoT7IA0I/Qv+uPTLZ6D/8N0TAeKj2PZB9yD3QCJVAHKBlvyILh79PqiK/EQPIvsI8aj87ztQ+7Z07P8h5BcAJz2g/dgcHQMWzHcAZkwnAnD0xPc3ERD+YltO/40aQPyp6OT8N2XNAcJimvIU90j5wHn+/HpQQv2giKUDl402/mFd9va/s1z8McyM/7oOdv/CpTkBElZ+/eVyQv/hjsz+vB1i/HhlOQOu/Gz94uSQ/M0XPv0lLCsDsBkrAc17HP98AUcCouKa/+MhZQEx4X0BDMa4+lLXIP8V1C8CIxNc9JFEsvqBL/T1BygM/1nt4P7C7db2OKT8+HucgQORz4L4wR+2/d48kPwc/GEDL6xVAXLq8vyxVpr/0L+C/biO2v9i6Y0CGY92+ds6dP99P3z+fgS3ADGBxwISnbr1K7oHAT6GHvzKNZkDwzAS9rsDAvsgDQz6OnlRA9Vyzv014Lr+0RyNA6n1jv0HeDsCIzRbAG1KuP/yA7r+SlWS/XTMfwOXyvr8Ob6q/yStSwBbYB78TlifAccp0P9dYC8B1ruC+boiEPw6k578M7Vo+aha4v2iiML8S/uM/XiidPndH3r/w8dE/ARrZP/iR1b8Q60I+2U2EP7Mwu787/RxAOciyP6DuhTzLzPe/5UYIQOLFR0DyucW/k61ZwMAuRL0453o+pxYJwIQjwD8fsFU/0fkIP8BVNj6QUdI/dva8PyR/ab5At4W8"},{"catName": "Gita", "catImageNumber": 3, "nightVision": true, "outputTensor": 